{
  "Ġclit": 91762,
  "Ġdonn": 32437,
  "ActionButton": 43332,
  "Ġresulting": 12942,
  ".invoice": 63570,
  "ä¸įå¹¸": 107364,
  "ĠPLACE": 81882,
  "(tolua": 78602,
  "@pytest": 33863,
  "åŀĻ": 122402,
  "ä½ĵèĤ²é¦Ĩ": 117886,
  "æĦ«": 121315,
  "Ġscour": 69255,
  "Ġreporter": 18960,
  "_fil": 78200,
  "_PACKET": 40328,
  "_mode": 7302,
  "Ġcooling": 26917,
  "Ġcounterparts": 37395,
  "ĠMater": 98308,
  ".second": 13560,
  "ĠUIResponder": 68821,
  "ILog": 64909,
  "ĠReuters": 22841,
  "ceries": 55182,
  "_rm": 58537,
  "(format": 20698,
  "hid": 46453,
  "åĽ¾æ¡Ī": 108108,
  "OnClick": 56003,
  "Ġdecades": 10793,
  "ä½ľèĢħ": 57421,
  "udson": 31678,
  "asmus": 81788,
  "Algorithm": 27847,
  "ĠBailey": 42214,
  "èĢĩ": 122406,
  "è¾¿": 122161,
  "Ġicy": 65904,
  "CAPE": 60892,
  "è¾¦": 100950,
  "Ph": 3357,
  ".mount": 79934,
  "Doing": 83046,
  "ĠPropertyChangedEventArgs": 92116,
  "æµ·åĨĽ": 106700,
  "æĬĹéľĩ": 117308,
  "çĩĥçĥ§": 106578,
  "_enable": 18988,
  "ĠSatoshi": 92152,
  "_soc": 54114,
  "ĠRidge": 34205,
  "æİĴè¡Įæ¦ľ": 106402,
  "Ġtut": 18060,
  "ĠFalk": 71464,
  "Ġmentioning": 44291,
  "Ġturbulent": 82221,
  "çĤ¹äº®": 115277,
  "L": 43,
  "nature": 66712,
  "Ġvalves": 63000,
  "å¿«æĿ¥": 112361,
  "Mrs": 49229,
  "éĿłè°±": 107971,
  "ä¹Łè®©": 108317,
  ",n": 10128,
  "XA": 59450,
  "Ġenqueue": 53757,
  "mt": 2501,
  "Keyboard": 18912,
  "plementation": 9874,
  "æľĹè¯µ": 118585,
  ":id": 39125,
  "Ġdrei": 57519,
  "agna": 54957,
  "daemon": 75841,
  "_buffers": 54591,
  "_kelas": 95914,
  ".xaml": 54101,
  "ticket": 26534,
  ".pool": 38963,
  "atedRoute": 27195,
  "_start": 4906,
  "-limit": 71159,
  "-hook": 33860,
  "Ġproduct": 1985,
  "Ġrelev": 78315,
  "çĨĬçĮ«": 103569,
  "_lowercase": 93129,
  "_CSS": 83579,
  "åıĳè¡¨äºĨ": 112823,
  "Ġunus": 15857,
  "ĠAlter": 42851,
  "è»Łé«Ķ": 114471,
  "ä»·åĢ¼è§Ĥ": 106218,
  "prs": 84305,
  "å¼¹": 100080,
  "equals": 7176,
  "Ġbehave": 35692,
  "-local": 40060,
  "Ġguitarist": 61640,
  "ĠLev": 27022,
  "Ġhacia": 56909,
  "Fantastic": 96732,
  "Ġbeginner": 48948,
  "çĶŁæĪĲ": 43959,
  "ĠConstantin": 91187,
  ".concat": 15256,
  ".MockMvc": 71008,
  "Ġsimpl": 15491,
  "_JUMP": 88730,
  "ĠNationwide": 89654,
  "Ġwaiver": 53105,
  "_activ": 71684,
  "Ġstretching": 41849,
  "åµĩ": 120977,
  ".weight": 25152,
  "(tableName": 61765,
  "æ¤Ĵ": 101667,
  "HAND": 74681,
  "éĥ½ä¼ļ": 101938,
  "Requires": 46961,
  "','#": 62175,
  "ç¿Ķ": 102482,
  "ĠKrish": 60964,
  "Ġpip": 23626,
  "(conf": 29879,
  "(room": 35850,
  "enders": 14506,
  "é¥Ķ": 122102,
  "finished": 12129,
  "ĠNurses": 95236,
  "Ġdost": 48315,
  "-priced": 84737,
  "Equivalent": 91060,
  "(Dictionary": 80345,
  ".StatusCode": 37828,
  "xB": 14377,
  "Ġfund": 3802,
  "éļĻ": 101817,
  "å½¢è±¡": 101201,
  "Ġ//-": 78406,
  "Ġfid": 32104,
  "ploy": 2693,
  "çĶ·ç¯®": 111777,
  "uParam": 91587,
  "Ġhassle": 46847,
  "Ġcp": 12490,
  "Ġcomfort": 6838,
  "èĪĨ": 101664,
  "æĿ¥çľĭ": 100192,
  "ABCDEFGHI": 71286,
  "Ġdeliber": 21150,
  "Ġnudity": 91372,
  "ĠDefence": 38907,
  "åİ£": 122788,
  "ĠIngen": 94468,
  "Ġagile": 61465,
  "at": 266,
  "Ġdads": 88761,
  "ĠBeacon": 58620,
  "inside": 41350,
  "Ġwordpress": 75113,
  "ä¸īèı±": 117254,
  "Ġcouncil": 14833,
  "Ġkilled": 7425,
  "UTOR": 83321,
  "DIRECTORY": 92463,
  "åĪĨæķ£": 105211,
  "èĮ«èĮ«": 116059,
  "è¡Įä¸ļ": 99717,
  "æĳĨæĶ¾": 108002,
  "ĠIndeed": 22348,
  "Ġexcl": 80284,
  "pname": 82662,
  "Ġsteep": 31266,
  "_cont": 10260,
  "Ġfuels": 39273,
  "ingu": 12810,
  "æľīå¾ħ": 114066,
  ".rep": 68225,
  "ĠOverrides": 46083,
  "ĠSpit": 81741,
  ".SubItems": 78800,
  "ç§īæĮģ": 114706,
  "ereco": 33994,
  "æĬ¥å¤į": 112236,
  "è±¢": 121285,
  "Ġfragment": 12289,
  "Ġwarp": 46320,
  "ouse": 1530,
  "è®®è®º": 112098,
  "CHECK": 34516,
  "ä¾ĳ": 119902,
  "ifica": 29488,
  "Ġstricter": 83718,
  "Ġissu": 51966,
  "Perhaps": 31476,
  "æĬķä¿Ŀ": 112828,
  "Ġkhi": 94994,
  "ĠEventBus": 89567,
  "å®¾é¦Ĩ": 107850,
  "çİ°åĩº": 100604,
  "éģ¥è¿ľ": 110998,
  "observable": 33495,
  "éĺ¶": 99736,
  "èŀł": 121765,
  "(f": 955,
  ".getError": 74992,
  "MRI": 78670,
  "Ġig": 19373,
  "Ġunderneath": 29356,
  "Ġroller": 28451,
  "Ġextremely": 9016,
  "Ġrij": 69345,
  "ĠFriends": 22508,
  "atisfied": 46265,
  "èµ°äºĨ": 104398,
  "Ġintra": 49838,
  "-metadata": 96431,
  "VALUES": 46089,
  "Ġ'//": 59660,
  "æľºæ²¹": 116165,
  "Ġbacter": 17398,
  "ĠClara": 50557,
  "æ¿¯": 121942,
  "ocols": 22018,
  "Ġdici": 79819,
  "ĠsortOrder": 78651,
  "æĿ°": 102028,
  "åºķçº¿": 108185,
  "èĪ£": 122496,
  "Ġsnapped": 47010,
  "Ġslashed": 83524,
  "Ġrac": 8971,
  "_ABC": 91404,
  "å«½": 123504,
  ".ViewHolder": 35236,
  ".synthetic": 46092,
  "ĠConditioning": 82392,
  "Ġmetabolic": 40761,
  "Todd": 96077,
  "æ¸ħä»£": 112978,
  "ĠAbdullah": 63432,
  "Ġsvg": 26852,
  ".if": 35431,
  "ĠPlaceholder": 86721,
  "é¢¨": 101369,
  "æīĨ": 122717,
  "ĠDisco": 93629,
  "(svg": 84008,
  "èµ·ä¼ı": 111375,
  "Ġvaccine": 24467,
  "Ġpurification": 93436,
  "æŁĲä¸Ģ": 108496,
  "ĠGorgeous": 86961,
  "Nich": 85179,
  "Ġdatatable": 93006,
  "Ġdisciple": 83695,
  "FAIL": 36973,
  "ificados": 90762,
  "conv": 12027,
  "LR": 20117,
  ".Roles": 89769,
  "ç¾Ĭæ¯Ľ": 116765,
  "new": 931,
  "Ġ@(": 42181,
  "Ġparalyzed": 87868,
  "(mu": 65131,
  "çĮ¢": 121007,
  "è®Ģåıĸ": 118648,
  "åĨ·ç¬ĳ": 114923,
  "èĩ£": 102394,
  "Increment": 38311,
  "(start": 10639,
  "ĠEle": 25949,
  "EE": 7099,
  "ĠSINGLE": 66759,
  "éĢĤéĩı": 106968,
  "Ġmolecular": 30106,
  "æĿŃ": 101183,
  "_seg": 35325,
  ".createParallelGroup": 18439,
  "(canvas": 36206,
  "åŁİå¸ĤçļĦ": 107581,
  "ĠLORD": 57377,
  "ĠCurse": 70627,
  "æ¢µ": 110300,
  "èŀįåħ¥": 104691,
  "Css": 40275,
  "ĠMayo": 57057,
  "ĠDiamond": 24334,
  "èĻķ": 101299,
  "Ġbecame": 6116,
  "Comment": 10677,
  "ç´łé£Ł": 118974,
  ".Label": 4679,
  "ĠJobs": 23076,
  "_rating": 30646,
  "èį¥": 120046,
  "study": 54965,
  ".pad": 56266,
  "Ġdried": 31620,
  "ĠGlory": 58161,
  "Ġbtw": 89857,
  "ĠSim": 4467,
  "_child": 17268,
  "Ġmildly": 75849,
  ".getStatus": 36663,
  "èĴº": 121133,
  "Ġtestim": 18992,
  ".x": 1993,
  "æķĳåĬ©": 106298,
  "Rew": 58465,
  "çķª": 86117,
  "br": 1323,
  "ĠEmber": 48234,
  "contenido": 76268,
  "ĠInterr": 79380,
  "Ġattorney": 13747,
  "Ġopciones": 75436,
  "indexes": 71227,
  "ĠgetIntent": 48811,
  "leton": 15616,
  "ĠSubmit": 29170,
  "æĥ¦": 119249,
  "æ¬¹": 122993,
  ")$": 15087,
  "å®Ľ": 103654,
  "recipient": 42610,
  "ĠintegerValue": 70613,
  "allah": 76478,
  "ĠisLoggedIn": 72018,
  "ĠDSL": 45558,
  "Ġcity": 3283,
  "ĠProviding": 80100,
  "ĠSpec": 10956,
  "Ġdigit": 15723,
  "èīļ": 123636,
  "ĠnavigationOptions": 99121,
  "Ġpropri": 21065,
  "HeaderCode": 97258,
  "ĠBuild": 7854,
  "Ġbondage": 42494,
  "kbd": 48456,
  "_TEM": 90617,
  "ĠAin": 81151,
  "Ġ\\@": 74080,
  "æŁĦ": 107570,
  "é¥¶": 106737,
  "_SUPER": 86846,
  "plied": 3440,
  "_array": 3858,
  "èĲ©": 122963,
  "éĽ¨æ°´": 110375,
  ".\"<": 55408,
  "è¿ª": 100222,
  "Guy": 78215,
  "Ġnoch": 17790,
  "æī§æĶ¿": 109072,
  "Ġglyph": 32150,
  "æķĿ": 119023,
  "(utils": 64166,
  "ioxid": 41551,
  "ĠClarence": 87730,
  "Ġlehet": 76132,
  "Ġvoksen": 70920,
  "abbage": 56489,
  "Ġradial": 56836,
  ".MON": 58907,
  "å²Ĭ": 122261,
  "Fcn": 62054,
  "ä¸ºäºº": 107656,
  "èº«åŃĲ": 108233,
  "åĽ¢éķ¿": 115484,
  "/A": 10360,
  "Expected": 18896,
  "Ġdisruptive": 61542,
  "åŃķæľŁ": 115898,
  "chrom": 40384,
  "Ġlesbisk": 91556,
  "_ct": 26134,
  "expires": 48203,
  "æ³ķåºŃ": 108943,
  "findAll": 51389,
  "Ġ$('[": 65678,
  "Ġaerospace": 77064,
  "Ġpredis": 79532,
  "Ġ\\'": 27152,
  "ĠThoughts": 60299,
  "ä¸įæĦ¿": 106717,
  "ĠSteelers": 50455,
  "Ġpercentages": 53108,
  "ä»£æĽ¿": 107456,
  "Patients": 85145,
  "Cast": 18714,
  "odesk": 71224,
  "getObject": 61949,
  "å¦¯": 119993,
  "TextStyle": 72963,
  "OPSIS": 91155,
  "ĠGal": 10620,
  ".wind": 88976,
  "éĺ²èħĲ": 108404,
  "Ġpatches": 28660,
  "(StringUtils": 63371,
  "èµłéĢģ": 109349,
  "çŁ¿": 99766,
  "^n": 86167,
  "tie": 48731,
  "filter": 5315,
  "Ġjorn": 71349,
  "ĠPRES": 78764,
  "(TM": 92165,
  "osals": 85975,
  "Ġpose": 17040,
  "ĠjQuery": 13215,
  "uls": 14295,
  "asing": 4422,
  "å¤ªæŀģæĭ³": 116674,
  "ĠMuscle": 67327,
  "axe": 49739,
  ".Ext": 16146,
  "åĳ¼åĲ¸": 102357,
  "æĸĵ": 103877,
  "[word": 49736,
  "tls": 34488,
  "Ġisr": 93562,
  "pire": 22922,
  "ä¼łè¾¾": 107707,
  "<Role": 68427,
  "CallCheck": 71196,
  "Ġrede": 30165,
  "Ġfitness": 17042,
  "irtschaft": 61811,
  "Ġcursed": 62871,
  "Ġpci": 45471,
  "æ¹®": 121044,
  "åıķ": 122378,
  "åı¸æ³ķ": 104341,
  "LOTS": 74602,
  "èļ¨": 120374,
  "Ġuppercase": 39482,
  "åīĩ": 101461,
  "é¢ī": 120861,
  "wei": 27105,
  "çĶµæľº": 107114,
  "ĠMP": 9412,
  ".Span": 85309,
  "cas": 24307,
  "çļĦåĪ©çĽĬ": 107588,
  "æİ¨å¹¿åºĶçĶ¨": 118311,
  "Ġpledge": 35079,
  "åı·ç§°": 112632,
  "Ġroof": 15134,
  "/\"": 11225,
  "branch": 17940,
  "Ġspouses": 65212,
  "åİ»è¿ĩ": 112955,
  "Ġdelimited": 85328,
  "æİ¨è¿Ľ": 99664,
  "çª£": 121320,
  "acje": 69209,
  "_detect": 56457,
  "ĠMarshal": 35667,
  "æ£ģ": 120611,
  "Ġsour": 20282,
  "lint": 14957,
  "ĠYu": 27273,
  "ä½Ĩä¸įéĻĲ": 116508,
  "fan": 30178,
  "-exc": 96933,
  "Ġsettlement": 17079,
  "arius": 40221,
  "ĠEmploy": 20782,
  "viewport": 18272,
  "å¥ĸåŃ¦": 112365,
  "é¢ĳç¹ģ": 106689,
  "Ġfilthy": 77342,
  "Ġobsess": 55259,
  "Ġenergy": 4802,
  "æĢĢéĩĮ": 112188,
  "ĠGrammy": 73579,
  "Ġdemocracy": 19525,
  "èĢª": 121701,
  "_Context": 71994,
  "spNet": 14349,
  ".Time": 16299,
  "ites": 3611,
  "éº¼": 100283,
  "iero": 43588,
  "ĠcancelButtonTitle": 76902,
  "æľªçŁ¥": 109259,
  ".Signal": 75669,
  "utations": 82141,
  ".subscribe": 24193,
  "ç®¡çĲĨå±Ĥ": 110552,
  "Ġjeep": 85176,
  "serviceName": 93485,
  "(suffix": 96466,
  "_Il": 38563,
  "Attr": 13371,
  "TypeInfo": 45588,
  "verbosity": 65210,
  "(space": 60704,
  ".We": 22404,
  "åŁİéĩĮ": 110836,
  "ulty": 14728,
  "_box": 10194,
  "glyphicon": 22135,
  "ĠEmotional": 94200,
  "More": 7661,
  "Ġincreasing": 7703,
  "-ln": 27692,
  "Gatt": 91839,
  "//****************************************************************************": 64226,
  "'utilisation": 98917,
  "paginator": 78356,
  "Ġpressing": 25352,
  "èĩ»": 112542,
  ".GroupLayout": 7116,
  "ĠfChain": 95183,
  ".getPosition": 41039,
  "Ġinsights": 25709,
  "Ġtrip": 8411,
  "é¾ģ": 122797,
  "ä½ĵåĪ¶æľºåĪ¶": 111939,
  "çļĦæķĪæŀľ": 105005,
  "ĠThrones": 46394,
  "Ġnug": 81780,
  "Ġinvestig": 4665,
  "alic": 31513,
  "international": 97597,
  "Ġtemper": 6797,
  "TypeName": 39429,
  "ager": 1409,
  "ĠConsum": 40962,
  "_is": 6892,
  "ĠCoco": 83382,
  "_received": 40783,
  "èĪ¢": 120168,
  "ptune": 51914,
  "Ġstole": 39506,
  ".Char": 10447,
  "ĠFuller": 70469,
  "Ġchuckled": 96611,
  "lycer": 67490,
  "åįķä»·": 114600,
  ".openConnection": 87122,
  "Script": 5910,
  "/umd": 83199,
  "çī¹åĪ«": 100654,
  "_rp": 83440,
  "RS": 11451,
  "Ġvotes": 12684,
  "Ġremar": 83128,
  ".Normal": 33636,
  "MR": 18446,
  "è·Ħ": 120655,
  "ĠMotors": 36692,
  "ĠBut": 1988,
  "EDA": 86761,
  "ĠImprove": 64084,
  "oh": 2267,
  "Mov": 93841,
  ";c": 78632,
  "Ġgypsum": 87580,
  "esor": 47835,
  "ç«¦": 121028,
  ".Dark": 58396,
  ")<<": 35392,
  "Ġcontributed": 19590,
  "completed": 34735,
  "(vc": 80698,
  "å±ħçĦ¶": 104555,
  "ND": 8065,
  "andExpect": 40793,
  "Restr": 50360,
  "è¿Ļä¹Īä¹ħ": 113260,
  ".*)": 96494,
  "Ġinstitutes": 93712,
  "åĪ°": 26939,
  "ĠFIL": 63335,
  ".AutoField": 54527,
  "ĠPhilipp": 19945,
  "eval": 14170,
  "ĠLOWER": 85457,
  ",args": 63955,
  "é¢Ģ": 120444,
  ">Type": 87065,
  "éĻ¢": 93823,
  "_buttons": 41021,
  "Ġretrieved": 30403,
  "operations": 38163,
  "?s": 55370,
  "åħ¬ä¼Ĺ": 101380,
  "_ANGLE": 78934,
  "è¾ĵç»Ļ": 116901,
  "-char": 42538,
  "Ġed": 1578,
  "åĬ¨åĬĽçĶµæ±ł": 115624,
  "ĠProdukte": 87479,
  "eder": 7294,
  "ĠACPI": 70118,
  "ĠSPELL": 47844,
  "orida": 39757,
  "èĸª": 100311,
  "Ġrooft": 55605,
  "åº¦": 26381,
  "Ġpressured": 74351,
  "ĠJIT": 96187,
  "æĪªèĩ³": 102219,
  "ojis": 83428,
  "ĠACTIONS": 63315,
  "Ġtriple": 23725,
  "iners": 39699,
  "(dt": 24697,
  "Ġalg": 17345,
  "Ġforcibly": 73823,
  "å°±åĮ»": 110166,
  "summary": 1708,
  "Ġjm": 95667,
  "_pt": 20124,
  "_LANE": 68488,
  "_relation": 46984,
  "ĠassertNotNull": 44328,
  "ï¥Ĥ": 149442,
  "ĠMAY": 39230,
  "swers": 9409,
  "ĠLSM": 90474,
  "starttime": 88786,
  "åºĩ": 119320,
  "OfDay": 55075,
  "Ġinterception": 69468,
  "Ġpadded": 43868,
  "Ġprinter": 22380,
  "GBP": 96386,
  "Anyway": 48288,
  "Ġaccessed": 24758,
  "antaged": 74140,
  "Pag": 47712,
  "essenger": 40137,
  "ĠZiel": 77356,
  "vip": 64197,
  "Lit": 68954,
  "ĠScatter": 94359,
  "\\Page": 94662,
  "Po": 32904,
  "_advanced": 83843,
  "positor": 60950,
  ".parentElement": 55265,
  "msgid": 86509,
  "Uploader": 67574,
  "Ġcamer": 92925,
  "Ġbaskets": 68344,
  "UBLE": 21734,
  "_COLL": 74317,
  "Ġstrugg": 7930,
  "ictures": 7489,
  "ĠCOMPONENT": 70303,
  "Ġrepublican": 90436,
  "_COLUMNS": 71903,
  "FRINGEMENT": 24556,
  "implify": 70206,
  "rello": 74133,
  "-upper": 53262,
  "_wind": 87438,
  "çłĶç©¶è¡¨æĺİ": 116827,
  "ucs": 42089,
  "dashboard": 18641,
  "_cnt": 15982,
  "åĨ·æ°´": 113090,
  "Ġfif": 11128,
  "ĠHighlander": 48630,
  "kish": 73620,
  "Ġnouvelles": 78980,
  "Ġbut": 714,
  "istle": 28300,
  ".Url": 41024,
  "Declaration": 24489,
  "Ġoffice": 5163,
  "ulings": 67249,
  "ĠScrap": 79085,
  "åĶĲä»£": 112679,
  "bootstrap": 6281,
  "ĠPID": 35771,
  "ç¥Ľæĸĳ": 115240,
  "NZ": 69930,
  "æĪĸè¨±": 116521,
  "Twitter": 24862,
  "(parseInt": 49548,
  "ytut": 88486,
  "Ġramp": 22294,
  "Ġpet": 6753,
  "ĠUnlock": 57430,
  "äº¬æ´¥": 110492,
  "abajo": 73268,
  "\"d": 44917,
  "æĬĢæľ¯åĴĮ": 107772,
  "å¾Īå¥½": 101243,
  "CATEGORY": 93027,
  "erson": 1270,
  "ĠgetUrl": 68019,
  "Ġ(('": 92833,
  "Ġshut": 9311,
  "ISHED": 38879,
  "abad": 27347,
  "ĠScientists": 56016,
  ".findIndex": 54042,
  "èĤ¡æľ¬": 110186,
  "_dropout": 74605,
  ".onOptionsItemSelected": 68467,
  "Ġpenalty": 16346,
  "ji": 7754,
  "tml": 3864,
  "ĠVi": 11401,
  "_status": 4773,
  "-layer": 47335,
  "Ġanalyzed": 29139,
  "è©¹å§Ĩ": 108037,
  "æ¦·": 121389,
  "ĠMoss": 43510,
  "_LP": 85430,
  ".isLoading": 56166,
  "ereal": 43253,
  ".case": 68687,
  "Ġdepos": 25297,
  "ä»İå°ı": 103046,
  ".rec": 11199,
  "Ġskulle": 69258,
  "udit": 33887,
  "reh": 11063,
  "Ġdomina": 89037,
  "bang": 27174,
  "çģ«çĥŃ": 109163,
  "(LED": 83137,
  "SMART": 98772,
  "åĴĮæĶ¯æĮģ": 110854,
  "\"That": 33628,
  "Phill": 91677,
  "(paren": 49622,
  "ĠChains": 81769,
  "ĠweakSelf": 73759,
  ".initializeApp": 82735,
  "capitalize": 81341,
  "TextBox": 9227,
  "(lang": 49493,
  "dux": 12138,
  "Ġhappen": 3537,
  "=back": 92372,
  "Ġneighboring": 41517,
  "SEN": 44756,
  "ĠĠĠĠĠĠĠĠĠĠĠĠĠĠĠĠĠĠĠĠĠĠĠĠĠĠĠĠĠĠĠĠĠĠĠĠĠĠĠĠĠĠĠĠĠĠĠĠĠĠĠĠĠĠĠĠĠĠĠĠĠ": 31979,
  "ĠSaud": 63568,
  "Ġfancy": 26457,
  "æ¯ıä¸Ģæ¬¡": 108591,
  "Ġneg": 4184,
  "IDDLE": 48175,
  "ĠJahre": 48015,
  "ĠBOT": 82330,
  "Ġcard": 3701,
  "Middleware": 24684,
  "Ġashes": 66001,
  "åħ«å¤§": 103419,
  "anton": 30954,
  "ç¦½": 103169,
  ".RunWith": 52437,
  "_gate": 54798,
  "èĩªåľ¨": 109613,
  "ĠActually": 33763,
  "fdf": 80583,
  "6": 21,
  "Ġcreditors": 65499,
  "Ġsubtitles": 66666,
  "ĠCage": 57889,
  "kap": 38834,
  ".sheet": 73897,
  "ĠUniversities": 74798,
  "çºªå§Ķ": 102973,
  "æ¸ħçĪ½": 112477,
  "æľĢåĲİ": 100161,
  "entai": 35130,
  "ĠPlat": 86642,
  "å¯Įè£ķ": 109461,
  "è¦ıæ¨¡": 118331,
  "ĠGeometry": 38918,
  "ĠCSR": 62976,
  "Ġinconsistency": 96149,
  "Plans": 97728,
  "ĠLogLevel": 63321,
  "Ġwildfire": 92125,
  "Le": 2304,
  "Ġ'`": 55995,
  "Ġunsupported": 40409,
  "ĠGuarantee": 64676,
  "Ġhedge": 41666,
  "é¡¾å®¢": 104476,
  "prises": 25425,
  "ĠDragon": 16145,
  "Ġfluent": 57768,
  "Ġ\"+\"": 59498,
  "_FLASH": 48515,
  "ç´ł": 71138,
  "æİ¨å´ĩ": 116919,
  "ĠalignSelf": 67578,
  "away": 13757,
  "Processor": 22946,
  ".bc": 84493,
  "ĠEsp": 26514,
  "Ġsul": 25774,
  "çļĦåĬ¨åĬĽ": 109436,
  "Ġsu": 913,
  "ĠBED": 82264,
  "é¢ľåĢ¼": 106564,
  "Number": 2833,
  "å¹¿çĶµ": 108926,
  "è¾¦æ³ķ": 108311,
  "Ġholster": 97951,
  "olders": 32120,
  "Ġf": 282,
  "cono": 85858,
  "Interestingly": 81890,
  "rts": 77724,
  "çĪ±ç¾İ": 115325,
  "åĴı": 111572,
  "Ġlun": 31973,
  ".Stdout": 83225,
  "Ġcris": 58953,
  "ĠDiss": 51032,
  "æ°ĳèŃ¦": 104644,
  "Ġseparating": 49445,
  "ĠBasics": 67176,
  "Ġspaghetti": 86910,
  "ä¿Ŀæ¸©": 106631,
  "ï¤Ĩ": 151497,
  "rin": 25288,
  ".pack": 20807,
  "ĠAdministrative": 51841,
  "JAVA": 70468,
  "Ġreliability": 30538,
  "stre": 66423,
  "ĠLongitude": 79109,
  "çĻ»å±±": 112357,
  ">`": 43626,
  "è¯Ħå®¡": 106237,
  "è´»": 119357,
  "çŃīåĲĦç§į": 113464,
  "æµ·æ»©": 113341,
  "ĠINTERVAL": 91143,
  "Ġtransmission": 18368,
  "np": 6199,
  "Viol": 49717,
  "-hand": 24413,
  "Ġbrother": 10641,
  "cc": 638,
  "Ġgenerous": 27671,
  "_topology": 90234,
  "Ġannoying": 29831,
  "Margins": 66457,
  "It": 2132,
  "è¢«ç§°ä¸º": 106253,
  "ĠProto": 57677,
  "_art": 36932,
  "Ġdesperately": 37543,
  "Frank": 37326,
  "ĠOperational": 89296,
  "Ġbullish": 89121,
  "æĪĴæĮĩ": 113175,
  "(frame": 15046,
  ".animate": 37695,
  "!!.": 24426,
  "$search": 77977,
  "(branch": 77862,
  "(with": 16980,
  ".watch": 46457,
  "ĠDataFrame": 45786,
  "ĠQuincy": 97398,
  "ï¦»": 151143,
  "\">$": 59849,
  "Ġelders": 60676,
  "imbabwe": 43181,
  "ĠPicasso": 66183,
  "è°¢": 99757,
  "GPL": 36834,
  "æĥŃ": 119420,
  "é¾ļ": 111315,
  "ĠappBar": 42287,
  "å³ģ": 119882,
  "Invalid": 7928,
  "aptic": 52174,
  "Ġrevert": 41128,
  "Ġvehement": 91368,
  "Ġovers": 17460,
  "mentor": 97645,
  "æī«ä¸Ģæī«": 111525,
  "ĠConscious": 91652,
  "_PATCH": 76804,
  "Ġracer": 84832,
  "Dlg": 27337,
  "uten": 13160,
  "Example": 13314,
  "Ġåıĳ": 69425,
  "Ġ\"<": 4055,
  "Ġanalys": 21488,
  "(states": 78402,
  "()?.": 57495,
  "éī´å®ļ": 105379,
  "_descr": 64622,
  "åĬ¡å·¥": 109508,
  "gment": 9070,
  "ameda": 98071,
  "éĽľ": 116756,
  "çĶŁåĳ½": 100702,
  "ĠCarrier": 50861,
  "Ġcarcin": 51688,
  "\"]->": 77098,
  "Ġbehaviour": 16999,
  "Recursive": 78542,
  "Ġquadr": 29136,
  "Ġbew": 26956,
  "Ġfat": 8664,
  "/service": 34186,
  "å¹´é¾Ħæ®µ": 117372,
  "çĭī": 122344,
  "Urban": 93268,
  "(order": 19385,
  "Ġargc": 11844,
  "å¤¹": 104792,
  "Ġbaik": 79187,
  "Ġchew": 36333,
  ".Constants": 39899,
  "Ġmisog": 62885,
  "éľĢ": 58362,
  "Ġdir": 5419,
  ".pk": 38628,
  "Ġlacks": 36756,
  "feof": 85670,
  "ĠWizards": 57594,
  "ĠJVM": 72379,
  "è®®é¢ĺ": 113994,
  "Ġrunners": 38280,
  "ç¥ĸåħĪ": 115299,
  "è§Ħæł¼": 106453,
  "å®¶åĸ»": 118595,
  "ĠSpar": 69806,
  "Ġimplied": 6131,
  "Ġsomew": 9002,
  ".paging": 94965,
  "Ġmon": 1615,
  "çģ«è½¦": 102815,
  "Ġenvision": 47046,
  "æİ¨å¼Ģ": 113688,
  "ĠCrud": 75078,
  "ĠSelectListItem": 95883,
  "trecht": 93870,
  "Jean": 67909,
  "earing": 13678,
  "å¢ŀå¼ºäºĨ": 107987,
  "ĠLOCATION": 65583,
  "periments": 49632,
  "_PCM": 69071,
  "æŃĮæīĭ": 107434,
  "VERSE": 56501,
  "è°ł": 121071,
  "oretical": 90767,
  "Rpc": 60248,
  "äº²æīĭ": 114861,
  "ĠSafety": 18702,
  "(MAX": 55212,
  "ĠManga": 69935,
  ".presenter": 69835,
  "å¯ĨéĽĨ": 105807,
  "(elements": 54646,
  "Ġsubur": 29322,
  "Ġgeometry": 17047,
  "Ġtolerance": 24098,
  "rega": 38876,
  "xit": 20241,
  "Ġresearchers": 11811,
  "(DateTime": 32083,
  "Ġmashed": 95134,
  "orting": 51472,
  "-engine": 49625,
  "_equals": 61664,
  "Ġstoryboard": 42033,
  "ã³ĺ": 122532,
  "_projects": 58774,
  "GING": 49437,
  "åĮ»çĶ¨": 112011,
  "'t": 944,
  "ĠPilot": 44499,
  "Ġrus": 52454,
  "è°¥": 121073,
  "ĠBachelor": 40990,
  "ieten": 33254,
  "Ġfirearms": 31553,
  "ANCH": 41933,
  "zell": 97229,
  "å±Ĭæ¯ķä¸ļçĶŁ": 118127,
  "_DATA": 7896,
  "ĠAdrian": 43592,
  "ativas": 51541,
  "itelist": 57645,
  "Ġlorem": 92385,
  ".setError": 52381,
  "ĠBush": 14079,
  "udp": 31101,
  "éŃĨ": 121467,
  "çĮĽ": 100525,
  "éĤ£äºº": 110583,
  "ĠChoices": 78191,
  "Ġguys": 7598,
  "getModel": 49430,
  "Ġham": 13515,
  "çļĦè¯Ŀ": 100363,
  "getService": 71510,
  "_Button": 41297,
  "eterangan": 53311,
  "iii": 34594,
  "åİŁæĸĻ": 104697,
  "buscar": 79757,
  "ï¦º": 151142,
  "(variable": 45029,
  "specific": 51240,
  "Ġdynamic": 8741,
  ".setCode": 86161,
  "å¾ĹæĦı": 110008,
  "AILABLE": 30135,
  "çŃ¾è®¢": 102369,
  "och": 4953,
  "éŃ¯": 115571,
  "äº¤ç»Ļ": 105734,
  "Ġdrains": 78650,
  ".Token": 32277,
  "insert": 4208,
  "ĠPosted": 15275,
  "_O": 2232,
  "ç®´": 121638,
  "åı¯èĥ½æĺ¯": 104560,
  "ĠRapids": 54186,
  "Ġturkey": 44305,
  "ĠPara": 22989,
  ":UIButtonTypeCustom": 98159,
  "ournament": 9783,
  "ĠRockies": 79051,
  "Ġifndef": 82290,
  "*r": 37893,
  "Ġlugares": 92824,
  "ĠAttention": 62020,
  ".NODE": 36792,
  "ĠPOD": 90501,
  "Ġverte": 66761,
  "Aceptar": 85513,
  "Ġå¼Ģ": 81947,
  "è¿Ĳ": 90840,
  "odash": 25601,
  "Ġboob": 78142,
  "Ġmocker": 93124,
  "drops": 90512,
  "Ġilk": 80338,
  ".ico": 39186,
  "Ġacademia": 66571,
  "ensex": 95536,
  "Ġmitochondrial": 70961,
  "-notch": 77511,
  "ï¦³": 146174,
  "Ġelbows": 80912,
  "ĠMir": 14268,
  "]=[": 66128,
  "came": 6014,
  "Ġrecover": 11731,
  "Ġaccelerator": 64356,
  "ĠBelieve": 58021,
  "éĤ£ç§į": 102245,
  "æľºç¥¨": 111428,
  "éº¹": 123422,
  "eners": 18223,
  "Ġmozilla": 84914,
  "Ġ\"\\\"\"": 67622,
  "unner": 54415,
  "Ġlz": 95982,
  "ammo": 98327,
  "Wonder": 61272,
  "bsites": 11712,
  "Full": 9432,
  ".HttpServlet": 62826,
  "Ġheck": 46681,
  "Ġcredits": 20141,
  "å½Ĵçº³": 112543,
  "éĢĢåĽŀ": 117125,
  "_CD": 55200,
  "çº¢èī²": 104165,
  "Ġober": 91245,
  "itchen": 7454,
  "(conv": 54995,
  "ĠChild": 9391,
  "çĪĨåıĳ": 104716,
  "ĠImper": 24505,
  "Ġeffects": 6239,
  "drFc": 70266,
  "Ġsavoir": 46829,
  "======": 45347,
  "ĠMesa": 54865,
  "ĠMueller": 31667,
  "<(),": 68843,
  "(mappedBy": 97086,
  "Ġkillings": 47033,
  "ĠTan": 24548,
  "utomation": 85263,
  "_migration": 90373,
  "Ġcodec": 34647,
  "_atual": 97050,
  ".addChild": 31769,
  "edReader": 17120,
  "Ġoutraged": 71264,
  "åħ·æľīæĪĺå£«": 117975,
  "ethoven": 92522,
  "Ġthirst": 49590,
  "ForeignKey": 28445,
  "Ġwhirl": 63683,
  "ĠIL": 11344,
  "è¦ģä¸įè¦ģ": 111343,
  "Ġbestellen": 97791,
  "flutter": 14972,
  "åľ¨åĽ½å¤ĸ": 113657,
  "uclear": 9637,
  "æµ·æ·Ģ": 118998,
  "iek": 35007,
  "acic": 93157,
  "æĻ¯å¾·": 117420,
  "èµĿ": 121742,
  "ĠPerforming": 69648,
  "_excerpt": 66947,
  ",ll": 79118,
  "hung": 56832,
  ".Health": 74980,
  "ĠBS": 27618,
  "Ġrigor": 77377,
  "priv": 11887,
  "_MASTER": 47068,
  "NavigatorMove": 91003,
  "Ġiets": 88333,
  "å¯¹æĪĳä»¬": 107237,
  "Ġvagina": 38788,
  "ĠRis": 53363,
  "opening": 67685,
  "é²Ĳ": 121263,
  "ĠGiant": 40741,
  "ĠRegistry": 32112,
  "olvers": 39435,
  "Ġpersonas": 31425,
  ".vis": 9466,
  ".zone": 57808,
  "çľī": 101344,
  "span": 1480,
  "ĠPap": 31643,
  "Ġshutil": 33960,
  "ç©¿æĲŃ": 116260,
  "è¼ķ": 102968,
  "è¿Ľç¨ĭä¸Ń": 114601,
  "filme": 78335,
  "ĠBrief": 36518,
  "å»¨": 121811,
  "Ġhandshake": 57020,
  "åĮĸåĲĪ": 116569,
  "ursive": 16514,
  "ĠTok": 21447,
  "_PRIORITY": 42694,
  ".action": 12395,
  ".accounts": 65945,
  "ampoo": 47595,
  "ader": 998,
  "uracion": 58768,
  "Ġbanana": 43096,
  "Ġindemn": 89008,
  "rawtypes": 97261,
  "ervations": 45821,
  "_VERSION": 10678,
  "OI": 79781,
  "ĠBrow": 28377,
  "Ġparliamentary": 43150,
  "Ġopioids": 83360,
  "Ġdifferently": 21303,
  "/art": 55549,
  "Ġ[#": 83703,
  "çĶļ": 100149,
  "å½¢åĬ¿": 102166,
  ".optimize": 74497,
  ".TRAN": 84037,
  "=UTF": 37005,
  "ORAGE": 27708,
  "Messenger": 87626,
  ".folder": 60529,
  "Ġbelum": 90757,
  "æ££": 119226,
  "ĠICMP": 83988,
  "Ġeffected": 88489,
  ")\">": 69457,
  "Ġinstinct": 30555,
  "ĠXPAR": 91154,
  "-Requested": 89109,
  "Ġsuccesses": 47088,
  "ĠReq": 82458,
  "Ġppm": 63597,
  "wait": 11489,
  "Ġmi": 9497,
  "ĠHubb": 77593,
  "$lang": 12365,
  "æĹĥ": 120481,
  ".isNullOrEmpty": 87644,
  "ĠDorm": 97532,
  "shirt": 48372,
  "ĠMATERIAL": 75123,
  ".BACK": 98833,
  "earer": 20786,
  "ĠGirl": 11363,
  "å¾Ĳ": 101957,
  "Ġextents": 91489,
  "Ġcatchy": 85505,
  "èİ«æĸ¯": 112968,
  "Ġleider": 88028,
  "assis": 32467,
  "Ġshall": 4880,
  "ç²¾èĩ´": 106110,
  "ĠHQ": 45255,
  "ild": 695,
  "å½Ŀ": 119141,
  ".Log": 5247,
  "itis": 19435,
  "oki": 38191,
  "\\xaa": 95269,
  ".other": 47781,
  "raised": 92513,
  "é«ĺéĢŁåħ¬è·¯": 105477,
  "Displays": 97688,
  ".prepare": 21934,
  "_paragraph": 96713,
  "Ġinnovations": 44945,
  "Ġplanned": 12909,
  "Ġvoksne": 98030,
  "Validation": 13799,
  "Ġdib": 41068,
  "Ġvos": 25251,
  "Ġmanually": 20083,
  "å¾Ĺå¤ª": 111673,
  "Ġ}\\": 51300,
  ".Media": 19768,
  "bbc": 84185,
  "Ġconfigur": 46971,
  "Houston": 78794,
  "Ġfactions": 47652,
  "æľªæĪĲå¹´": 113246,
  "ityEngine": 6082,
  "Ġpinch": 49246,
  "Ġwicked": 43977,
  "ptime": 28941,
  "System": 2320,
  "_score": 10405,
  "Autom": 41072,
  "_ctr": 69096,
  "ç¥ł": 111082,
  "Ġparticularly": 7945,
  "Ġlands": 11835,
  "æµĭéĩı": 105536,
  ".ISupportInitialize": 12737,
  "Ġgarment": 59618,
  "icos": 16627,
  "Ġthicker": 58784,
  "Ġcorrelations": 68816,
  "Ġdetermined": 10838,
  ".Elements": 68777,
  "Ġdownloads": 30472,
  "äºŁ": 119209,
  "ivic": 39406,
  "ï½£": 141104,
  "iropr": 54987,
  "Ġmotive": 45994,
  "çĻ«çĹ«": 103440,
  "Ġprem": 6811,
  "(jTextField": 90643,
  "_Group": 52619,
  "ocio": 46410,
  ".Style": 22100,
  ".poll": 41477,
  "Ġfecha": 23028,
  "èŀ³": 121884,
  "ï¼¾ï¼¾": 139683,
  ".Pointer": 41275,
  ".border": 22214,
  "Ġ//*": 81310,
  "todos": 49188,
  "Ġproperties": 5888,
  "çļĦè´£ä»»": 106944,
  "Ġbomber": 57526,
  "Ġpassage": 21085,
  "oscopic": 83567,
  "å¯¹äºİæĪĳä»¬": 112004,
  "Ġio": 6399,
  "sticks": 68945,
  "ple": 694,
  "London": 39572,
  "akk": 30041,
  "Ġfists": 80684,
  "æł³": 120323,
  "Ġ((((": 51100,
  "Ġsect": 30137,
  "åĵªä¸Ģä¸ª": 115752,
  "Doctor": 42724,
  "]<=": 76310,
  "_Set": 14812,
  "-Disposition": 62489,
  "Ġ(`": 28654,
  "Ġcosting": 53724,
  "iterr": 33825,
  "ĠADC": 22083,
  "åĳĻ": 122218,
  "Ġparen": 37940,
  "ĠThunder": 26691,
  "urga": 90776,
  "ĠBrothers": 33079,
  "éĻĮçĶŁäºº": 109654,
  "éķĭ": 123461,
  "ije": 31276,
  "Ġbending": 57118,
  "ç¦ıçĶ°": 112136,
  "Ġobservation": 21930,
  "ĠArkansas": 31690,
  "-Dec": 79629,
  "éŃĪ": 121794,
  "coes": 79850,
  "/favicon": 48557,
  ".bed": 90346,
  "_attempts": 79490,
  "ascar": 65888,
  "æ£®æŀĹåħ¬åĽŃ": 113693,
  ".pic": 42096,
  "brush": 36061,
  "Ġcontinuum": 85801,
  "åĪ½": 119917,
  "outcome": 86194,
  "çªģå¦Ĥåħ¶æĿ¥": 115323,
  "Ġprovisioning": 97056,
  "locking": 89482,
  "è¯ķçĿĢ": 114186,
  "_button": 8487,
  "_padding": 40726,
  "Ġchees": 42832,
  "ĠCory": 63528,
  "za": 4360,
  "intelligence": 92275,
  ".url": 7315,
  "æ¤Ĳ": 120894,
  "çĶ·åŃ©": 102760,
  "ynomials": 76961,
  "åĥ¦": 123364,
  "éĩįå·¥": 113263,
  "éļ©": 123414,
  "ĠWatch": 10357,
  "arter": 5295,
  "ĠRescue": 44403,
  "(ALOAD": 68169,
  "éĩĩè®¿": 100888,
  "åĲĪä½ľåįıè®®": 109340,
  "Ġthrive": 40872,
  "æĸ°ä¸ĸçºª": 115294,
  "ĠNUITKA": 74420,
  "Gtk": 45103,
  "èĭ±æł¼åħ°": 110546,
  "æģĿ": 122561,
  "æĢ»æī¿åĮħ": 116392,
  ".');": 94892,
  "_custom": 15875,
  "ĠBend": 47738,
  ".company": 26922,
  "}:${": 56074,
  "Ġ(($": 26856,
  "ĠIngram": 94366,
  "ĠPACKET": 73205,
  "osemite": 83013,
  "Ġfie": 62305,
  "Ġbalk": 91982,
  "_LONG": 19903,
  "Ġlaunching": 27718,
  "Ġunl": 64885,
  "ETING": 85851,
  "ĠConsumer": 25197,
  "ĠTERM": 88552,
  "ĠbackgroundImage": 67029,
  "argc": 23307,
  ".tk": 90927,
  "Ġdfs": 25792,
  "Ġsecond": 2086,
  "Ġconsensus": 23869,
  "IconModule": 92556,
  "Ġtail": 9787,
  "_FREQUENCY": 93174,
  "register": 6343,
  "Ġtritur": 66141,
  "æµªæ¼«": 105750,
  "Asset": 16604,
  "=\".$": 26332,
  "Ġcallers": 81903,
  "æ¬£æħ°": 114492,
  "verter": 8721,
  "ĠCloth": 83635,
  "ĠParticularly": 96385,
  "WithType": 73716,
  "ĠWii": 39192,
  "Ġincent": 20046,
  "/target": 88868,
  "_link": 7233,
  "ĠAlbum": 25665,
  "InTheDocument": 91863,
  "serter": 90727,
  "Ġvoid": 737,
  ".makeText": 16394,
  "Roll": 32355,
  "ĠEveryday": 78616,
  "ĠCWE": 50860,
  "å¢¡": 123428,
  "Ġdamning": 95303,
  "æĭĽæłĩ": 105588,
  "Ġappreciate": 15401,
  "Ġdoctoral": 73557,
  "datatype": 62409,
  "(mark": 65912,
  "alcon": 46214,
  "Ġtarn": 86480,
  "n": 77,
  "eroon": 79732,
  ".Windows": 1929,
  "OURNAL": 94699,
  "size": 2141,
  "WindowText": 98456,
  "sein": 48435,
  ".yy": 79379,
  "Ġcirculation": 34755,
  "è®©æ¶Īè´¹èĢħ": 116749,
  "-(": 8013,
  "ĠCatalan": 80844,
  "/ajax": 24221,
  "ĠLogistic": 78068,
  "ene": 1952,
  "ĠAIR": 45894,
  "Ġali": 18991,
  "_cell": 16648,
  "Ġintimidate": 89688,
  "(Enum": 62382,
  "åħ«åŃĹ": 113411,
  "Ġsubsection": 22848,
  "zure": 50203,
  "Jar": 71735,
  "Ġconsequential": 90083,
  "ĠUtils": 17954,
  "_di": 29477,
  "Ġprecip": 35741,
  "æĿĳæĿĳæ°ĳ": 115766,
  "ĠStrip": 34899,
  "(mapping": 81057,
  "ĠGing": 74746,
  ".proxy": 41103,
  "Ġshuttle": 44541,
  "Java": 15041,
  "ĠGraves": 79058,
  "Ġmechanisms": 23783,
  "Ġiterate": 29629,
  "Ġsiti": 42692,
  ".previous": 38925,
  "Ġhwnd": 52832,
  "éĤł": 122168,
  "ĠLOOP": 69530,
  "Ġspeeches": 43340,
  "æĬ¢åħĪ": 118025,
  "ĠGM": 19172,
  "ickness": 25900,
  "ä¿ĿèŃ·": 102915,
  "ĠZ": 1863,
  "Ġhubs": 68676,
  "ä¸ºæĪĳä»¬": 108717,
  "Ġ[/": 64928,
  "Ġprise": 84324,
  "=session": 83400,
  "ĠPussy": 46845,
  "amsung": 14441,
  "_supply": 65630,
  "yster": 21848,
  "Ġtravellers": 58968,
  "oo": 2624,
  "Ġadequ": 40128,
  "inn": 6130,
  "OTT": 23798,
  "åī§ç»Ħ": 116360,
  "åľ£": 100189,
  "Ġhvor": 50719,
  "Ġhust": 58650,
  "*B": 81339,
  "Ġeta": 38997,
  "Ġproxies": 59365,
  "Ġwondered": 30056,
  "æĽ´éĩįè¦ģ": 115946,
  "`": 63,
  "_BOOT": 57313,
  "Ġlineage": 63909,
  "ĠSTATUS": 24014,
  ".Stack": 58646,
  "Ġfranc": 43479,
  "ĠElastic": 51910,
  "ĠSheffield": 60025,
  "ubb": 20683,
  "ç¬¬ä¸Ģå±Ĭ": 116754,
  "çĦĬ": 103017,
  "è¢Ńåĩ»": 108778,
  ".nick": 76854,
  "-offset": 23761,
  "ĠFrances": 42733,
  "Ġ@[": 95800,
  ".ComponentPlacement": 34573,
  "Ġdrum": 23196,
  "SYS": 37931,
  "Ġvia": 4566,
  "(transform": 29976,
  "Ġwere": 1033,
  "èµĦç®¡": 114395,
  "iquid": 31989,
  "Ġwikipedia": 58218,
  "_timing": 70973,
  "duplicate": 63826,
  "_CLAMP": 88309,
  "Ġentrar": 82313,
  "_FEATURE": 30827,
  "Reserved": 53003,
  "Perfect": 51041,
  "æĤ²": 100302,
  "Correo": 74166,
  "ä»Ĭå¹´ä»¥æĿ¥": 107325,
  "ä¿Ĥ": 103030,
  ".pull": 83272,
  "Ġventa": 55402,
  "ĠTag": 12353,
  "ĠPatty": 88245,
  "Tro": 92455,
  "ĠNFS": 87815,
  "èĹī": 110058,
  "ĠINCIDENTAL": 28553,
  ".dict": 54777,
  "ç¼Ĭ": 123119,
  "Ġpope": 63272,
  "ĠStop": 14215,
  "éļ±": 101809,
  "logical": 30256,
  "jam": 43711,
  "Ġdisability": 27254,
  "Settings": 6086,
  "Permanent": 78793,
  "éļĹ": 120817,
  "Ġflattened": 67361,
  "%M": 78317,
  "MOVED": 76626,
  "Crime": 91590,
  "ä¸Ģèĩ´å¥½è¯Ħ": 118713,
  "property": 3699,
  "æ¸´æľĽ": 106821,
  ")</": 12533,
  "_perms": 98043,
  "_bio": 89641,
  "Ġundef": 31144,
  "å²Ĳ": 116183,
  "ĠonViewCreated": 86634,
  "Ġsprzeda": 127978,
  "ç©¿è¡£": 118302,
  "trag": 52015,
  "æ°ĽåĽ´": 104556,
  "duk": 56571,
  "HideInInspector": 87158,
  "elerik": 35100,
  "plode": 70744,
  "Ġunters": 57686,
  "æĭ±": 108110,
  "Ġuntranslated": 90348,
  "åºĹéĩĮ": 110328,
  "illance": 18832,
  "Ġthirteen": 60659,
  "Ġshaping": 45520,
  "ĠLancaster": 65123,
  "IMARY": 26020,
  "æģ¢": 101154,
  "Ġdiscrepan": 53026,
  "Ġsplits": 40467,
  "ensemble": 48475,
  "Ġlectures": 45132,
  "æ±Łæ¹ĸ": 106026,
  "awi": 40878,
  "Ġasoci": 68996,
  "ensity": 7968,
  "Ġnag": 36528,
  "çĵĺ": 122079,
  "Ġbasal": 79610,
  "redirect": 8117,
  "-tools": 44646,
  "Ġsockfd": 80773,
  "æĴŃç§į": 114101,
  "æ¦Ĥçİĩ": 103112,
  "hua": 91236,
  "æ®µæĹ¶éĹ´": 101430,
  "-calendar": 46997,
  "ä¸Ģèµ·æĿ¥": 109315,
  "Ġintersections": 64257,
  "(valor": 73407,
  "alyzer": 27165,
  "Ġomega": 33898,
  "Ġbrains": 34102,
  "(change": 57069,
  "Suddenly": 97231,
  "haven": 70912,
  "Ġsystems": 5942,
  "ĠRealt": 87872,
  "åĿĩæľī": 108549,
  "ĠDataManager": 87007,
  "(dirname": 38802,
  "ĠCatalyst": 87857,
  "Ġlanc": 75285,
  "Ġsurf": 20269,
  "ksam": 91647,
  "ĠLotto": 97713,
  "_recommend": 99084,
  "(power": 83748,
  "è¡¨è¿°": 112926,
  "returnValue": 53015,
  "ĠE": 468,
  "ĠPurs": 70660,
  "é¦Ĳ": 121269,
  "ĠWeston": 90019,
  "ĠĠĠĠĠĠĠĠĠĠĠĠĠĠĠĠĠĠĠĠĠĠĠĠĠĠĠĠĠĠĠĠĠĠĠĠĠĠĠĠĠĠ": 14265,
  "Ġsupports": 11554,
  "_PAYLOAD": 79493,
  "Ġimagin": 42206,
  "ogl": 97247,
  "Ġwashing": 27686,
  "åįĪé¥Ń": 117371,
  "oni": 20783,
  "ç¼¶": 119613,
  "Ġcylinders": 74321,
  "&A": 35021,
  "Ġlangue": 95182,
  "_QU": 16332,
  "Ġseins": 54328,
  "ç¬¬ä¸ĢçĻ¾": 117328,
  "Ġguarantees": 35655,
  "å¯»å¸¸": 109298,
  "Ġnewborn": 45297,
  "çľŁ": 88051,
  "ieved": 30977,
  "fulWidget": 35385,
  "ĠSleeping": 74147,
  "YO": 56644,
  "ĠisValid": 26171,
  "Ġviele": 41983,
  "ĠSurrey": 66964,
  "Ġrelics": 98416,
  "ĠCargo": 61288,
  "ĠTARGET": 41033,
  "xmlns": 74155,
  "è®¸åı¯è¯ģ": 104910,
  "ĠAndreas": 50062,
  "åħ¬å¸ĥäºĨ": 110424,
  "Ġdhe": 76905,
  ".Immutable": 86242,
  "-Headers": 76006,
  "Ġcad": 19409,
  "çł¬": 122609,
  "ãłĵ": 123545,
  "-ok": 74253,
  "ĠEG": 56111,
  "Ġstandoff": 84327,
  "æº«": 106257,
  "åīįä¸ĸ": 115384,
  "Ġmeses": 48984,
  "ThemeProvider": 67866,
  "çıłå®Ŀ": 107282,
  "Ġembed": 11579,
  "ä½łèĥ½": 107809,
  "struk": 95194,
  "(bitmap": 54378,
  "éĨħ": 121580,
  "ç«¥è£ħ": 118544,
  "angelo": 87910,
  "Roy": 79162,
  "_NATIVE": 55575,
  "ĠWikimedia": 89840,
  "æ¯Ģ": 118558,
  "é¢Ĩå¯¼ä¸ĭ": 110538,
  ".del": 33012,
  "groupon": 69914,
  "Ġbreadcrumbs": 85566,
  "çļĦä¸Ģ": 99774,
  ".viewDidLoad": 31111,
  "å»ł": 103360,
  "_SMS": 87326,
  "Ġletz": 49765,
  "BLACK": 62849,
  "Ġcommon": 4185,
  ".getClient": 73864,
  "çīĩåĪ»": 111502,
  "åıªéľĢè¦ģ": 107525,
  "opens": 24175,
  "_OPT": 28264,
  "Ġanyway": 13657,
  "ä¹ĭåīįçļĦ": 108355,
  "Ġbumper": 58885,
  "ä¹ŁæĽ¾": 108875,
  "Ġgettext": 63706,
  "æĺİæĺ¾çļĦ": 106050,
  "Ġhebt": 88083,
  "Ġkart": 57302,
  "'],'": 39009,
  "Ġsidel": 85077,
  "ĠAttempt": 43517,
  "/tutorial": 85252,
  "ĠCuban": 43710,
  "éĴ¢æĿĲ": 112122,
  "Ġprior": 4867,
  "abil": 12762,
  "ĠCatholic": 16473,
  "çĶµåŃĲéĤ®ä»¶": 116617,
  "èĩªç§°": 112022,
  "èµ·æĿ¥äºĨ": 109412,
  "/internal": 30968,
  "éŁĵ": 114059,
  "å®Ŀè´µçļĦ": 113013,
  "BIG": 67017,
  "æĦıè¯ĨåĪ°": 106079,
  "Gender": 28914,
  "ĠDemocratic": 11396,
  "LOT": 15745,
  "tems": 90837,
  "åľ¨çº¿åĴ¨è¯¢": 118393,
  "Ġelephant": 45740,
  "ĠEn": 2925,
  "forum": 22585,
  "åį³ä¾¿æĺ¯": 109525,
  "ä»»ä½ķ": 99885,
  "Ġstrives": 74551,
  "imitive": 13654,
  "éĢĻæ¨£": 102769,
  "Otherwise": 80456,
  "èº«ä½ĵåģ¥åº·": 108562,
  "OTAL": 22044,
  "Ġfoes": 53744,
  "ĠTing": 98532,
  "å±±é¡¶": 113096,
  "åĳĬè¯ī": 99957,
  "Ġnovels": 31863,
  "çĻ½éĽª": 117638,
  "Ġgravid": 89554,
  "doors": 27304,
  "Ġstemming": 75944,
  "Ġrelativ": 58325,
  "Ġæİ§": 80851,
  ">@": 51556,
  "ĠISP": 53433,
  "_PERCENT": 72223,
  "ç¨ĢåľŁ": 113921,
  "Ġsicher": 54548,
  "ĠFraud": 65947,
  "åıįåºĶ": 104175,
  "unless": 38770,
  "emode": 91546,
  "Ġ__": 1304,
  "ĠRain": 21911,
  "Ġdisrupting": 86743,
  "æ±½è»Ĭ": 110879,
  "ĠReporter": 46981,
  "Ġdjango": 8262,
  ".cs": 18775,
  "ĠMeadows": 77042,
  "çĹī": 120475,
  "éħ¥": 109881,
  "Ġgallery": 18046,
  "________": 3979,
  "Ġ\"-\"": 26523,
  "Ġdemonstr": 7756,
  "Assertions": 90206,
  "åģıå¥½": 113721,
  "owego": 77280,
  "ipelines": 93997,
  "ä»¨": 119565,
  "antanamo": 95623,
  "Ġmenace": 80595,
  "Ġpublishing": 22913,
  "ĠonFinish": 96905,
  "ä¼ĺè´¨": 101172,
  "Ġcart": 7406,
  "RelativeTo": 93347,
  "='{": 54973,
  "dra": 22248,
  "ĠTaco": 78897,
  "_FORE": 47185,
  "Ġkills": 28810,
  "\"They": 31308,
  "Ġseparation": 24737,
  "*'": 91252,
  "_rank": 20417,
  "Ġterminator": 80025,
  ".allowed": 99150,
  "Ġkannst": 65836,
  "åĪĨæ³Į": 103118,
  "Ġdiffic": 60807,
  "Ġcrowds": 34751,
  "alloca": 90594,
  "Ġsensing": 59099,
  "<void": 16958,
  "Ġnotably": 34046,
  "ĠLug": 92490,
  "'].'\"": 65990,
  "'app": 52049,
  "Ġdarken": 94688,
  "ĠDeepCopy": 75931,
  "(st": 5895,
  "ä¸Ńä¿Ħ": 114784,
  "-valid": 84810,
  "Ġinspected": 61784,
  "ä¸ªçĻ¾åĪĨ": 106942,
  "poser": 20071,
  "(detail": 67036,
  "Born": 58104,
  "XE": 68773,
  "mw": 44128,
  "natal": 73339,
  "ĠBringing": 97073,
  "sti": 83419,
  "(ByVal": 23530,
  ".getModel": 51069,
  "Ġconflict": 12055,
  "let": 1149,
  "rection": 30366,
  "Ġextraordinarily": 74924,
  "+lsi": 70237,
  "Ġpandemic": 27422,
  "[@\"": 26838,
  "Ġgadgets": 53375,
  "-description": 42830,
  "ĠBuf": 69013,
  "Ġsubgroup": 80115,
  "Ġassassin": 67669,
  "riday": 6121,
  "Storage": 5793,
  "Ġcooked": 29105,
  "throw": 7119,
  "èĢģé¼ł": 111039,
  "Ġindefinitely": 55234,
  "ĠYou": 1446,
  "(norm": 71220,
  "/Add": 98619,
  "Unlike": 43079,
  "Ġgone": 8048,
  "ĠCav": 51066,
  "Ticks": 43784,
  "Ġforgiveness": 52050,
  "through": 19742,
  "éĴķ": 119895,
  "Ġarthritis": 54552,
  "ief": 4738,
  ".Win": 24694,
  "raig": 72316,
  "ç¬ł": 120718,
  "(con": 17868,
  "Va": 68237,
  "ayar": 75146,
  "inish": 18176,
  "ĠBeck": 28718,
  "_OPERATOR": 69678,
  "ĠCuando": 87914,
  "ĠAUD": 57580,
  "Ġsolidity": 72163,
  "åīįæĿ¥": 105719,
  ".Parse": 8937,
  "Ġcon": 390,
  "AlgorithmException": 71386,
  ".Fatalf": 30762,
  "ĠGrade": 23812,
  "-dismiss": 18298,
  "Ġ.'": 43584,
  "okino": 82434,
  "-r": 3795,
  "Ġconsid": 76454,
  "Ġindigenous": 38578,
  "Joe": 40344,
  "_student": 36753,
  "ä»İæľª": 106111,
  "________________________________": 17466,
  "Ġsustaining": 79084,
  "RegularExpression": 90402,
  "åĿľ": 122187,
  "éħįå¤ĩ": 102578,
  "çŃīåĨħå®¹": 112223,
  ".TEXTURE": 97227,
  "Ġnovel": 11514,
  "ĠBoat": 44232,
  "Ġfingert": 63603,
  "Ġsupervisor": 37319,
  "ques": 13968,
  "-gen": 36464,
  "ç®¡çĲĨæĿ¡ä¾ĭ": 117990,
  "Ġskewed": 86472,
  "Ġsolitary": 57129,
  "Ġshoot": 6102,
  "uf": 1704,
  "Ġinstead": 4518,
  "Ġuncertainty": 26826,
  "ATA": 4485,
  "standen": 84884,
  "(indexPath": 94745,
  "æ¿©": 123580,
  "Ġusername": 5934,
  "ĠBroncos": 41594,
  "åĲ¬è§ģ": 108887,
  "Ġopen": 1787,
  "ĠDuc": 79773,
  "Layer": 9188,
  "Ġaugmentation": 78785,
  "(menu": 28114,
  "-seat": 78081,
  "igos": 32239,
  ".disabled": 34956,
  ".addItem": 36880,
  "Ġpesticide": 83573,
  "Ġamerica": 63666,
  "Bruce": 78479,
  "scripts": 19831,
  ")..": 88512,
  "(chain": 62591,
  "ĠBad": 11461,
  "å¢ħ": 102812,
  ".toInt": 46924,
  "washer": 47297,
  "Documento": 64347,
  "ĠBasement": 92043,
  "åķ¬": 120614,
  ".HttpContext": 75842,
  "ä¸¤ä¸ªå°ıæĹ¶": 117895,
  "(numero": 90178,
  "ä»ĸåıĪ": 108980,
  "ĠmapDispatchToProps": 31641,
  "ĠCGI": 63427,
  "xford": 22566,
  "æİĮæİ§": 110402,
  "çļĦéĤ£ä¸Ģ": 112273,
  "=ax": 71663,
  "Ġwhisk": 40659,
  "calls": 44620,
  "éĵ¶è¡Įä¸ļ": 114493,
  "Ġprice": 3349,
  "indexed": 97473,
  "_country": 28106,
  "/shop": 61877,
  "ç¬Ķè®°æľ¬": 110412,
  "ĠHet": 33166,
  "åĴĴ": 107619,
  "igth": 89690,
  "åıĺæĪĲäºĨ": 105231,
  "erras": 84384,
  "Adds": 72111,
  "ĠZeus": 74357,
  "Ġ||=": 35002,
  "voie": 87035,
  "èĻ½çĦ¶æĺ¯": 111963,
  "éĿ¢çĻ½": 137606,
  "TouchableOpacity": 27067,
  "ï¼ļ%": 93795,
  "************************": 13439,
  "Ġkeyed": 90529,
  "Ġwreck": 35750,
  "aycast": 51287,
  "_DBG": 37620,
  "è¯¦ç»ĨçļĦ": 109648,
  "æ¥ł": 107568,
  ",top": 86469,
  "ĠRecognitionException": 79316,
  "Ġmant": 25889,
  "liga": 44870,
  "_INF": 65487,
  "Ġsewage": 71117,
  "))==": 91349,
  "Inf": 19433,
  "ĠComment": 12255,
  "Ġguesses": 60537,
  "é½Ĳ": 100046,
  "æĺ¼": 103873,
  "Ġcustody": 24492,
  "Toronto": 71337,
  "rado": 76827,
  "CKER": 72546,
  "terior": 40544,
  "Voice": 51167,
  "Ġ...": 2503,
  "Ġok": 5394,
  "adesh": 22902,
  "Throwable": 27881,
  "éģŃåĪ°": 106182,
  "ĠSydney": 21273,
  "æĮĳ": 100428,
  "Ġvillains": 60710,
  "æĪĲåĳĺåįķä½į": 116924,
  "Ġdobr": 96568,
  "oleon": 59103,
  "æ±īåł¡": 117335,
  "Ġlibrarian": 94207,
  ".ToolStripItem": 45615,
  "lique": 36426,
  "[at": 98288,
  "_PICK": 74032,
  "è©Ī": 120945,
  "ä¸ĳ": 105500,
  "Ġchamber": 24220,
  ">b": 51407,
  "cycl": 97484,
  "ĠLAN": 46425,
  "Ġinflu": 6653,
  "(fixture": 94886,
  "%A": 52585,
  "å»ºè®¾å·¥ç¨ĭ": 110794,
  "reesome": 57305,
  "åıĳå¸ĥä¼ļ": 106597,
  ",str": 42321,
  "Air": 25693,
  "ĠFairfield": 87429,
  "åıĹåĪ°": 100683,
  "ĠUNIX": 54810,
  "_FACT": 36299,
  "/ca": 80591,
  "Ġmeille": 30226,
  "ĠMcCarthy": 43940,
  "è¡Įè´¿": 115940,
  "Ġchrist": 25769,
  "shared": 6100,
  "Ġcounters": 31532,
  "èªŀè¨Ģ": 118732,
  "åĢºæĿĥ": 103384,
  "onation": 90883,
  "='\".$": 24658,
  "Ġ'*.": 72718,
  "Ġaccessories": 22293,
  "çŁ©": 100984,
  "ARING": 91023,
  "Ġanimals": 9898,
  "æĽ´å¤ļçļĦ": 102075,
  "æĢİä¹Ī": 99494,
  "osome": 31454,
  "äº¶": 121271,
  "Ġ{{--<": 57931,
  "åºĭ": 119738,
  "Ġtemplate": 3811,
  "åħ¨çĲĥç»ıæµİ": 113084,
  "ĠFoods": 39060,
  "Ġtremend": 23451,
  "æ²¿çº¿": 107674,
  "æ¡Ĭ": 122688,
  "ĠAntony": 96628,
  "\\Component": 15291,
  ".setLayout": 21964,
  ".Or": 90449,
  "Ġunderworld": 99125,
  "iram": 66708,
  "ghost": 38654,
  "Ġethical": 30208,
  "è¯ļ": 100269,
  "Ġjednak": 75225,
  "cstdio": 37212,
  "Ġtokenize": 77651,
  "ç«ŀéĢī": 117287,
  "(trim": 40589,
  "è¿Ļä¸ĢçĤ¹": 105064,
  "ided": 4490,
  "ĠTHAN": 90006,
  "ertest": 83386,
  "ç»ĨåĮĸ": 103340,
  "Ġwifi": 33417,
  "Ġavant": 32570,
  "ĠReco": 31462,
  "ĠnewSize": 80843,
  "çİ©åħ·": 106346,
  "ä¸įå¿ĺ": 103320,
  "Ġexpo": 92316,
  "Ġwanted": 4829,
  "@endif": 45216,
  ",l": 22206,
  "ĠAlo": 94454,
  "å¢Ĺ": 127535,
  "å¯¹åħ¬åı¸": 109168,
  "è§£åĨ³": 100638,
  ".matmul": 53928,
  "parcel": 95920,
  "Ġcommodities": 50867,
  "Ġseconds": 6486,
  "_WORDS": 88421,
  "ĠaddTo": 53417,
  "ĠMySqlCommand": 58307,
  "Ġwithhold": 86800,
  "(\"(%": 97494,
  "\"So": 46958,
  "eking": 58852,
  "storage": 16172,
  "ĠJapan": 6323,
  "REW": 93152,
  "ĠOct": 4915,
  "Ġplasma": 31326,
  "=('": 46255,
  "ĠCure": 69719,
  ":{": 12547,
  "æ¡«": 120612,
  "ĠAh": 16366,
  "-products": 67873,
  "Ġunify": 85340,
  "ĠMilitary": 26960,
  "æµĬ": 111817,
  "_recv": 36118,
  "Ġhorribly": 76004,
  ".deg": 70417,
  ".ColumnName": 98694,
  "Ġdistracted": 48704,
  "ä¸įåĲĮæĦı": 113101,
  "Aw": 22600,
  "Ġpersone": 60688,
  "èĤĩäºĭ": 117704,
  "izia": 62041,
  "Ġpolym": 44933,
  "ĠHandler": 19954,
  "lus": 82645,
  "Ġverwenden": 79551,
  "Ġlevy": 76062,
  "ĠDetay": 139461,
  "å¤§éĥ¨åĪĨ": 101212,
  "qs": 26358,
  "èĮĤ": 102551,
  "_position": 9661,
  "_regeneration": 74820,
  "tx": 3998,
  ">\"+": 45957,
  "ĠCollaboration": 86587,
  "æĤ¯": 119393,
  "ä¸§å¤±": 108784,
  "åĬ¨çĶŁæĪĲ": 78808,
  "Cached": 70293,
  "_Show": 79665,
  "/blog": 37462,
  "ĠCourtesy": 53097,
  "ForgeryToken": 50308,
  "æıĲè®®": 110264,
  "Ġincompatible": 52824,
  "Ġsegundos": 89616,
  "ĠKur": 31275,
  "èĲ¥": 99209,
  "å®¹çº³": 113880,
  "[B": 32622,
  "Ġanime": 22809,
  "Ġfirearm": 35605,
  "InputGroup": 73714,
  "çĦ±": 121041,
  "ĠSENT": 95751,
  "Ġdowntown": 18907,
  "ovies": 12546,
  "Ġhardships": 95222,
  "æĸ°ä¸ī": 110021,
  "ĠDeck": 28416,
  "Ġseptember": 83649,
  "ONA": 94987,
  "èĮĭ": 122291,
  "Ġqed": 49678,
  "æĪ®": 121692,
  "æ²īç§¯": 118077,
  "gunta": 59910,
  "Ġogni": 54374,
  "Ġprintk": 58323,
  "Ġmarble": 41290,
  "åĤ¬åĮĸåīĤ": 118219,
  "??": 7646,
  "Verdana": 62957,
  "è¥¿éĥ¨": 104938,
  "åĩĭ": 118630,
  "(plan": 74727,
  "Ġgetline": 55198,
  "ĠReputation": 88080,
  "åĢ¼çıŃ": 108622,
  "é«ĺçļĦ": 100964,
  "ĠBose": 93458,
  "Ġvois": 99064,
  "èĶ¹": 123312,
  "UNIT": 23040,
  "_normalize": 80807,
  "ä»¥çĤº": 112753,
  "Ġhdf": 97045,
  "SelectedItem": 75899,
  "Ġfor": 369,
  "Ġdetach": 46781,
  "Ġmemberships": 87981,
  "è§£éĻ¤": 106255,
  "addin": 97006,
  "ĠForget": 60228,
  "Ġsatire": 81395,
  "çº¢æĺŁ": 115513,
  "ĠTimeZone": 88709,
  "'O": 87666,
  "Ġabduction": 96124,
  "å¯®": 121682,
  "_fps": 65163,
  "å°±å¾Ī": 110929,
  "ĠCaribbean": 34274,
  "ĠAP": 10106,
  "Ġpornstar": 72183,
  "å¯ºåºĻ": 114308,
  "oltage": 26489,
  "-size": 7174,
  "ä¸¤æīĭ": 114891,
  "Ġirresponsible": 70279,
  "èİĨçĶ°": 115696,
  "æĿ¯åŃĲ": 116120,
  "æľ¬å½ĵ": 129790,
  "Polygon": 37619,
  "stice": 93703,
  "Ġpassing": 12299,
  "educt": 80500,
  ".setResult": 93519,
  "Atlas": 61116,
  "_integral": 64076,
  "inee": 84799,
  "ĠBigInteger": 34042,
  ",m": 13086,
  "Ġowner": 6372,
  "éĿŀåĩ¡": 110577,
  "Ġaft": 59701,
  "Ġnoi": 57110,
  "SCRI": 15020,
  "mdir": 69695,
  "åİ»åĮ»éĻ¢": 112189,
  "FXML": 28148,
  "ä½łè§īå¾Ĺ": 110043,
  "*)_": 82671,
  "ripper": 93265,
  "_money": 34065,
  ".Items": 12054,
  "è°ķ": 120807,
  "itas": 21226,
  "ï¨Ī": 148362,
  ".appcompat": 32428,
  ".books": 77592,
  "å¸ĤæĶ¿åįı": 115558,
  "Qt": 18846,
  "ĠMilan": 38755,
  "ischer": 32708,
  "ĠHRESULT": 29603,
  "èĢĥçĤ¹": 114696,
  "Ti": 45351,
  "ĠBDSM": 84750,
  "Animate": 82225,
  ";(": 57709,
  "å°¼åħĭ": 112629,
  ".Dao": 95973,
  "Ġconclus": 82982,
  "ĠKaiser": 66965,
  "ï§ģ": 149819,
  "Ġgoverning": 10012,
  ".circle": 41494,
  "Ġprev": 7872,
  "Ġmaintain": 10306,
  "æİ¢æµĭ": 113122,
  "}_": 19444,
  "Ġoper": 1997,
  "ĠsearchText": 72508,
  "freeze": 51638,
  ".Spec": 36473,
  "(minutes": 76659,
  "_fence": 81073,
  "VIP": 98807,
  ".initialize": 25970,
  "Ġdivert": 35998,
  "è°Ĵ": 120805,
  "ogn": 3934,
  "ĠnewUser": 46246,
  "<body": 15527,
  "ĠBOX": 52683,
  "ç¿»": 100712,
  "OTA": 36544,
  "ĠAppConfig": 63385,
  "_Description": 79687,
  "ĠLeak": 37140,
  "æ³ªæ°´": 113147,
  "_Log": 44083,
  "cellent": 24746,
  "ĠsignUp": 71030,
  "Ġmaison": 46176,
  "ĠKiss": 43630,
  "ĠGong": 97375,
  "prox": 41498,
  "enchmark": 39381,
  "_MODEL": 27551,
  "VisualStyle": 13618,
  "Ġsym": 7886,
  "[,": 37272,
  "(ic": 70557,
  "umericUpDown": 41246,
  "ToSelector": 60081,
  "åł¨": 122944,
  "è¸ıåħ¥": 117943,
  "angular": 4234,
  "charted": 90818,
  "ĠWorship": 86122,
  "Den": 23619,
  "lesai": 97531,
  "ĠRel": 6512,
  "celain": 59142,
  "Ġkitchen": 9780,
  ".paint": 62334,
  "ĠTam": 28888,
  "ï½ı": 144116,
  "_SCAN": 41855,
  "_attached": 93561,
  "ä¾Ĩèĩª": 114107,
  "Ġpancre": 61168,
  "å·ŀ": 54039,
  "Var": 3962,
  "FormattedMessage": 86742,
  "å¤«å¦ĩ": 107813,
  "jwt": 41592,
  "Ġmosquito": 49546,
  "Ġinclusion": 27187,
  "Ġ'^": 49438,
  "å¸ĪåĤħ": 105476,
  "çļĦå¿ĥæĥħ": 107316,
  "å³¦": 119253,
  "Checkbox": 36594,
  "_sleep": 49393,
  ".CenterScreen": 69862,
  "ĠCum": 31578,
  "YC": 92844,
  "ĠKiller": 52953,
  "Serializable": 29268,
  "Ġskept": 36579,
  "ĠGPS": 23344,
  "ĠPaginator": 93064,
  "åĮł": 101688,
  "ĠbtnCancel": 87756,
  "Ġ'/')": 64433,
  "ï½Ĥ": 144454,
  "ĠAgain": 13759,
  "Ġmar": 3594,
  "ĠAddition": 78646,
  "ipation": 48586,
  "Ġorange": 18575,
  "ä¸īä½įä¸Ģä½ĵ": 113054,
  "Ġconnect": 4564,
  "æĹ¥æĻļ": 102884,
  "ç»ıèĲ¥": 99881,
  "Su": 36459,
  "utation": 22705,
  "Ġvocals": 46096,
  "Ġminha": 62114,
  "Ġdtype": 13231,
  "/photo": 51392,
  "/sub": 37885,
  "ĠCharacteristics": 83984,
  ".userAgent": 60678,
  "Abb": 80219,
  ".RowStyle": 64189,
  "(Bytes": 76423,
  "æ¿ĢçĥĪ": 102896,
  "Ġdiscontin": 44880,
  "Ġ----": 11304,
  "usr": 7063,
  "ivative": 47158,
  "åı°ä¸Ĭ": 108141,
  ".transform": 8134,
  ",": 11,
  "ĠHaj": 83426,
  "Generate": 31115,
  "renal": 46638,
  "ADC": 31956,
  "Ġliked": 14915,
  "olynomial": 76309,
  "-election": 42633,
  "_encrypt": 66593,
  "æ°ĳä¼Ĺ": 105672,
  "Ġsplitting": 44373,
  "ĠinitWithFrame": 30067,
  "Capture": 27429,
  "Ġengines": 21106,
  "ĠTracks": 64740,
  ".schedule": 39853,
  "å®ŀè´¨": 103133,
  "æ·±åıĹ": 106902,
  "(&:": 52031,
  "ä¸ĵéĹ¨": 102093,
  ".FileReader": 85732,
  ":UIControlEventTouchUpInside": 57828,
  "(dllexport": 91035,
  "æĭ¶": 122415,
  "ĠCube": 42592,
  "ĠQPainter": 97337,
  "assignment": 29951,
  "åİ®": 115904,
  "æ»«": 121305,
  "NAS": 34496,
  "alach": 71384,
  "ĠTa": 23291,
  "åĵ¥": 99826,
  "ĠFemme": 57525,
  "åİŁåŀĭ": 114838,
  "æŃ¥éª¤": 105652,
  "Ġomin": 71175,
  "è¯ļå®ŀ": 114886,
  "ĠSave": 10255,
  "Bachelor": 86731,
  "buquerque": 68176,
  "Ġmp": 10490,
  "Ġaug": 19303,
  "_sr": 61248,
  "Ġoperates": 26057,
  "Prot": 12423,
  "ä¸»åĭķè¨»åĨĬ": 118754,
  ".emf": 37063,
  "å®īå®ļ": 113707,
  "Ġtatto": 24781,
  "Ġvampires": 77190,
  "SearchParams": 94857,
  "éªĻ": 123121,
  "_oper": 25634,
  "ä½¿æĪĳ": 112501,
  "Iss": 28216,
  "tight": 74182,
  "æµĥ": 120223,
  "ONTAL": 36849,
  "Ġdoctors": 16026,
  ".Please": 81827,
  "ĠRabbi": 70869,
  "Ġbash": 27023,
  "å¯ģ": 122896,
  "åŃ¦ä¸ļ": 110157,
  "poly": 33435,
  "_material": 33884,
  "ĠKob": 59148,
  "_rl": 98441,
  "Ġcharms": 80650,
  "Ġcomplications": 35405,
  "åĸĢ": 110747,
  "wan": 16556,
  "thumbs": 95390,
  "ĠBir": 36819,
  "åıĪæľī": 105320,
  "Ġdetermin": 6315,
  "/head": 54312,
  "uns": 10862,
  "Ġlim": 4568,
  "_emails": 77773,
  "ĠDeath": 15911,
  "ESC": 53714,
  "ĠNess": 87502,
  "èĥ½å¤Łåľ¨": 109608,
  "inde": 26976,
  "åħ¬åı¸": 73218,
  "å¹¶ä¸Ķ": 103937,
  "å®½æĿ¾": 109285,
  "adm": 46929,
  "('&": 53614,
  "ĠBashar": 70260,
  "ä»£è¡¨æĢ§": 110249,
  "Ajax": 40077,
  "ĠRover": 52176,
  "rug": 71947,
  "é£İçĶµ": 108637,
  "Ġelk": 76842,
  "Ġleggings": 90341,
  "ĠhObject": 69770,
  "ĠOn": 1913,
  "-strong": 95757,
  "IMATE": 89552,
  "ĠWrestle": 98299,
  "IVERS": 38510,
  "OptionsResolver": 63235,
  "Ġblended": 54545,
  "Ġaudition": 61888,
  "Ġprecision": 16052,
  "%f": 87974,
  "æĭĩ": 103660,
  "ĠDick": 22557,
  "ĠKaz": 34974,
  "Ġworthy": 27290,
  "åĲĳåīį": 106315,
  "Stroke": 31557,
  "Ġconsideration": 17879,
  "èĹ¤": 106031,
  "Ġplaceholders": 78428,
  "Ġgost": 67934,
  ".Collection": 28629,
  "ummies": 49179,
  "ĠFlooring": 77958,
  "ä¸įå®ļ": 103381,
  "ĠrequestBody": 85626,
  ".MessageBox": 72588,
  "è¿Ļä¸Ģæ¬¡": 106977,
  "uitive": 34151,
  "éķ®": 123684,
  "Ġgard": 21881,
  ".adv": 51585,
  "Ġtransporte": 95388,
  "Ġundergoing": 46297,
  "IOR": 42896,
  "ĠFemin": 56301,
  "[arr": 77456,
  "anggan": 77257,
  "Putin": 67686,
  "Ġcomplexity": 23094,
  "ĠContr": 34241,
  "ounge": 25564,
  "ĠREL": 31512,
  ".APP": 54553,
  "æ´¢": 122526,
  "ĠWarp": 77810,
  "ä¸įè¦ģå¤ª": 115596,
  "æ¬¢è¿İ": 100437,
  "ĠEstimates": 94519,
  "å¤ļåªĴä½ĵ": 111210,
  "ipse": 27332,
  "Ġsoar": 98465,
  "Ġwas": 572,
  "xED": 83223,
  "Dice": 80995,
  "Ġchimney": 89051,
  "ĠRelations": 31367,
  "Ġtalks": 13433,
  "éĩĩæĳĺ": 110227,
  "Ġfunk": 68292,
  "NavLink": 31181,
  "åħļå§Ķä¹¦è®°": 106108,
  "plusplus": 24428,
  "Ġspeculate": 63501,
  "departure": 58171,
  "é¸«": 120359,
  "Ġperceived": 25536,
  "<footer": 66079,
  "impl": 6383,
  "åĳĺ": 42223,
  "Ġseries": 4013,
  "ĠWEIGHT": 95820,
  "Ġphotographic": 69064,
  "ĠIG": 46180,
  "åŁ½": 120582,
  "Ġapply": 3796,
  "å¹´ä¸ĭåįĬå¹´": 114813,
  "å¸Ķ": 119886,
  "cba": 93829,
  "ReturnType": 84362,
  "fragistics": 53625,
  "XB": 59272,
  "Ġrally": 19217,
  "å¾Ī": 99165,
  "Ġevidenced": 68357,
  "Ġsignificance": 25361,
  "çħ§æĺİ": 105865,
  "Spring": 25150,
  "Ġtalented": 23074,
  ".AddRange": 19672,
  "ĠGovernment": 10212,
  ".TextEdit": 82407,
  "Tu": 52971,
  "READ": 9560,
  "ĠDoyle": 65209,
  ".Bind": 32451,
  "æĦıè§ģ": 100065,
  "ĠPATCH": 59345,
  "Ġfifth": 17702,
  ".addField": 88560,
  "_member": 19388,
  "Destroy": 14245,
  "_SECURITY": 71116,
  "building": 23296,
  "-Cds": 98018,
  "Ġvitamin": 27071,
  "needed": 40817,
  "lush": 34604,
  "ĠaccessToken": 37725,
  "Ġnorm": 7465,
  "ĠLift": 52435,
  "tem": 870,
  "swing": 85284,
  "Ġ@@": 22307,
  "@SuppressWarnings": 34432,
  "Ġbereits": 47143,
  "Ġprotein": 12833,
  ".loaded": 60879,
  "_Util": 89743,
  "Ġclearing": 32750,
  "çĩ®": 121931,
  "Ġassaulted": 45571,
  "ĠHomo": 83397,
  "ncy": 20735,
  "authentication": 45890,
  ".Areas": 66501,
  "uien": 87074,
  "/rules": 95489,
  "Ġzoekt": 43702,
  "Ul": 91059,
  "_EQUALS": 68581,
  "/popper": 48152,
  ".gif": 16008,
  "ĠRug": 36350,
  "Ġanswering": 35764,
  ".Private": 87738,
  "olest": 60995,
  "CGColor": 84773,
  "ĠGallagher": 77987,
  "ibraries": 72616,
  "ç¡ķå£«åŃ¦ä½į": 117753,
  "ĠKazakhstan": 72437,
  "ĠEmergency": 31608,
  "/to": 32429,
  "ä»İä¸ļèĢħ": 115504,
  "Bits": 19920,
  "ç¥ľ": 120251,
  "runner": 41736,
  "Wow": 35881,
  "ĠRe": 1032,
  "ĠIndones": 20263,
  "Ġzinc": 48501,
  "äºĮçº¿": 118053,
  "placing": 47933,
  "-V": 19625,
  "Ġmascot": 84665,
  "(up": 35553,
  "æĭ¼": 100278,
  "ĠPetsc": 52951,
  "ĠAbbey": 64455,
  "ĠBal": 19420,
  "Ġantic": 87043,
  "Ġinsomnia": 82411,
  "Climate": 82046,
  "att": 1587,
  "Ġvend": 18672,
  "ãłĩ": 123456,
  "rbrace": 75283,
  "Ġproject": 2390,
  "ä¹Łä¸įéĶĻ": 116006,
  "å¸ĺ": 103287,
  "ĠMongo": 24415,
  "']/": 33087,
  "('*": 32014,
  "Ġentrega": 78418,
  "Ġcess": 64047,
  ":list": 78079,
  "è¨ļ": 120484,
  "Schedule": 32210,
  "ç»Ķ": 120275,
  "Ġshutter": 47956,
  "Ġstrap": 33547,
  "_EXTENSION": 37012,
  "ADDR": 29210,
  "ania": 9166,
  "Ġloan": 11679,
  ".region": 42976,
  "Ġlight": 3100,
  "ItemCount": 74769,
  "æŃħ": 123163,
  "æĹħæ¸¸ä¸ļ": 109309,
  "Ġselectable": 81051,
  "realm": 69897,
  "uzzi": 78471,
  "]=='": 28592,
  ".RemoveEmptyEntries": 90772,
  "inin": 64444,
  "erral": 28178,
  "BSITE": 76846,
  "ĠSELF": 66225,
  "_IRQHandler": 74944,
  "Ġmanganese": 86834,
  "nder": 900,
  "æİªæĸ½": 101082,
  "GINE": 28065,
  ".album": 62188,
  "Ctrls": 94982,
  "Ġinsurance": 8113,
  "vig": 91247,
  "é¹Ĳ": 121265,
  "Ġarcs": 66750,
  "ç¤Į": 123675,
  "ç¬¬ä¸ĢæĹ¶éĹ´": 105201,
  "romo": 98539,
  "çļĦçĽ®æłĩ": 104820,
  "-sub": 17967,
  "è¿ĩæĿ¥": 101180,
  "orent": 68525,
  "(NS": 46729,
  "Mas": 43649,
  "ACING": 55005,
  "ĠInfect": 87811,
  "åĤķ": 123051,
  "voy": 79797,
  "ĠMelania": 82170,
  "hoa": 98661,
  "Ġconf": 2335,
  "Ġconceded": 61587,
  "feito": 89118,
  "å¾®ä¿¡åı·": 114147,
  "ĠpreferredStyle": 63437,
  "Ġimpression": 20792,
  ".font": 13990,
  ".Logger": 12750,
  "Ġgreens": 50911,
  ".Pos": 44208,
  "è¾²": 107556,
  "Ġvara": 62801,
  "thresh": 94382,
  "_CYCLE": 86802,
  "So": 4416,
  "Samsung": 50890,
  "_review": 38661,
  "Ġclassroom": 24017,
  "ĠTopics": 40894,
  "ä¸Ĭå¸Ĥ": 101943,
  "_style": 15117,
  "ä¸ŃåĽ½äººæ°ĳ": 107087,
  "Ġeffectively": 13444,
  "lower": 14772,
  "Ġapartments": 31629,
  "_HTTP": 34954,
  "hasMany": 48296,
  "å¼Ģè¾Ł": 107900,
  "vin": 9603,
  "rg": 1984,
  "Ġ------------": 32558,
  ".splitContainer": 38701,
  "ĠDuch": 60022,
  "Ġcowork": 59968,
  "Ġwchar": 41049,
  ".Payload": 86432,
  "ĠCDDL": 97919,
  "Ġdelays": 31074,
  "Ġeinfach": 35323,
  "æ´«": 120229,
  "Ġwraps": 39709,
  "èĩªçĦ¶çģ¾å®³": 117153,
  "Ġimmun": 32019,
  ".copyOf": 88834,
  "_main": 11027,
  "åĻ¤": 121754,
  "_bbox": 59390,
  "usband": 90981,
  "éĶĺ": 123194,
  "ĠRaw": 23022,
  "è§ļ": 121012,
  "ĠLeave": 25193,
  "Ġdecimal": 12122,
  "Ġcommander": 27994,
  "Ġfavoured": 91767,
  "å¼Ģå¿ĥ": 102313,
  "èµ°è·¯": 109214,
  "çĶŁæ´»çļĦ": 105301,
  "HeaderValue": 97721,
  "å®Ŀå®ī": 116343,
  "Ġsvenska": 86953,
  "æĹłå¿§": 112078,
  "orbit": 74341,
  "Ġpoate": 78555,
  "bios": 69628,
  "Ġhr": 18026,
  "Ġenormous": 22399,
  "æĪ¢": 120909,
  "_decay": 43260,
  "Ġecl": 59958,
  "Ġstain": 51964,
  "Ġendif": 12330,
  "Ġrumors": 34392,
  "ĠFaculty": 41804,
  "Ġpanor": 67804,
  "uncture": 62874,
  "Ġwent": 3937,
  "{T": 76025,
  "stractions": 64690,
  "æ±¤": 102022,
  "ĠCommittees": 67917,
  "ĠDew": 49300,
  ">[": 30768,
  "ĠScarlet": 80718,
  "éĽ»èħ¦": 108480,
  "ORDER": 13410,
  "ĠIDF": 71555,
  "æĮīçħ§": 101892,
  "Ġemotional": 14269,
  "æİĮ": 99933,
  "HexString": 49137,
  "UB": 4493,
  "ĠDisneyland": 74074,
  "ĠNu": 32324,
  "ä¸ĭçļĦ": 101373,
  "ä¸įå¤§": 105378,
  "ĠUpon": 29438,
  "ĠKanye": 58717,
  "çŁ¥æĻĵ": 110575,
  "setName": 40730,
  "Ġfamously": 50187,
  "ç®Ĺæĺ¯": 101473,
  "ĠAllocate": 44625,
  "æĬĦè¢Ń": 114040,
  "Ġconna": 73182,
  "inning": 19770,
  "ĠThis": 1096,
  "çŀħ": 118094,
  "_CITY": 85310,
  "æĽ²": 100036,
  "Ġ---------": 80822,
  "ving": 4405,
  "Ġkurulu": 136634,
  "retval": 19843,
  "èĢģèĻİ": 103364,
  "æ´»æĢ§": 101769,
  "Ġstun": 65428,
  "èĪĪ": 103061,
  "_Click": 7163,
  "ä¸»æĮģåı¬å¼Ģ": 118955,
  "Ġpassenger": 23148,
  "AdminController": 98751,
  "ä¸ĭåİ»": 101169,
  "ĠRebecca": 44457,
  "è¡Ħ": 120443,
  "checker": 69955,
  "çĩĥæĸĻçĶµæ±ł": 115643,
  "Ġdisturbance": 64758,
  "çİĩä¸º": 111326,
  "Ġleaving": 9380,
  "_voltage": 62756,
  "æįº": 119398,
  "çİ°åľ¨": 99601,
  "ĠHalloween": 26613,
  "ĠmaxX": 67482,
  "Ġevident": 29476,
  "ĠMultiply": 71059,
  "imp": 6664,
  "lots": 65776,
  "Ba": 58827,
  "(zip": 38249,
  "æ°ĳæĹı": 100742,
  "Ġ/></": 17341,
  "åºĶæ³¨æĦı": 115979,
  "_FIRE": 76614,
  "ĠRory": 82321,
  "Ġ#__": 96807,
  "ĠContents": 35862,
  "ĠHere": 5692,
  "Ġcapturing": 39780,
  "ĠMODIFY": 69665,
  "ä¸ĢåĿĹ": 104474,
  "å·¥ä½ľä»»åĬ¡": 115128,
  "ä¸Ĭæ¦ľ": 114586,
  "åĦĦåħĥ": 118136,
  "Shortly": 78043,
  "çĽĽå¼Ģ": 116832,
  "ueba": 42412,
  "_motor": 59789,
  "Ġctl": 64935,
  "æĽ´å¤§çļĦ": 106155,
  ".Name": 2967,
  "aten": 13518,
  "Clazz": 96415,
  "èħ¨": 123221,
  "(OP": 85167,
  "å¤§å¦Ī": 113267,
  "Ġdejar": 80399,
  "Ġphosphate": 78006,
  "å½ĵä¹ĭæĹł": 111890,
  "Ġpersonn": 96152,
  "Ġhit": 4201,
  "Ġsufficiently": 38944,
  "ä£ĺ": 123179,
  ".DAL": 55035,
  "grupo": 71977,
  "(vm": 31723,
  "itational": 49824,
  "Ġasympt": 96254,
  "_CC": 31331,
  "Ġstrengthened": 59762,
  "Ġ+\"": 28184,
  ".exceptions": 25660,
  "ĠComponent": 5578,
  "çĶŁäº§çĶŁæ´»": 114818,
  "Ġworldview": 77062,
  "ç¢ĥ": 123166,
  "_machine": 38695,
  "-*-": 95061,
  "mod": 2593,
  "icators": 42052,
  "è§£æķ£": 118342,
  "ĠSplashScreen": 90324,
  "æıĲæ¬¾": 113875,
  "Ġbottle": 16486,
  "æīĢåľ¨": 101393,
  "Ġinsets": 98069,
  "ĠCompared": 58713,
  "Ġgist": 90500,
  "Query": 2859,
  "_CTL": 37537,
  ".languages": 89978,
  "Ġtweets": 23150,
  "Bins": 86862,
  "('^": 86085,
  "margin": 8936,
  "ĠBrom": 64598,
  "ĠOTP": 80868,
  "pf": 15897,
  "æĸĩåĮĸ": 99348,
  "FP": 11698,
  "inyin": 61505,
  ".moveToFirst": 79153,
  "ĠAMC": 74309,
  "getField": 40430,
  "ĠFAG": 86180,
  "_raise": 55383,
  "Ġmodels": 4119,
  "medical": 68116,
  "æĻºæħ§åŁİå¸Ĥ": 110614,
  "ĠgetSession": 74694,
  "èĭŀ": 119025,
  "Ġdisrupted": 68527,
  "Whatever": 46816,
  "èº«ä½ĵ": 101099,
  "æ´¸": 122524,
  "åĬ¨èį¡": 116666,
  "ĠKasich": 74981,
  "Ġsuch": 1741,
  "ĠTuring": 94430,
  "Ġpredatory": 87070,
  "ImagePath": 66356,
  "Ġxlim": 93669,
  "èµĦäº§éĩįç»Ħ": 117158,
  "ĠmoduleId": 92609,
  "Serializer": 13909,
  "_De": 24597,
  "_runtime": 33232,
  "çĤĴ": 101311,
  "Ġfactories": 34059,
  "Chars": 32516,
  "Ġpenetrate": 63755,
  "Ġsteadfast": 84287,
  "loser": 69215,
  "_UPLOAD": 63036,
  "ĠLOCAL": 42501,
  "æīĢå¾Ĺ": 103236,
  "çģµæ´»": 105128,
  "æĳĩäºĨæĳĩå¤´": 115284,
  "Almost": 38682,
  "èľĩ": 121109,
  "grese": 48450,
  "Ġpre": 855,
  "Ġbatch": 7162,
  "å°ıåŀĭ": 105911,
  "-earth": 85087,
  "fgets": 98993,
  "aries": 5431,
  "fake": 30570,
  "_HEL": 69235,
  "ugged": 20146,
  "Ġthemed": 48544,
  "ĠHi": 21018,
  "oble": 49993,
  "-bearing": 91153,
  "_Ad": 23834,
  "ĠNC": 20059,
  "OL": 1930,
  "_tt": 66740,
  "é©µ": 122380,
  "ĠTek": 55434,
  "ĠJar": 30551,
  ".vx": 98959,
  "å¸¸åĬ¡åī¯": 109295,
  "ĠLB": 40150,
  "Ġeines": 36108,
  "tree": 9344,
  "aney": 81186,
  "diag": 60214,
  "æŀģå¤§åľ°": 112661,
  "Ġsparkle": 95070,
  "Ġcomputed": 24182,
  "Ġfuera": 69675,
  "ĠIST": 75458,
  "Disposition": 50056,
  "-mark": 28904,
  "clock": 20666,
  "Ġ`'": 72911,
  "é¥·": 120195,
  "è²Ŀ": 115622,
  "çĦĺ": 120552,
  "_ISR": 70678,
  "Ġpaying": 12515,
  "Ġfft": 43700,
  "è´¨éĩıå®īåħ¨": 114069,
  "Ġinjected": 40672,
  "Ġredistrib": 8702,
  "Ġcn": 13665,
  "Ġeu": 15555,
  "UNC": 12633,
  "ĠArchitect": 24018,
  "å¼ºåĬĽ": 110606,
  "=\"<?=": 15654,
  "åıªæľīä¸Ģä¸ª": 110382,
  "åħĭéĩĮæĸ¯": 114997,
  "å£¯": 119077,
  "ä¾Ħ": 113043,
  "/cms": 97866,
  "ENTIAL": 21904,
  "ĠFM": 23447,
  "æ¼Ķå¥ı": 110327,
  "_support": 25827,
  "èµ¢å¾Ĺ": 102796,
  "Ġvoll": 56354,
  "apesh": 77931,
  "Ġeducation": 6731,
  "Ġkot": 74925,
  "_SENS": 38924,
  "ĠCass": 25442,
  "Ġswallow": 41176,
  "Score": 10570,
  "/query": 66762,
  "________________________________________________________________": 46932,
  "éķ¿éķ¿çļĦ": 117013,
  "ĠLana": 94787,
  ".ReadOnly": 26460,
  "Ġarbitrarily": 85657,
  "Ġdismissal": 58223,
  "ĠEval": 58239,
  "actoring": 75407,
  "sthrough": 86901,
  "é¢Ħè¨Ģ": 116885,
  "Ġdefects": 41555,
  "OFFSET": 82802,
  "LocalizedMessage": 98375,
  "èĤ±": 119924,
  "/****************************************": 72961,
  "åĨµä¸Ķ": 114684,
  "è½¬åŀĭ": 101230,
  "_bp": 57106,
  "Ġentrev": 89032,
  ".Stream": 33308,
  "(choices": 91283,
  "Ġdealers": 26199,
  "assen": 27277,
  "%).": 52072,
  "Ġteachers": 13336,
  "ĠMiranda": 58314,
  "Ġcentroid": 58119,
  "ĠOBJECT": 39786,
  "éĢ²è¡Į": 104514,
  "Ġresurrect": 65719,
  "ĠOWNER": 50178,
  "Logic": 26751,
  "Markers": 82405,
  "ĠWe": 1205,
  "Ġschedule": 9700,
  "pic": 15587,
  "éĢıæ°Ķ": 117919,
  "iber": 8629,
  ".Integer": 19852,
  "Ġdignity": 37829,
  "æĦıå¿Ĺ": 106846,
  "Ġproxy": 13291,
  "ĠCtrl": 37014,
  "/image": 23349,
  "ä¸ĬäºĨ": 104157,
  "-f": 2220,
  "åĬŃ": 119783,
  "_ioctl": 59683,
  "Ġauthored": 66113,
  "download": 12885,
  "Ġcooldown": 43250,
  "çłĶåĪ¤": 111645,
  "Scheduler": 38878,
  "(seconds": 44608,
  "rabbit": 86345,
  "ĠFarms": 67021,
  "doctor": 36983,
  "Ġab": 668,
  "Ġzombie": 37736,
  "Ġnovamente": 86919,
  "integr": 80729,
  "ĠAzerbai": 64323,
  "Lua": 58020,
  "åĦ´": 123723,
  "Ġatleast": 89928,
  "Ġhemp": 40963,
  "Ġansch": 93644,
  ".bus": 48067,
  "ĠCRA": 93667,
  "æ²»å¥½": 117083,
  "èķº": 121568,
  "ĠVictoria": 22417,
  "emo": 6726,
  "Ġfixed": 8356,
  "Ġdatetime": 8874,
  "Acceleration": 96660,
  "Ġsynerg": 79426,
  "cis": 78055,
  "_NOT": 9169,
  "Ġcontractor": 29972,
  "ĠHab": 28876,
  "æľīä¸Ģç§į": 105775,
  "æģ£": 120478,
  ".bam": 71804,
  "does": 27057,
  "Ġmelts": 98091,
  "IBUTE": 24444,
  "Franc": 80328,
  "Ġglanced": 64557,
  "assing": 72832,
  "è¿°èģĮ": 116712,
  ".Exec": 30798,
  "åĲĦå¤§": 104960,
  "toggleClass": 48279,
  "ç´Ģ": 103626,
  ")],": 25035,
  "Ġbem": 31915,
  "çľĭè¦ĭ": 115633,
  "iatrics": 70428,
  "_register": 14000,
  "åı¦å¤ĸ": 101948,
  "Ġthoughtful": 42666,
  "aviolet": 84211,
  "Ġrecognize": 15282,
  "ĠReduction": 58100,
  "åįıå®ļ": 112250,
  "gomery": 38230,
  "UTION": 28617,
  "ableViewController": 94906,
  "areas": 32537,
  "-gap": 88557,
  "_address": 6744,
  "Ġimproved": 12944,
  "parable": 49156,
  ".Node": 21714,
  "åįļä¼ļ": 102941,
  "é³¢": 122085,
  "Ġrewrite": 18130,
  "Ġweg": 70511,
  "Ġyielded": 57387,
  "Ġitaliana": 88359,
  "Ġredes": 46078,
  "Dialogue": 82890,
  "_engine": 24823,
  "Ġoutgoing": 36698,
  "-btn": 15591,
  "Sept": 24644,
  "æŁ±": 102277,
  "åı«åģļ": 105792,
  "Ġboredom": 89826,
  "ĠQuest": 15053,
  ".Some": 86833,
  "ä¿Ħç½Ĺæĸ¯": 104084,
  "cod": 20116,
  "bfd": 81664,
  "ĠRath": 85455,
  "TCP": 49896,
  "åĨ¥": 107437,
  "_rsp": 64381,
  "ylie": 66477,
  "ouncing": 36757,
  ".ReadAllText": 84851,
  "å¼ł": 86341,
  ".bat": 81406,
  "èĳĹä½ľæĿĥ": 114033,
  "Ġ},{": 89072,
  "æİĪä¿¡": 115082,
  "etu": 94417,
  "-desc": 52547,
  "_ACTIVITY": 42445,
  "malink": 46618,
  "Director": 37194,
  "Ġxs": 11943,
  "Ġreservoir": 44412,
  "ĠCowboys": 40305,
  ".File": 8576,
  "Ġpee": 64138,
  "Ġcomputational": 54480,
  ".responses": 97961,
  "Callable": 40410,
  "Ġepile": 57552,
  "ĠwithObject": 75298,
  "_ber": 88165,
  "undi": 55898,
  "iene": 42568,
  "_WP": 98149,
  "åĽ½æľīèµĦäº§": 112123,
  "ï¾ĸ": 145403,
  "Ġleuk": 56281,
  "ä¹¾åĿ¤": 118740,
  "ĠRoberto": 54083,
  "AMP": 16024,
  "Spec": 8327,
  "æĻ®æĥł": 113734,
  "xia": 67194,
  "ARNING": 12630,
  "jc": 62987,
  "ï¦ĺ": 151137,
  "ã³¬": 151430,
  "ING": 1718,
  "å®īåħ¨æĢ§": 106875,
  "Ġparalle": 57030,
  "-work": 28621,
  "Ġmoet": 54794,
  ".http": 6964,
  "Images": 14228,
  "Ġacos": 80211,
  "_Controller": 30674,
  "ernational": 27135,
  "struct": 1235,
  "ĠAmy": 28693,
  "Ġendlessly": 78737,
  "ĠDynamic": 21886,
  "æľīäºĽäºº": 106648,
  "ä¸įå¦Ĥ": 104530,
  "Ġszy": 91765,
  "Ġtriplet": 98709,
  "æĿĳæ°ĳ": 101248,
  "ĠBing": 53487,
  "Susan": 85283,
  "IQUE": 39670,
  "åĭĸ": 120647,
  "Ġmom": 3368,
  "_hdr": 28238,
  "Ġcorrelate": 80484,
  "_notification": 34296,
  "WebView": 36354,
  "avigate": 10379,
  "ĠJeh": 61933,
  "table": 2005,
  "thren": 62264,
  "Complex": 31137,
  "Ġconferred": 90570,
  "_bt": 48626,
  "_annotation": 61237,
  "[\".": 97170,
  "æ°ĳèĲ¥": 101626,
  "_dir": 4334,
  "ĠIm": 2362,
  "(opts": 30885,
  "ç¬¬ä¹Ŀ": 108751,
  "_INIT": 14446,
  "ĠTLabel": 80997,
  "PIN": 56061,
  "å¤§äºĭ": 106178,
  "iben": 63236,
  "è¿ĳäºĽ": 116735,
  ".Window": 23622,
  "ç»Ĩå¿ĥ": 110222,
  "ĠIntellectual": 76856,
  "Ġraining": 83253,
  "çģŃ": 100493,
  "Ġfatal": 18582,
  "ĠXML": 11874,
  "ä¼ªè£ħ": 118323,
  "Ġsniper": 62282,
  "è´Ł": 99393,
  "Ġlv": 28378,
  "Ġsponsoring": 84341,
  "ä¸ĵæłı": 108102,
  "Ġsouls": 34726,
  "æ³Į": 101690,
  "å²Ľä¸Ĭ": 113523,
  "DVD": 77139,
  "vecs": 94654,
  "ä¸ĵé¢ĺ": 104321,
  "éģĵæŃī": 107961,
  "ĠDump": 29693,
  "Ġproducts": 3871,
  "ĠMillion": 33529,
  ".center": 13423,
  "ĠhtmlFor": 32193,
  "Ġauthors": 12014,
  "Ġcloses": 33250,
  "lastName": 29156,
  "ĠDiscount": 32659,
  "Ġdelete": 3698,
  "çļĦåĨħå®¹": 104597,
  "ä½ıæĪ¿": 101328,
  "ylation": 78833,
  "ĠLIMIT": 10376,
  ".Line": 16420,
  "Ġheat": 8628,
  "Ġlateinit": 26130,
  "çĤ¬": 103781,
  "ĠCp": 64256,
  "_Start": 38056,
  "Rot": 36936,
  "Ġcorrectness": 57323,
  "{})": 28875,
  "-ste": 96326,
  "ĠobjectId": 82887,
  "soever": 34554,
  "JT": 81181,
  "Iterator": 11951,
  "çĻĮçĹĩ": 107397,
  "forth": 70527,
  "ĠDIE": 71406,
  "Ġseeming": 75695,
  "Ġzwyk": 143598,
  "ten": 1960,
  "pause": 27448,
  "åĨ±": 122170,
  "ĠTiny": 47974,
  "iles": 3658,
  "Ġmindful": 62342,
  "Ġentrance": 19809,
  "Ġbloom": 51454,
  "åºĵ": 44956,
  "Ġstren": 92219,
  "ĠStartup": 38414,
  "shown": 69363,
  "Ġadvancing": 43069,
  "-API": 98773,
  "Ġteleport": 49489,
  "'*": 43239,
  "å®Įç¾İ": 104448,
  "è£ħæī®": 117506,
  "Ġuninterrupted": 98150,
  "ĠPacking": 97818,
  "Ġphysic": 54024,
  "èģ²éŁ³": 114460,
  "è§Ń": 123478,
  "velocity": 14640,
  "-May": 61986,
  "($('": 98976,
  "ĠSalvador": 48359,
  "_printf": 21823,
  "æĴĤ": 121354,
  "éĵ°": 120704,
  ";": 26,
  "æľĢå¤ļçļĦ": 106654,
  "ĠAssigned": 62624,
  "èĥĮåĮħ": 112566,
  "ĠDiego": 18336,
  "_REGION": 39179,
  "<Entry": 91978,
  "è¿Ľåĩº": 111196,
  "_Global": 93132,
  "oproject": 61351,
  "_Runtime": 63422,
  "ĠYuk": 57663,
  "æģ¹": 120239,
  "Ġleaps": 83458,
  "æııè¿°": 53481,
  "riot": 84050,
  "Ġrecruiting": 31859,
  "Ġabide": 57199,
  "Ġsprintf": 11812,
  "ĠFighting": 49317,
  "_ENCODE": 89513,
  "ĠSauce": 60176,
  "-types": 20817,
  "<<(": 32484,
  ".btnDelete": 81674,
  "Ġaux": 10047,
  "Ġspawning": 78429,
  "å®¶çºº": 117788,
  "hashCode": 60695,
  "println": 33655,
  "elight": 88243,
  "Ġvalido": 89315,
  "ERSION": 9504,
  "éĶĳ": 120963,
  "_UPDATE": 22408,
  "ĠDakota": 27872,
  "\",-": 65575,
  "\\uC": 67415,
  "ĠMatth": 68198,
  "Ġpure": 10526,
  "ĠClipboard": 81327,
  "Ġburner": 64719,
  "Textarea": 97691,
  "_translate": 66381,
  "å«ĸ": 121529,
  "æľīä¸Ģä¸ª": 104133,
  "çĬĭ": 120974,
  "gray": 11650,
  "uctions": 91463,
  "anford": 94103,
  "(Equal": 67372,
  "Connections": 54751,
  "hard": 18703,
  "åħ»èĤ²": 118950,
  "plates": 7278,
  "æ¼±": 119477,
  "WORD": 7227,
  "::": 486,
  "\"D": 61428,
  "ITHER": 63260,
  "CB": 12979,
  "ĠDRIVE": 95787,
  "opi": 71087,
  "ĠBraves": 70677,
  "Ġalleen": 71173,
  "æ¸ħåĩī": 112922,
  "Ġearning": 27644,
  "åįıä¼ļ": 100715,
  "-safe": 55119,
  "-gallery": 51238,
  ">window": 88468,
  "Cube": 43329,
  "ĠTwilight": 51045,
  "çļĦçľŁå®ŀæĢ§": 111232,
  "entieth": 51131,
  "Ġdistinctly": 70149,
  "éĶ¹": 119472,
  "_PUSH": 58811,
  "ĠXYZ": 71089,
  "\"]}": 92446,
  "craper": 86282,
  "Ġgre": 2816,
  "ĠSheets": 60472,
  "Ġtimber": 44788,
  "ĠAbby": 84448,
  "ĠRafael": 54400,
  "ĠGear": 27503,
  "Ġmonk": 62672,
  "una": 8565,
  ".datas": 34471,
  "Ġhabitat": 38546,
  "ĠVig": 57101,
  "å¼ºèĢħ": 110315,
  "Co": 7339,
  "Ġmanuals": 55194,
  "Ġplugs": 62534,
  "ĠPanasonic": 79642,
  "è´¬åĢ¼": 114384,
  "Ġinstrumentation": 77033,
  "åĬŀçĲĨ": 103990,
  "Ġcnt": 13195,
  "çĶŁäº§çº¿": 105900,
  "ä¼´ä¾£": 111126,
  "Rule": 11337,
  "England": 66208,
  "æĬķåħ¥": 100709,
  "Ġpresume": 77395,
  "åı¶çīĩ": 113036,
  "Ġunemployed": 48889,
  "Ġplaint": 23372,
  ".names": 47875,
  "asters": 14199,
  "Ġoutput": 2550,
  "_\"": 18771,
  "æľŁéĹ´": 101072,
  "çłĶ": 99233,
  "ä»Ģä¹Īåĳ¢": 111383,
  "èĢı": 122446,
  "queues": 76089,
  "ç«ĸ": 107899,
  "xeb": 54468,
  "Ġparchment": 86104,
  "quiries": 31900,
  "ĠSIZE": 25341,
  "pseudo": 68893,
  "OCR": 93495,
  "Ġdiss": 13772,
  "Ġhemos": 72257,
  "unteer": 40905,
  "Tasks": 25449,
  "createElement": 58008,
  ".didReceiveMemoryWarning": 65074,
  "åįĹå±±": 110194,
  "-proxy": 83701,
  "uniacid": 88558,
  "åĪĿå§ĭ": 113188,
  "Ġcarpet": 27854,
  "ĠBeds": 66254,
  "_TRA": 39096,
  "Nonnull": 32561,
  "reat": 1222,
  "Alternatively": 92014,
  "(phi": 48230,
  "åľ°åĮºçļĦ": 105638,
  "Ġgetpid": 95378,
  "è¿Ļæł·è¯´": 113041,
  "_ball": 55808,
  "Ġcenterpiece": 90753,
  "_background": 24103,
  "zego": 89188,
  "Ġscriptures": 86633,
  "Ġredevelopment": 87639,
  "KeyName": 58660,
  "æģ¯æģ¯": 117540,
  "Ġbelly": 35417,
  "_quant": 53346,
  "Ġpermissions": 8541,
  "ospels": 97998,
  "ĠprincipalColumn": 58801,
  ".io": 4245,
  "ĠPRODUCT": 38083,
  "ĠDNA": 15552,
  "ĠTempData": 80967,
  "nw": 61227,
  "Ġrefuge": 14510,
  "+'/": 37297,
  "acz": 41830,
  "unsch": 80791,
  "Ġtep": 55052,
  "ĠCell": 13972,
  ".Align": 74222,
  ".Channel": 38716,
  "åŃ©åŃĲçļĦ": 104661,
  "actually": 73028,
  "RFC": 64371,
  "Ġacademics": 47609,
  "è§ľ": 123177,
  "éĥĬ": 103074,
  "Ġtunnel": 25629,
  "P": 47,
  "Ġcarriers": 34891,
  "çĲ²": 122933,
  "çİ±": 122278,
  "Ġcodes": 13912,
  "ĠPOR": 57870,
  "ç¢¼": 103490,
  "ĠCDN": 88365,
  "ools": 6178,
  "çĮ©": 119438,
  "_printer": 91772,
  "UBLISH": 79376,
  "covering": 91913,
  "è¯Ħå§Ķ": 111693,
  "æĬ¬èµ·å¤´": 117523,
  "å®£ä¼łçīĩ": 118926,
  "Ġ\"../../": 10208,
  "æĩĶ": 123589,
  "ĠCDs": 61337,
  "åĩ¡æľ¬ç½ĳæ³¨": 118326,
  "cum": 59253,
  "_rb": 68544,
  "_REPEAT": 66570,
  ".btn": 5751,
  "ĠPharmaceutical": 58273,
  "Ġust": 87589,
  "Ġnovo": 38323,
  "DataRow": 51266,
  "xfd": 41483,
  "_EXTRA": 58981,
  "[start": 28463,
  "æħ¢æĢ§": 108044,
  "DOMAIN": 57125,
  "_SKIP": 67756,
  "_tb": 23481,
  "Ġtrium": 91806,
  "ripe": 51091,
  "Ġblev": 71999,
  "ç¨¿": 82832,
  "ĠJoker": 60277,
  "ĠcloseButton": 88314,
  "Ġadb": 82412,
  "Accuracy": 45822,
  "opot": 88390,
  ">Email": 50531,
  "aws": 8635,
  "ĠsetInterval": 35479,
  "iers": 4813,
  "Ġ(\"/": 88889,
  "éģİç¨ĭä¸Ń": 115894,
  "éĻ¡": 117901,
  "Ġhypnot": 75451,
  "Ġpeoples": 31438,
  "Binary": 21338,
  "å£½": 116349,
  "æĿ¥è¿ĻéĩĮ": 115217,
  "ĠRemoved": 51083,
  "Ġgenes": 20727,
  "æ¯ıæĹ¥": 102443,
  "}/": 4472,
  "ãĢ¶": 149315,
  "(entities": 90308,
  "lingen": 76307,
  "ĠWent": 53759,
  "ç®Ģ": 98237,
  "THEN": 89558,
  "ĠBy": 3216,
  "Menu": 3514,
  "Ġ~=": 21684,
  "Module": 3332,
  "çĶµåİĭ": 109353,
  "å¥³å£«": 104308,
  "Ġenters": 28833,
  "Ġniekt": 143841,
  "ulan": 50735,
  "creat": 94739,
  "Ġlors": 36853,
  "(Notification": 96731,
  "å¯ĮåĲ«": 110638,
  "ä¸¥å¯Ĩ": 112612,
  ".mid": 48071,
  "Ġautoload": 80497,
  "hic": 82513,
  "è£İ": 121068,
  "æĢ»éĺŁ": 116500,
  "_Format": 72999,
  ".Des": 23548,
  "Ġparticipates": 90187,
  ";padding": 35129,
  "zen": 5679,
  "Telefono": 69559,
  "ç¬¬åħŃå±Ĭ": 116851,
  "Ġugly": 27261,
  "Ġanywhere": 12379,
  "_OVERRIDE": 49372,
  "RecyclerView": 37548,
  "æĥ³åĬŀæ³ķ": 112349,
  "åī¯æľ¬": 103314,
  ".Transactional": 56787,
  "crire": 66919,
  "ĠEssential": 47733,
  "enie": 61558,
  "Water": 28253,
  "-tank": 95028,
  "duct": 1058,
  "Ġaward": 10084,
  "ycling": 16021,
  "Ġseam": 26396,
  "Ġvested": 77951,
  "ç»Ħä»¶": 110195,
  ".AWS": 91670,
  "ĠĠĠĠĠĠĠĠĠĠĠĠĠĠĠĠĠĠĠĠĠĠĠĠĠĠĠĠĠĠĠĠĠ": 6656,
  "analytics": 77652,
  "ĠWriters": 58698,
  "Ġwollte": 96434,
  "_Variable": 83932,
  "Ġmurderous": 84129,
  "åĲ¬è¯´è¿ĩ": 113489,
  ".share": 48884,
  "akte": 28815,
  "movie": 20032,
  "éĺĭ": 120766,
  "-data": 13945,
  "äºĽ": 97084,
  "ä¾Ŀæ¬¡": 110298,
  "æĪĺç»ĦåĲĪ": 103754,
  "éĹ´æİ¥": 108349,
  "èį¸": 120307,
  "çľĭèµ·æĿ¥": 104544,
  "(Matrix": 66781,
  "Layout": 2175,
  "Ġdissolved": 55667,
  "_documents": 75927,
  "Jets": 72617,
  "éļ¾å¿ĺ": 110586,
  "(cos": 88830,
  "ï½Ĭ": 145242,
  "Ġdescent": 36952,
  "Ġprejudice": 47686,
  "_API": 11415,
  "inary": 3287,
  "ĠVil": 63649,
  "Ġchromium": 96862,
  "='$": 13203,
  "(nullptr": 28325,
  "_\",": 60102,
  "OTION": 54001,
  "ĠuserInput": 64173,
  "Ġeviction": 78236,
  "-color": 7889,
  ".$": 2418,
  "ĠIDs": 28360,
  "Ġparticipated": 30308,
  "è¡¨çİ°ä¸º": 110966,
  "Ġcrc": 37180,
  "ullah": 40797,
  "Reason": 25139,
  "-sur": 67706,
  "Ġentropy": 47502,
  "ĠCarm": 34452,
  "love": 30053,
  "Ġsurrendered": 69944,
  "è¾¦çĲĨ": 117279,
  "æĸ°å¸¸æĢģ": 118870,
  "Ġcaveat": 86051,
  ".equalsIgnoreCase": 30494,
  "'}}>": 77882,
  "thumbnail": 27786,
  "anted": 7566,
  "ĠGambling": 85343,
  "_SLOT": 53047,
  "çĳĤ": 123134,
  "fried": 97525,
  ".scenes": 96852,
  "ĠHag": 66539,
  "_G": 2646,
  "Ġdile": 43161,
  "æµķ": 120235,
  "travel": 48510,
  "_TWO": 73892,
  "ĠReeves": 81752,
  "_EDIT": 25106,
  "Ve": 42612,
  "ĠDown": 6285,
  "ĠPublishers": 71614,
  "Ġexclaimed": 79508,
  "ç¬¾": 120722,
  "-place": 41661,
  "attern": 3227,
  "_slow": 82447,
  ".Event": 6904,
  "åĦªæĥł": 109697,
  "éª¸": 118671,
  "Ġrunes": 79918,
  "Ġquery": 3239,
  "iability": 78343,
  "stdint": 31435,
  "å¾®çĶŁçī©": 110252,
  "Ġspawn": 18042,
  "æ°ĳåĬŀ": 110812,
  "ĠEc": 36111,
  "éĢģå¾Ģ": 116035,
  "ux": 2200,
  "Rec": 3820,
  "èĩªåįĳ": 114554,
  "Ġdialect": 42279,
  "Sanders": 82780,
  "Thought": 84169,
  "ĠMY": 18224,
  "}_${": 67661,
  ".exchange": 66422,
  "Ġthinks": 15482,
  "éĤ£ä¹Ī": 100624,
  "Ġmensagem": 58817,
  "Ġdirt": 25284,
  "Ġmonstr": 65504,
  "Ġbonuses": 32221,
  "ĠMb": 50265,
  "Ġdefending": 28169,
  "Wik": 83517,
  "Ġsomebody": 18079,
  "ailability": 12535,
  "Ġverdad": 81171,
  "Ġdedication": 38855,
  "Ġpro": 462,
  "CEL": 41664,
  "Ġjp": 43571,
  "Ġskating": 64404,
  "<U": 36397,
  "indrical": 62406,
  "éĢĤçĶ¨": 105255,
  "Ġprevailing": 60029,
  "è§¥": 121267,
  "_SIG": 55687,
  "YE": 59644,
  "uled": 8448,
  "è§Ĩè§Ĵ": 107372,
  "uencia": 63972,
  "ç¡¬åº¦": 115719,
  "èķ´": 101006,
  "Ġ<!": 71341,
  ".customer": 31780,
  "æĶ¶çĽĺ": 109576,
  "åŃº": 121949,
  ".best": 51276,
  "Ġoffic": 2786,
  "-rated": 54885,
  "(Response": 47979,
  "çĪ±å¥½": 103059,
  "Ġprostituerte": 50617,
  "uchen": 44977,
  "ĠEventHandler": 31957,
  "Mil": 59232,
  ".pag": 72605,
  "bnb": 44002,
  "Ġslight": 8112,
  "æ»¡èĦ¸": 112377,
  "ĠLocked": 92945,
  "money": 28259,
  "åĲ£": 119704,
  "ocator": 74328,
  "æĽ¾åľ¨": 107709,
  "oodle": 30607,
  "ĠreturnValue": 41597,
  "è¿ŁåĪ°": 116397,
  "ĠTyr": 49495,
  "azes": 73785,
  "åħ±å»º": 105268,
  "olleyError": 93384,
  "Ġcampaigning": 54827,
  "Songs": 93156,
  "Ġolmad": 127956,
  "mates": 16457,
  "Weather": 28981,
  "por": 4308,
  "Ġprofiler": 87497,
  "Ġfantas": 39338,
  ".Device": 43995,
  "ä¸ĢæĹ¥": 107421,
  "æĵĺ": 121948,
  "Ġridden": 92227,
  "ĠSimmons": 50096,
  "åĺ»åĺ»": 117224,
  "å¥¶èĮ¶": 112094,
  "(delete": 59712,
  "Ġobjc": 63326,
  "éķ¬": 121985,
  "ĠCult": 25594,
  "ĠJess": 23039,
  "brain": 53060,
  "(LOG": 24850,
  "ophobia": 54508,
  "pmat": 94663,
  "-is": 30430,
  "ĠLeast": 90516,
  "_GRAY": 60516,
  "èººåľ¨": 103301,
  "repositories": 81907,
  "card": 4951,
  "ĠViewModel": 33614,
  "Ġinert": 79973,
  "ĠRaz": 76819,
  "(contact": 47505,
  "ĠKashmir": 49180,
  "åĪĨè§£": 107799,
  "æĸ°åħ´äº§ä¸ļ": 109480,
  "æłĳ": 99613,
  "/mysql": 57515,
  "/mol": 38871,
  "Ġnb": 16649,
  "ç¨¹": 123465,
  "ima": 7523,
  "FirstOrDefault": 26841,
  "Pattern": 15760,
  "æĿĤå¿Ĺç¤¾": 118949,
  "Ġremainder": 26313,
  "Ġrefreshing": 35918,
  "Ġpz": 97102,
  "Ġdemol": 35161,
  "agrid": 45327,
  "Lean": 48762,
  "ç©º": 34794,
  ".count": 6501,
  "Ġmimetype": 80008,
  "ä¸¥éĩįå½±åĵį": 111740,
  "Ġdish": 12000,
  ".Serializable": 23713,
  "Ġmetric": 18266,
  "Ġmapped": 23844,
  "Ġrustic": 57272,
  "Ġappend": 8737,
  "ĠHarmon": 39659,
  "Ġslides": 21521,
  "Ġrue": 55849,
  "ĠDucks": 67782,
  "_issue": 53340,
  "åħ¬åħĥ": 103449,
  "æľĢå¿«çļĦ": 112651,
  "_exam": 83334,
  "_url": 2903,
  "åł±å°İ": 117818,
  "æĸ°è¥¿åħ°": 109751,
  "ueue": 6318,
  "Ġcider": 65055,
  "Ġpela": 32723,
  "åŁİåĮº": 101318,
  "æĢģ": 35243,
  "çķ¹": 121204,
  "processing": 20660,
  "æĢĨ": 119765,
  "ĠMARK": 18018,
  "Ġregardless": 15484,
  "ĠBackend": 55260,
  "ç²³": 121286,
  "éĿ©åĳ½": 104073,
  "Firebase": 63340,
  "_section": 16221,
  "ä»ĬæĹ¥": 102242,
  "DECLARE": 35682,
  "ĠDiane": 53090,
  "joined": 71154,
  "sentence": 51889,
  "åĮħè£ħ": 104184,
  "ĠAbrams": 74231,
  "Ġczas": 47419,
  "Ġhighlighted": 26366,
  "ME": 7462,
  "å¤§å¹ħæıĲåįĩ": 115350,
  "Ġdrainage": 57492,
  "izable": 8335,
  "Ġinquiries": 43883,
  "_ht": 49086,
  "ĠAppointment": 56313,
  "ĠPolitics": 34879,
  "Ġencourages": 36067,
  "æĴ¤éĶĢ": 110210,
  "imit": 2353,
  "Di": 21685,
  "}:": 16097,
  "Expired": 54349,
  "ought": 2450,
  "ç»Ĩèħ»": 108996,
  "åı»": 119564,
  "-css": 47859,
  "Phil": 29590,
  "æ·±åħ¥": 100403,
  "Ġmath": 6888,
  ".stringValue": 86207,
  "è¿ĳåĩłå¹´": 106891,
  "éħĿ": 103853,
  "+-": 21473,
  "Ġyell": 64313,
  ".smtp": 94177,
  "Ġlaunches": 37075,
  "ĠTelerik": 38846,
  "(hero": 85503,
  "/theme": 40081,
  "alternate": 75362,
  "_scroll": 41407,
  "Ġportfolios": 75708,
  "icient": 5385,
  "_white": 44431,
  ".delegate": 19339,
  "orda": 57080,
  "ĠJuni": 80157,
  "SPI": 39779,
  "Ġfinale": 36298,
  "è¡¥åĬ©": 106512,
  ".net": 5071,
  "Ġcaregivers": 73640,
  "ĠCondition": 15180,
  "acker": 9683,
  "Ġtraff": 8258,
  "çļ®": 99888,
  "unicorn": 92357,
  "ighton": 87773,
  "Ġscientists": 13923,
  "è¹Ģ": 121756,
  "_regs": 36910,
  "Ġoverflow": 16484,
  "ĠIsabel": 86786,
  "åħĢ": 119534,
  "ä¹ĭæĺŁ": 110364,
  "Ġgenome": 32769,
  "_working": 81101,
  "\\n": 1699,
  "AuthGuard": 79510,
  "å®ĿçŁ³": 108385,
  "ĠBou": 29954,
  "ĠNr": 69093,
  "åľ°å½¢": 111282,
  "Buff": 34261,
  "Republican": 68455,
  "Ġthaw": 85378,
  "çħģ": 123246,
  "ĠFrance": 9625,
  "ĠAbb": 25973,
  "_EOL": 36244,
  "Ġperspectives": 38455,
  "ĠHistory": 11099,
  "iode": 94726,
  "ĠPunjab": 59317,
  "çĽĳå¯Ł": 102847,
  "ĠNurse": 48776,
  ".ticket": 71920,
  "æľ¬åŁºéĩĳ": 111958,
  "èµµ": 103959,
  "ĠUSAGE": 89740,
  "çºªå¿µ": 101416,
  "_Part": 97938,
  "making": 27836,
  "Ġemptied": 93872,
  "assembly": 14993,
  "backend": 20942,
  "Ġphones": 17619,
  "oi": 6728,
  "ĠSomerset": 71132,
  "ĠUICollectionViewCell": 79613,
  "(q": 10583,
  "ĠToo": 24599,
  "ĠGuidelines": 47428,
  "Ġsch": 5699,
  "é«ĺå±±": 110711,
  "Ġfraud": 16124,
  "å¼¥è¡¥": 107017,
  "ĠExercise": 32818,
  "è´Ŀ": 100458,
  "_extend": 70265,
  "night": 9287,
  "_altern": 79728,
  "DATE": 7097,
  "ĠImportance": 93000,
  "Ġwysoko": 140256,
  "Ġfoster": 29987,
  ".Qu": 33907,
  "Ġcomedy": 22358,
  "-dropdown": 43949,
  "ĠEsc": 15547,
  "åħ¨åĮº": 106282,
  "ä½Ĩè¿Ļ": 107607,
  ".editor": 34893,
  "Ġalguna": 72027,
  "ĠBeispiel": 79192,
  "ä¸įåģľçļĦ": 110468,
  "ĠUndert": 98673,
  ".GetInt": 43148,
  "è¯ķéªĮåĮº": 113144,
  "Inst": 8724,
  ".child": 17531,
  "æīĭ": 44934,
  "Hide": 21692,
  "SSI": 75339,
  "arseille": 61160,
  "Ġcomentarios": 79412,
  "æľīå¾Īå¤§çļĦ": 109711,
  "çİ¯å¢ĥæ±¡æŁĵ": 113900,
  "bz": 71701,
  "(company": 58384,
  "ĠSynopsis": 87998,
  "ĠTypeInfo": 72452,
  "Ġrozp": 140775,
  "ĠMonster": 27973,
  "render": 7322,
  "åŁµ": 120564,
  "Ġcous": 26714,
  "äººåı£": 102055,
  "').'</": 74282,
  "izontally": 50401,
  "åį³å°Ĩ": 102238,
  "ĠEXP": 13460,
  "ĠTower": 21938,
  "-town": 82903,
  "Ġconc": 3529,
  ".Val": 77819,
  "Ġrank": 7077,
  "Ġnostro": 83569,
  "éģİåİ»": 109022,
  "olve": 3948,
  "EH": 45589,
  "æ¨ª": 101209,
  "ĠCGPoint": 26353,
  "æ°´åĩĨ": 109611,
  "èķ¨": 121565,
  "ĠShelter": 74821,
  "iva": 9924,
  "\\Url": 85938,
  "bservable": 8293,
  "groundColor": 56716,
  "ares": 5403,
  "ĠMF": 38254,
  "('~": 96025,
  "è¿Ľåįļä¼ļ": 116257,
  ">Action": 88010,
  "ĠFR": 16654,
  "vascular": 32845,
  "åħ¬è·¯": 102175,
  "Ġspacecraft": 41540,
  "Ġdear": 24253,
  "æĥħåĨµ": 99559,
  "icial": 7090,
  "Ġhopes": 16005,
  ".hl": 80326,
  "ĠRepresentatives": 39745,
  "ash": 988,
  "_ACTIV": 92626,
  "Ġcat": 8251,
  "Ġincomes": 45691,
  "^[": 27736,
  "Ġta": 9450,
  "VisualStyleBackColor": 13715,
  "è¿ªæĭľ": 118769,
  "Ġtoilets": 62187,
  "æĿĳå¹²éĥ¨": 114487,
  ".getBy": 51579,
  "gio": 45145,
  "Ġunconstitutional": 52825,
  "ĠSCSI": 81626,
  "printer": 62956,
  "_superuser": 85754,
  "ĠEAR": 90296,
  "ĠComet": 98098,
  "venile": 39104,
  "ĠMoral": 88506,
  "ĠMerr": 47861,
  "ä¸¤å¹´": 100845,
  "å¯Ĩå°ģ": 107949,
  "æĿ¥äºĨ": 101161,
  "åħ¬æŃ£": 106496,
  "Ġshl": 95910,
  "Ġznal": 141024,
  "æĶ¯çĲĥéĺŁ": 114954,
  ".Pattern": 52026,
  "MS": 4826,
  "Ġviolates": 50313,
  "ĠsetSupportActionBar": 83048,
  "Ġattire": 68160,
  "åŀļ": 122400,
  "åĲĪä½ľåħ±èµ¢": 117515,
  "Ġked": 79042,
  "Ġ\"%": 5962,
  "_bs": 68550,
  "compareTo": 55583,
  "Ġdat": 3258,
  "ĠOECD": 78417,
  "/go": 25525,
  "ĠBethesda": 78331,
  "ttp": 1209,
  "ĠgetNode": 81798,
  "Ġexplos": 13894,
  "_OPTION": 19968,
  "çĶº": 119202,
  "ĠHuge": 50783,
  "Ġcardboard": 53943,
  "itives": 50354,
  "Ġ\"=": 37827,
  "ĠDPI": 97025,
  "Ġraced": 71054,
  "ĠDetector": 79019,
  "ĠGri": 62904,
  "print": 1350,
  "aces": 2434,
  "Ġoptic": 80109,
  "(String": 2242,
  "ĠcurrentIndex": 50040,
  "çļĦæķ°æį®": 105918,
  "Ġauditory": 82529,
  "ç§įæ¤į": 104178,
  "ĠHomework": 82713,
  "å®¢åķĨ": 115665,
  "Ġpour": 4914,
  "éģĵè·¯": 101178,
  "Ġfiring": 22830,
  "èĢĥä¸Ĭ": 112654,
  "Ang": 10743,
  "èĳľ": 122952,
  "èĪĮ": 101601,
  "/unit": 78311,
  "essional": 15774,
  "Ġbeim": 28789,
  "èį£èĢĢ": 103110,
  "Ġtemas": 83906,
  "ä¸Ģåıª": 102292,
  "preced": 26152,
  "Ġmirac": 64966,
  "å±Ģå±Ģéķ¿": 109196,
  "ĠBusinesses": 70090,
  "oreach": 8539,
  "ĠLesson": 48915,
  "conditional": 45368,
  "æ¤ª": 120893,
  "_business": 65998,
  "pageIndex": 91877,
  "Grupo": 83014,
  "ĠBaltimore": 23947,
  ".MATCH": 79358,
  "_reporting": 52376,
  "typing": 89802,
  "æķĳæĬ¤": 117983,
  "-------------</": 36642,
  "(shader": 54597,
  "udades": 92823,
  "æĪĳçĪ±ä½ł": 118148,
  "Ġsof": 85806,
  "Ġ:-)": 91841,
  "::<": 27638,
  "cached": 32918,
  "-generator": 78002,
  "Central": 43403,
  "çĶ¨åľ°": 102763,
  "Ġboto": 60779,
  "Ġbowling": 58196,
  "-floating": 89651,
  "ä¹ŁéĿŀå¸¸": 109086,
  "_SOURCE": 25430,
  "ĠBedford": 72668,
  "-ro": 51934,
  "Ġåħ³": 91417,
  "Ġvinden": 92651,
  "ĠExperienced": 99023,
  "åĴį": 122311,
  "-access": 42156,
  "åĮĹæĸĹ": 113167,
  "äºĨåĲ§": 105482,
  "å§Ķç»Ħç»ĩéĥ¨": 116574,
  "CM": 9985,
  "Ġmasking": 78076,
  "CONT": 23312,
  "ĠGluten": 94912,
  "vlan": 89622,
  "ylene": 63551,
  "æ´ĭ": 99840,
  "Ġschem": 19650,
  "_Obj": 70672,
  "contrast": 84224,
  "Ġemotion": 19772,
  "ĠVIEW": 40656,
  "-init": 54773,
  "Slots": 51647,
  "_COMBO": 95403,
  "onsense": 97733,
  "Ġbreed": 27775,
  "åħĪè¿ĽçļĦ": 102830,
  "ĠFlow": 22452,
  "åĪĨæł¡": 116323,
  ".factory": 14081,
  "Ġaktiv": 49183,
  "_look": 24271,
  "Ġbcm": 56768,
  "(opcode": 98347,
  "-config": 25130,
  "Ġspecimens": 56649,
  "ĠDix": 75143,
  "åĽ¾çīĩ": 45930,
  "Ġdejtingsaj": 80605,
  "Ġfool": 23977,
  "-common": 45045,
  "ultipart": 18204,
  ">>>(": 96950,
  "Ġboxing": 45229,
  "Ġslick": 49638,
  "ĠPurpose": 29045,
  ".Intent": 19848,
  "Ġcraftsm": 64781,
  "çļĦä¸Ģé¡¹": 111298,
  ".setForeground": 39084,
  "Space": 9914,
  "çĻ¾ä½Ļ": 113216,
  "Ġmalware": 39731,
  "_adc": 64840,
  "éĨĩ": 103032,
  "ĠTitanium": 79354,
  "Ġlig": 28313,
  "raph": 1935,
  "LOGY": 51432,
  "$c": 29835,
  "Ġenclosure": 57812,
  "æĻĵ": 100214,
  "Ġauditing": 92496,
  "ahoma": 27840,
  "ĠPulitzer": 95715,
  "calc": 26586,
  "Ġoverwritten": 59173,
  "%\">": 42107,
  "ä¼¢": 119619,
  "Ġreasoned": 92369,
  "ĠGO": 12604,
  "Ġplaylist": 26791,
  "ĠGy": 54915,
  "Sizer": 43158,
  "Ġstrategies": 14830,
  "ä½ľäºĨ": 106972,
  "ĠNovember": 6702,
  ".IDENTITY": 64408,
  "Ġquarterbacks": 60491,
  "bursement": 51073,
  ".mi": 94518,
  "çĶµç½ĳ": 105102,
  "ĠnewPath": 96037,
  "/cc": 87310,
  "}=": 51185,
  "ĠgetParent": 75578,
  "ĠException": 4112,
  "Ġ$#": 65915,
  "Ġmetav": 77520,
  "shan": 82127,
  "istem": 66421,
  "åĵĴ": 113572,
  "-Ta": 43095,
  "ĠVine": 49695,
  "å¸ĤåľºçļĦ": 104669,
  "Ġconfer": 48743,
  "-abortion": 95483,
  "Ġcient": 87997,
  ".ToolStrip": 13407,
  "orption": 65081,
  "ĠChristopher": 24986,
  "wen": 16948,
  "ĠUt": 17139,
  "_month": 18933,
  ">).": 71524,
  "çĶµç¼Ĩ": 106776,
  ".Option": 52216,
  "-backed": 45028,
  "Ġbarbecue": 61212,
  "æħķ": 101576,
  "çĶ¨æĪ¶": 115570,
  "ï¦®": 151140,
  "createUrl": 97218,
  "æ¿Ģæĥħ": 105803,
  "ĠSTUD": 57516,
  "ĠEnhancement": 52517,
  "ĠPatterson": 57634,
  "\">'": 17756,
  "ĠSheep": 82908,
  "ĠTrudeau": 43709,
  "è²Ĩ": 123219,
  "Ġconvolution": 55712,
  "ĠSteve": 13809,
  "ĠVirgin": 11214,
  "ĠBefore": 13235,
  "Ġunlike": 19836,
  "Ġthanks": 9339,
  "Spinner": 31081,
  "Toolkit": 61944,
  "å¥īçĮ®": 105927,
  "å®ĭä»£": 115639,
  "ĠAlexandra": 74016,
  "/******/": 23996,
  "éĴ³": 117874,
  "é²Ĭ": 123224,
  "æĥ¶": 114894,
  "(sound": 83711,
  ".bunifuFlatButton": 95234,
  "åıĺéĿ©": 105316,
  "AT": 828,
  "within": 55850,
  "Ġtends": 27236,
  "cus": 56340,
  "upert": 49480,
  "HK": 57447,
  "ĠTotal": 10657,
  "ĠQRect": 65049,
  "Ġlengthy": 34206,
  "ĠSmarty": 50314,
  "Army": 91895,
  "Ġbourbon": 92748,
  "YEAR": 87201,
  "äººä»¬çļĦ": 106818,
  "mtx": 90310,
  "çĢĳå¸ĥ": 110338,
  ".\"&": 83784,
  "å¼ĢæĶ¯": 112059,
  "olecule": 54169,
  "Gov": 66901,
  "lean": 2675,
  ".annotation": 5067,
  "åŀ¡": 120159,
  "éģĭåĭķ": 110631,
  "Ġairspace": 87182,
  "irteen": 44904,
  "ĠCoord": 47849,
  "_lp": 76529,
  "essor": 8309,
  "(preg": 73582,
  "ĠIr": 11960,
  "ĠBerlin": 19846,
  ".der": 75819,
  "åĬŁå¤«": 105673,
  "ĠRestart": 56801,
  "è§Ĭ": 120391,
  "ater": 962,
  "Ġcontroversies": 85793,
  "Ġrunway": 51761,
  "é¼ĵèĪŀ": 110306,
  "ĠstringWithFormat": 20067,
  "éĩįçĤ¹é¡¹çĽ®": 108971,
  "AU": 35028,
  "afil": 42962,
  "Ġ!_": 45134,
  "WithURL": 73100,
  "ĠRegression": 47470,
  "Ġic": 17902,
  "ocabulary": 43527,
  "Ġtheme": 6912,
  "ä¢º": 122263,
  "Noise": 61819,
  "ĠRonald": 38648,
  ".addObserver": 92402,
  "_play": 22144,
  "Spider": 72908,
  ".fast": 39570,
  "Ġsquirrel": 90524,
  "Surface": 23697,
  "(method": 17262,
  "ĠLav": 42850,
  "Ġseus": 41398,
  ".nasa": 89640,
  "Connection": 4526,
  "Ġcornerstone": 81475,
  "æĥħåł±": 134481,
  ".minecraft": 15211,
  "Ġphilosopher": 54375,
  "Ġyield": 7540,
  "_OP": 13908,
  "_transactions": 68182,
  "Ġ'/',": 56427,
  "Each": 4854,
  "\"x": 65438,
  "())),": 96501,
  "åĹ¥": 121206,
  "Ġmandate": 34281,
  "è¡Įäºº": 109147,
  "åħīæºĲ": 115867,
  "_mo": 79258,
  "å¹¿åĳĬ": 101927,
  "gist": 95294,
  "ĠTraffic": 36981,
  "Ġvideog": 88017,
  "enegro": 87821,
  "Ġreste": 65067,
  "Ġexperiencing": 24084,
  "èĮĥåĽ´åĨħ": 104589,
  "è§Į": 122989,
  "åĩºäºİ": 106224,
  "producto": 46707,
  "NSURL": 27519,
  ".Repositories": 46658,
  "ROUGH": 60521,
  ".examples": 70659,
  "ĠSmoke": 53204,
  "ĠVertical": 35463,
  "lane": 37847,
  "ĠLargest": 83319,
  "(ArrayList": 43336,
  "Ġunfolding": 32731,
  "åĨ³": 99351,
  "åĨĴçĿĢ": 118008,
  "ĠGHC": 83716,
  "æ°ĳå±ħ": 117312,
  "æīĵæĭ¼": 118925,
  ".XML": 48126,
  "Ġsoundtrack": 44899,
  "Ġdownturn": 75406,
  "çļĦçĪ±æĥħ": 110066,
  "ĠJe": 14133,
  "Ġkeeps": 13598,
  "_ad": 10027,
  "æ»¡æĦıåº¦": 109759,
  "thetic": 17556,
  "Ġemployees": 8256,
  "Ġsolic": 29744,
  "GER": 8738,
  "/prom": 76951,
  "æ²³éģĵ": 109460,
  "_PP": 43258,
  "ĠRochester": 52368,
  "gui": 19109,
  "ĠSamsung": 18400,
  "Ġabandoning": 77239,
  "è¯¾ç¨ĭ": 103995,
  ".BigDecimal": 53154,
  "ĠGrape": 79529,
  "Repair": 98386,
  "ĠPriority": 31920,
  "Ġsprawling": 70892,
  "å¾Īéĩįè¦ģ": 106760,
  "éĩİå¤ĸ": 115407,
  "Ġmagistrate": 94091,
  "\\Collections": 79905,
  "ĠLeh": 62558,
  "ä»Ģä¹Īæł·": 117054,
  "asje": 26846,
  "ç¬¬ä¸ĢåĲį": 111389,
  "äĮĢ": 150804,
  "æ±ī": 99897,
  "Ġmayor": 16923,
  "åľ°åĿĹ": 106522,
  "å°ıéķĩ": 102649,
  "INU": 84933,
  "Jur": 93177,
  "(',',$": 93273,
  "Years": 54419,
  "_ARG": 13905,
  "èĽĥ": 122809,
  "èĬ±": 99232,
  "etus": 63376,
  "ĠFou": 94210,
  "Ġrightfully": 98024,
  "-Col": 54546,
  "Op": 7125,
  "ä»Ĺ": 102895,
  ")].": 26169,
  ".capitalize": 78498,
  "_IMPORT": 21024,
  "ĠCaul": 89438,
  "Ġkali": 96368,
  "Ġdeactivate": 66245,
  "æ°¡": 120148,
  "Ġleaves": 10901,
  "alsa": 41826,
  "ĠdoInBackground": 71840,
  "Ġgentle": 21700,
  "ç»Ļå¤§å®¶": 102585,
  "Ġdoomed": 57637,
  ".ReadAsStringAsync": 88136,
  "è¿ĲèĲ¥åķĨ": 107199,
  "èĢģå¤´": 110830,
  "ĠArcade": 64207,
  "Arm": 32913,
  "Ġassertions": 54836,
  "Ġaromatic": 81588,
  "ä¾ª": 119910,
  "ĠTaiwan": 28289,
  "_SORT": 57187,
  ".direction": 27621,
  "Ġnotion": 22240,
  "Ġ%=": 49132,
  "+l": 75911,
  "writers": 61612,
  "å°¸ä½ĵ": 109109,
  "Ġnama": 45067,
  "éĿĴå±±": 103410,
  "dep": 14891,
  "ĠImaging": 64506,
  "Ġmijn": 52992,
  "ĠFSM": 70967,
  "èĳĨ": 119139,
  "Ġxt": 62390,
  "éļĲèĶ½": 116638,
  "èĩªåĪĨ": 125607,
  "elah": 74977,
  "_stride": 41513,
  "QString": 22355,
  "ĠMENU": 35697,
  "Ġsaison": 78991,
  ".palette": 49545,
  "Ġwrestlers": 97830,
  "Ġmcc": 73847,
  "Ġnons": 31695,
  "asers": 59730,
  "Ġ/*": 1391,
  "å°Ĩåľ¨": 104743,
  "gorm": 73281,
  "asset": 9852,
  "ptr": 3505,
  "Ġ'../../../": 18554,
  "ĠMoment": 38996,
  "è§Ħç«łåĪ¶åº¦": 113519,
  "æ³ķäºº": 106401,
  "åºĬä¸Ĭ": 101717,
  "regunta": 86273,
  "Ġvalidating": 68672,
  ".fore": 54569,
  "æ±§": 122239,
  "uss": 1854,
  "_foot": 75759,
  "_mB": 94665,
  "ä½ĸ": 122233,
  "_pose": 33201,
  "ĠAdapter": 28807,
  "quoi": 61898,
  "Ġadamant": 83288,
  "Ġlyric": 68335,
  "Ġdismal": 93453,
  "Ġved": 27933,
  "Forbidden": 69115,
  "trim": 10666,
  "åĹĵ": 103751,
  "[ip": 71351,
  "oldown": 24766,
  "/nginx": 69261,
  "Ġjeune": 35863,
  "Ġshooter": 31571,
  "Ġregress": 69780,
  "ĠByrne": 80321,
  "è¯ķè¡Į": 110495,
  "ĠKar": 13225,
  "Ġanalsex": 89832,
  "Ġvitamins": 45092,
  "Dropdown": 24975,
  "Ġretali": 90055,
  "Ġhol": 23523,
  "ProgressDialog": 65056,
  "tatus": 78321,
  "Ġcanada": 31763,
  "ĠVin": 20391,
  "ĠNico": 74035,
  "Hel": 32713,
  "Ġmetro": 33482,
  "Ġbajo": 62412,
  "å°ıåŃ©": 104902,
  "_Of": 89355,
  "Ġgravity": 23249,
  "<Route": 83182,
  "Ġfuturo": 64644,
  "Perm": 81245,
  "_deleted": 39418,
  "çĽĽä¸ĸ": 110015,
  "RG": 32360,
  "Ġblindness": 84415,
  "ã»¬": 123421,
  "Ġsort": 3378,
  ".annot": 4425,
  "AUTH": 26694,
  "SCII": 56720,
  "ä¸Ģåī¯": 107110,
  "Ġspill": 38797,
  "Ġglaciers": 94690,
  "å·¾": 103203,
  "Ġhtml": 5272,
  "Ġadolescente": 81935,
  ".ns": 52328,
  "Ġpadre": 61020,
  "ĠWhite": 5807,
  "(blog": 98220,
  "valid": 1891,
  "Ġphrases": 31747,
  "åī¡": 120491,
  "(IntPtr": 46277,
  "isque": 95543,
  "åĹĿ": 121186,
  "éĥ½ä¸įæĺ¯": 110056,
  "Ġ(**": 76496,
  "åĽŀçŃĶ": 102104,
  "List": 852,
  "éĩįè§Ĩ": 102089,
  "Tower": 95824,
  "ryn": 60243,
  "Ġkel": 48228,
  "ĠEverest": 86478,
  "Ġfurnishings": 72171,
  "_tuple": 21773,
  "ĠgrantResults": 79693,
  "(Device": 73416,
  ".eth": 48090,
  "ĠDimensions": 32023,
  "èĥ¼": 120453,
  "drv": 54813,
  "ä¼ĺåĮĸ": 103983,
  "anders": 83951,
  "ĠCone": 46412,
  "ĠAfrican": 11643,
  "Ġalla": 22702,
  "æ¯Ĳ": 122194,
  "(bot": 50121,
  "Ġuncertain": 35118,
  "Ġslept": 45398,
  "åĨĢ": 103288,
  "Ġquiet": 11340,
  "ç¨ļ": 103827,
  "_steps": 22731,
  "Ġunleashed": 68264,
  "(color": 13441,
  "pars": 72380,
  "thag": 95362,
  "okie": 12502,
  "ĠGujar": 55631,
  "Ġcontroller": 6461,
  "Ġapproaches": 19827,
  "Ġgiov": 71523,
  "@s": 60577,
  "Edward": 84501,
  "#plt": 71756,
  "Ġpromote": 11926,
  "åĵĨ": 119356,
  "å±¥èģĮ": 110835,
  "ĠFileReader": 40733,
  "ĠMinisters": 77973,
  "å¤§è¡Ĺ": 107925,
  "ĠDD": 30904,
  "ĠRagnar": 94262,
  "ĠSic": 55854,
  "ises": 4909,
  "ISTRIBUT": 69006,
  "(account": 23758,
  "(DialogInterface": 48937,
  "-grand": 71002,
  "Ġcelebration": 24916,
  "Ġquizzes": 88223,
  "çĴĩ": 116460,
  "ä¸ı": 119541,
  "-guard": 92981,
  "MetaData": 37307,
  "ĠReign": 80871,
  "Ġkont": 20153,
  "rtle": 92436,
  "åı°éĺ¶": 110911,
  "Controllers": 14353,
  "_Data": 17817,
  "åı°è¯į": 116166,
  ".span": 52869,
  "Ġcoward": 65175,
  "ĠEck": 81640,
  "Ġprintln": 13751,
  "_mD": 97955,
  ".addCell": 90338,
  "_pp": 31600,
  "Ġmeld": 70430,
  "ç»ĳå®ļ": 113200,
  "ĠPikachu": 96919,
  "proxy": 22803,
  "Network": 12320,
  "ĠNose": 92123,
  "Ġprzy": 30848,
  "ĠBlue": 8697,
  "While": 7983,
  "xda": 56524,
  "Damn": 95614,
  "contains": 13372,
  "Ġdegli": 46569,
  ".pres": 43865,
  "icolor": 73809,
  "ourcem": 96831,
  "éĺ¿æł¹": 109191,
  "Ġapr": 21049,
  "ĠNobel": 46978,
  "çİļ": 122184,
  "EDIATE": 35832,
  "orning": 79575,
  "è¨Ĭ": 101572,
  ".leave": 89303,
  "Ġenth": 64208,
  "çĥŃçĪ±": 105721,
  "Ġ{{--": 23896,
  "TreeWidgetItem": 95321,
  "-Year": 70898,
  "}}</": 12813,
  "å¤§å¤§å°ı": 116649,
  "icipation": 76353,
  "(pl": 36609,
  "engage": 84739,
  "ĠMargaret": 37549,
  "Ġespecial": 32297,
  "craft": 7712,
  "ç¡®ä¿Ŀ": 103944,
  "çļĦçľŁå®ŀ": 103277,
  "vos": 47619,
  "ç»Ĥ": 120002,
  "Ġaccounts": 9618,
  "ĠCCD": 92733,
  "contracts": 63322,
  "ĠTraits": 67026,
  "-properties": 67079,
  "ĠJill": 47211,
  "-svg": 58569,
  "_deep": 87044,
  "åĳĬè¯īä»ĸ": 111370,
  "tabl": 73099,
  "ewidth": 28357,
  "ritte": 98280,
  ">Select": 62405,
  "_json": 9455,
  "ĠGtkWidget": 66108,
  "åĳĬè¨´": 107836,
  "ĠPos": 18876,
  "Ġmonde": 37800,
  "Ġextremism": 69668,
  "SEE": 48740,
  "Ġanonymous": 22151,
  "Ġinevitable": 30252,
  "ĠAmes": 95094,
  "Ġreminis": 48579,
  "ĠRaq": 96409,
  "Ġscn": 98988,
  "sz": 14357,
  "ĠDad": 32521,
  "Ġfacilitates": 72533,
  "æĸ°éĻĪä»£è°¢": 116883,
  "zeit": 29413,
  "ĠIncrease": 39633,
  "æĹ¶éļĶ": 115859,
  "ç¨£": 103482,
  "ç©¶": 99362,
  "Ġderog": 91533,
  ".loss": 46043,
  "Ġnawet": 90400,
  "å¦Ĩ": 100951,
  "ĠInterstate": 65493,
  "Into": 26591,
  "æ°Ķè¡Ģ": 114192,
  "_disable": 33842,
  "acht": 15938,
  "äºĭä¸ļåįķä½į": 105627,
  "usage": 17698,
  "Ġprobable": 34877,
  "Ġ//////": 76790,
  "_FIELDS": 52999,
  "Ġdept": 44593,
  "ITIES": 36644,
  "FOR": 30902,
  "_IA": 87490,
  "daf": 85733,
  "è¸Ŀ": 121601,
  "çĳģ": 121096,
  "Ġorgan": 2872,
  "ä¸ĩä½Ļåħĥ": 115368,
  "ĠIpsum": 61362,
  "ĠResponses": 80467,
  "(md": 48645,
  "ĠSense": 46229,
  "Ġapparent": 9981,
  "èĻĲå¾ħ": 118320,
  "fen": 30353,
  "_mix": 67729,
  "Ġnied": 75260,
  "å¸Ńåį·": 118782,
  "å³Ļ": 117409,
  ".ny": 82814,
  "Mis": 83159,
  "Ġperk": 65093,
  "Ġmower": 98678,
  "éģŀ": 119063,
  "REFIX": 14790,
  "idian": 35642,
  "Ġlocus": 78157,
  "-angular": 50444,
  "Ġgt": 25161,
  "-bre": 91908,
  "mys": 8209,
  "restore": 30804,
  "Ġcallable": 40922,
  "ĠRally": 58700,
  "æĨ·": 123587,
  "ĠElliot": 68418,
  "Ġrenewable": 32168,
  "uyo": 86688,
  ".machine": 77726,
  "_Struct": 72246,
  "ingerprint": 47918,
  "ĠOmni": 85225,
  "ready": 2307,
  "ĠAGAIN": 66894,
  "ICK": 10685,
  "Ġborders": 23806,
  "Ġmodific": 69133,
  "Ġdwell": 43835,
  "-js": 25802,
  "Ġphilosophers": 60687,
  "isoner": 97020,
  "ĠBerk": 50191,
  "/c": 2899,
  "è£ħç½®": 104919,
  "ollo": 27961,
  "_Stream": 80631,
  "ĠWCS": 98351,
  "steen": 93957,
  "Ġfilmm": 33526,
  ".subscriptions": 85147,
  "Ġtw": 4384,
  "ç¼ºå°ĳ": 102822,
  "Ġholds": 9982,
  "çĽ¸å£°": 116753,
  "uste": 85660,
  "åįķ": 23990,
  "refer": 41160,
  "Ġbois": 65204,
  "/parser": 61770,
  "ĠDeep": 18183,
  "Ġstrict": 7304,
  ".top": 8772,
  "è¡¨çİ°åĩº": 107837,
  "ĠHeard": 94108,
  "Ġenormously": 83463,
  "Ġrepaint": 85689,
  "çĽ®åīįä¸ºæŃ¢": 113665,
  "ibal": 50529,
  "/<?": 46144,
  "éĻ¢åī¯éĻ¢éķ¿": 117532,
  "éĶ³": 123195,
  "ĠBilling": 72450,
  ".external": 64227,
  "agedList": 87765,
  "!<": 86932,
  "[]=$": 77267,
  ".flink": 71056,
  "ä¹ĭæĹħ": 106399,
  "Ġaccident": 11423,
  "ĠHep": 60145,
  "Ġtonight": 17913,
  "(pol": 94169,
  "Ġodio": 86734,
  "Cool": 56750,
  "èªªè©±": 118542,
  "Ġentities": 14744,
  "æŀĦæĪĲ": 104384,
  "npm": 40039,
  "ĠStafford": 62474,
  "Ġebenfalls": 95524,
  "LTRB": 75592,
  "Ġvaping": 80288,
  "Ġ(*.": 57018,
  "Ġcollected": 14548,
  "_KEYS": 51251,
  "ĠĠĠĠĠĠĠĠĠĠĠĠĠĠĠĠĠĠ": 4293,
  ".executeUpdate": 38912,
  "éĻ¢å£«": 103217,
  "ä´ķ": 122796,
  "ĠMens": 23276,
  "å¦Ĥæŀľæĺ¯": 105709,
  "Ġphen": 14018,
  "ĠFan": 24714,
  "äº¤": 38109,
  "Ġdiferentes": 45318,
  "Ġdet": 3392,
  "(element": 11488,
  "æłĩéħį": 116679,
  "Ġnok": 79733,
  "emoth": 95574,
  "BadRequest": 46015,
  "ç³ĩ": 123481,
  "å¤®": 99909,
  "umper": 24027,
  "+t": 41701,
  "ä¸įç»ı": 116013,
  "_sid": 53044,
  "æĬ¤": 99280,
  "ĠBirds": 56528,
  "çŁį": 122059,
  "Ġresponse": 2033,
  "Ġpunished": 40898,
  "Jak": 89272,
  "éĵĤ": 111402,
  "Across": 91931,
  "èĸĦå¼±": 110403,
  "ourses": 16349,
  "-zone": 77763,
  ".Void": 21710,
  "XMLElement": 85534,
  "Ġminutos": 51662,
  "uator": 45162,
  "ĠSvg": 81055,
  "usto": 60462,
  "olarity": 72527,
  "ä¼ĳéĹ²": 104443,
  "éĥģ": 100601,
  "Ġtodos": 15519,
  "Ġbureaucratic": 79395,
  "æµĵ": 100113,
  "Ġapplicant": 31268,
  "å°±èĥ½å¤Ł": 109927,
  "åĪłéĻ¤": 28606,
  "Ġvicious": 42410,
  "ï§©": 151499,
  "(Number": 42999,
  "Ġsofort": 76720,
  "_os": 29387,
  "ĠMr": 4392,
  "lider": 19118,
  "ĠSoldiers": 74431,
  "Ġcoolant": 96770,
  "ĠFred": 27488,
  "Ġdecoration": 20228,
  "ĠStadium": 22636,
  "sprite": 32641,
  "CONDS": 26904,
  "ĠParameter": 15168,
  "Ġconcurrency": 78010,
  "æ¶ĪåĮĸ": 105251,
  "Ġkp": 60319,
  "_ELEMENT": 27156,
  ".After": 36892,
  "=view": 91953,
  "Ġsuggests": 13230,
  "ĠSteel": 12500,
  "__[\"": 41903,
  "Ġlistings": 25465,
  "ĠSunder": 72061,
  "Ġheader": 4247,
  "ĠSuch": 15132,
  "avras": 88123,
  "ĠUsuario": 28816,
  "inders": 31451,
  "<Scalar": 78505,
  "Ġripping": 77114,
  ">}'": 54722,
  "ç§ĳåŃ¦æĬĢæľ¯": 107527,
  "çŀĴ": 103700,
  "Ġfluorescent": 73764,
  "[df": 53205,
  "retry": 44848,
  "_del": 18029,
  "Ġactually": 3520,
  "ï©¡": 148826,
  "Ġvowed": 50030,
  "æ¯«æĹł": 105431,
  "ĠWHEN": 33633,
  "ĠQIcon": 94401,
  "ĠSpirits": 81777,
  "æīĢ": 31838,
  "éĩĳå±ŀ": 100843,
  "\">(": 57551,
  "æ¤ģ": 120892,
  "Ġfrm": 28354,
  "Ġoutweigh": 61974,
  "ĠKerala": 60407,
  "Ġcaches": 53588,
  "æĬĬå¥¹": 110284,
  "æĻºéĢł": 116739,
  "yaw": 98586,
  "ĠPal": 10925,
  "éļıä¹ĭ": 103571,
  "ĠVic": 43747,
  "ĠKinect": 94503,
  "ulate": 6334,
  "coin": 7160,
  "alphabet": 89453,
  "imiento": 16320,
  "Doug": 91576,
  "Ġ\"]": 21299,
  ".should": 15507,
  "ĠPhase": 27573,
  "Ġcreatively": 92296,
  "ĠGothic": 43101,
  "ç¤ºèĮĥ": 101179,
  "èĥ½åĲ¦": 105095,
  "ĠAccounting": 44244,
  "Ġinterviewing": 64716,
  "ĠNASCAR": 64590,
  "æĪĸå¤ļæĪĸ": 118175,
  "Ġconclusion": 16688,
  "çĦ¦": 100479,
  "Executor": 25255,
  "Hora": 77097,
  "keletal": 85155,
  "_vue": 69147,
  "Cold": 76418,
  "ç¥ŀ": 99315,
  "å±ħä½ı": 104350,
  "/GL": 82323,
  "aysia": 58085,
  ".syn": 35235,
  "Ġflavors": 31423,
  "irection": 2866,
  "Ġbiomass": 57658,
  "ĠSubset": 73223,
  "Ġunrealistic": 70885,
  "Ġtechnician": 53511,
  "Ġmatlab": 76001,
  ".Active": 28755,
  "fight": 21143,
  "ocumented": 36684,
  "sume": 31323,
  "çļĦä¸ĸçķĮ": 105484,
  "Ġnou": 19547,
  "(embed": 49725,
  "ipop": 79382,
  "responseObject": 86006,
  "Ġvaries": 34227,
  "ĠPediatric": 94836,
  "Ġemotionally": 37583,
  "Battle": 42893,
  ".writer": 30832,
  "Ġdancer": 63582,
  "å·²ä¹ħ": 117189,
  "åĩ¼": 119610,
  "_BUS": 33473,
  "Ġtrio": 33962,
  "èĮĮ": 119822,
  ".Binding": 36022,
  "ĠsetDescription": 68325,
  "ĠHours": 29092,
  "quota": 92604,
  "Ġsaja": 78786,
  "*log": 90414,
  "Ġburned": 26626,
  "ĠWeekly": 33014,
  "ĠBonnie": 73195,
  "Ax": 37842,
  "å°±æ²¡æľī": 106060,
  "Ġflea": 95855,
  "bruary": 6812,
  "ĠUserDetails": 88286,
  "Ġindex": 1922,
  "Ġvoltage": 21720,
  "Ġmiserable": 49639,
  "Ġshelters": 51788,
  "/plugins": 20797,
  "Ġscream": 45689,
  "')->": 4919,
  "æĬ¬å¤´": 108149,
  "Ġchocol": 71376,
  "Ġvatanda": 133277,
  "elta": 5964,
  "endtime": 90861,
  "èĬĿéº»": 110701,
  "å±ī": 119342,
  "IFIED": 27320,
  "Ġextent": 12818,
  "Popup": 24381,
  "ĠHT": 5260,
  "ĠMarr": 68598,
  "ĠSUS": 89029,
  "Court": 75774,
  "rich": 13851,
  ".times": 36285,
  "(example": 66203,
  "å¾Ĵå¼Ł": 112752,
  "ĠBinding": 25901,
  "_ori": 85525,
  "Ġpresenting": 31544,
  "CLUD": 10738,
  "ĠcontainerView": 96961,
  "ize": 551,
  "issions": 16528,
  "ĠTelegram": 42963,
  "ĠAccord": 79557,
  "appId": 74829,
  "Ġmaps": 14043,
  "ĠEPA": 26158,
  "Ġcref": 11145,
  "çĽ´çº¿": 111316,
  "COLUMN": 81190,
  ".Library": 69694,
  ".ipv": 87452,
  "Ġarchival": 93947,
  "ĠKuala": 86333,
  "PickerController": 42911,
  "Ġrsp": 42160,
  "åĨľæĿĳ": 101089,
  "æ¬¢": 99352,
  "æŀ¯": 102969,
  "Intl": 98691,
  "çŁ©éĺµ": 115000,
  "VID": 7483,
  "!=(": 58291,
  "èĥĥåı£": 117909,
  "=\"{": 28010,
  "Ġgirlfriend": 22761,
  "éĻī": 119775,
  ");$": 72446,
  "rsa": 60869,
  "/content": 27917,
  "UDO": 86638,
  "Ġcustomize": 31087,
  "Ġplacebo": 42615,
  "aving": 2317,
  "ingredients": 38120,
  "ĠGram": 28837,
  "ĠKatrina": 68656,
  "IZE": 3282,
  "Triple": 82826,
  "ĠMetric": 52458,
  "ĠKyle": 30259,
  "åľ°çĭ±": 110664,
  "Ġconsultation": 28073,
  "æĶ¶åħ¥": 100666,
  "ĠGeography": 83325,
  "Ġuw": 37343,
  "éĻİ": 122369,
  "Ġaerial": 40784,
  "Ġmis": 5786,
  "Ġselector": 9367,
  "æįķé±¼": 112254,
  "æĪĳä¸įæĥ³": 113643,
  "ATS": 49107,
  "ï¾ł": 145881,
  "ĠBeen": 50578,
  "ĠNOTES": 69946,
  "çİ©æ³ķ": 104736,
  "ĠATH": 87089,
  "Updated": 16196,
  "ynamo": 85608,
  "ĠLegends": 41886,
  "Ġ==(": 85407,
  "ä¾§éĩį": 114936,
  ".sources": 81837,
  "å¾Ĺèµ·": 109332,
  "ernity": 33619,
  "useState": 55670,
  "ĠFO": 21763,
  "è®°å¿ĨåĬĽ": 118836,
  "çĹŀ": 121024,
  "MouseListener": 69609,
  "//****************************************************************": 55263,
  "-re": 5504,
  "Ġattach": 15498,
  "éªĺ": 121078,
  "Ġslammed": 49265,
  "ä½İä¼°": 118250,
  "ĠCol": 4254,
  "ĠDropDownList": 98755,
  "(vector": 19066,
  "çĽ´èĩ³": 108190,
  ".matcher": 49227,
  "çĥĪ": 99865,
  "MainMenu": 86228,
  "')": 863,
  "ç¤¾äº¤åªĴä½ĵ": 116253,
  "ĠDEM": 50814,
  "Ġsuite": 16182,
  "bra": 14383,
  "_courses": 72551,
  "Sharp": 24056,
  "å±±ä¸ľ": 101992,
  "Today": 15364,
  "åī¯ä¼ļéķ¿": 115399,
  "Ġconvertible": 67613,
  "Ġfirestore": 73993,
  "_CENTER": 34555,
  "çĶ¨æĪ·çļĦ": 107494,
  "Ġbpp": 90533,
  "mach": 54277,
  ".INVALID": 73337,
  "-cor": 45613,
  "Ġvibes": 89849,
  "åĩ¹": 113672,
  "Ġvem": 97062,
  "Ġdrums": 46289,
  "premium": 84594,
  "Ġ[(\"": 84019,
  "Ġtreats": 31739,
  "ĠJulia": 39294,
  ".win": 43609,
  "Ġridicule": 93747,
  "Ġfault": 14527,
  "Ġhides": 57604,
  "å¯¹æİ¥": 104333,
  "AILY": 73049,
  "APSHOT": 66648,
  "omal": 52811,
  "oil": 73813,
  "sparse": 98223,
  "ä¹Ŀæ±Ł": 112940,
  "æ´ĽæĿīçŁ¶": 113074,
  "leaflet": 81707,
  "é¢Ĩ": 99213,
  "ĠPRIV": 89345,
  "asil": 29049,
  "ĠIOException": 9346,
  "Ġdestroying": 32712,
  "ĠWidget": 12980,
  "å®ŀäºĭæ±Ĥ": 117979,
  "NewLabel": 95167,
  "éĤ¦": 101285,
  "ï¼¦": 141161,
  "catalog": 26539,
  "Ġbehalf": 17522,
  "locks": 34936,
  "Ġfonction": 33401,
  "ä¸Ģæł¹": 106804,
  "-neck": 95433,
  "Ġpeanut": 49833,
  "Ġenlarg": 39939,
  "PointerException": 39618,
  "-v": 8273,
  "ĠCongo": 53832,
  "ĠNR": 39295,
  "å¾Ĺåĩº": 107522,
  "Ġworkspace": 27514,
  "ĠMySQL": 26339,
  "/////": 97656,
  "Adding": 32308,
  "graf": 76039,
  "Ġcease": 31516,
  "åıĪè¦ģ": 107919,
  "Ġask": 2548,
  "-path": 33095,
  "åı£": 39426,
  "å±ĭéĩĮ": 113466,
  "Warm": 95275,
  "Ġzro": 135396,
  "Ġconfession": 57373,
  "Ġdanych": 82217,
  "HttpGet": 29774,
  "food": 13915,
  "Ġbans": 47509,
  "æĳĦåĥıå¤´": 109360,
  "Ġdeferred": 26239,
  "Ġimposs": 90082,
  "Ġ\"-//": 66896,
  "inois": 16669,
  "ĠAdams": 26234,
  "hud": 80388,
  "Ġacct": 88567,
  "ĠAppliances": 96333,
  "Appe": 84363,
  "åıĹè´¿": 114480,
  "Ġgb": 47015,
  "Ġtrait": 17567,
  "ä½ıå®ħ": 104547,
  "Ġquarters": 31473,
  "rimp": 43894,
  "-capital": 97131,
  "ĠShader": 34788,
  "äºĶéĩĳ": 110510,
  "Usuarios": 58586,
  "é«ĵ": 103661,
  "ancel": 4949,
  "OCKET": 33195,
  "Journal": 43494,
  "CBD": 84471,
  "Ġglimpse": 39842,
  "-over": 28252,
  "Ġ)))": 98952,
  "Ġcallee": 94800,
  "cstdlib": 42695,
  "ĠUpgrade": 40713,
  "ĠAtlantis": 86935,
  "ĠWEB": 43956,
  "(features": 47552,
  "éĿĴæµ·": 103058,
  "_='": 88262,
  ".qq": 60239,
  "_tags": 16333,
  "Ġcongressional": 30619,
  "CodeAt": 53549,
  "Raw": 20015,
  "çºµæ·±": 117530,
  "è½¦éĹ´": 102798,
  "ĠDodd": 82993,
  "Ġreasons": 7966,
  "quan": 88437,
  "ĠTRAN": 40347,
  "Merchant": 84545,
  "Ġdrip": 72499,
  "Ġdeposit": 16539,
  "quests": 86322,
  "æĸ°é²ľ": 104838,
  "éĹ¨": 64689,
  "Ġata": 73476,
  "-gray": 21840,
  "ombre": 5509,
  "ĠLoy": 67242,
  "/gui": 55202,
  "Ġsheet": 10834,
  "dda": 71487,
  "beginTransaction": 58110,
  "_NOP": 71810,
  "ucci": 52369,
  "ww": 1250,
  "ç»Īäºİ": 104020,
  "NotNil": 96144,
  "Conference": 91248,
  "Ġcreativity": 27597,
  ".make": 10117,
  ",strong": 42753,
  "crawler": 74929,
  "Ġfeats": 63301,
  "ĠPub": 22611,
  "æ·±æ·±çļĦ": 112474,
  "Ġbehaved": 88731,
  ".ws": 22195,
  "_death": 78294,
  "ouver": 14826,
  "Ġcovered": 9761,
  "çģ¾å®³": 103011,
  "enties": 57042,
  "remote": 18147,
  "ĠMeg": 27343,
  "Ġincapable": 57171,
  ".requires": 82917,
  "Ġpackaged": 46137,
  "Ġwelche": 58319,
  "(\">": 63853,
  "Delegate": 9381,
  "ĠĠĠĠĠĠĠĠĠĠĠĠĠĠĠĠĠĠĠĠĠĠĠĠĠĠĠĠĠĠĠĠĠĠĠĠĠ": 8333,
  "Ġporta": 60990,
  "ens": 724,
  "LOGGER": 82400,
  "ĠDimension": 27923,
  "ĠPlanet": 28835,
  "Ġreasonably": 28446,
  ".Getenv": 64883,
  "_rect": 16979,
  "Ġconsuming": 34108,
  "æľīåĬ©äºİ": 105767,
  "è¢«è®¤ä¸º": 114532,
  "-na": 93082,
  "æĶ¶è²»": 118168,
  "Ġbelieves": 13605,
  "Ġcondom": 36716,
  "Ġrw": 25991,
  "prod": 19748,
  "ĠBuilds": 67118,
  ")['": 50510,
  "poll": 30141,
  "Maximum": 27309,
  "ighb": 4681,
  "Ġclassifications": 95671,
  "Ġsorry": 14589,
  "åłĨç§¯": 109266,
  "Ġthief": 57735,
  "aturing": 39228,
  "ç®¡çĲĨå±Ģ": 106903,
  "ä¸įåĲ«": 109852,
  "ä¸Ńèį¯æĿĲ": 114027,
  "Ġaware": 7853,
  "å«ľ": 123417,
  "stro": 95941,
  "itate": 19652,
  "åĪĳäºĭè´£ä»»": 117782,
  "ĠJets": 36489,
  "ĠDust": 31993,
  "ĠUnsigned": 97747,
  "è§Ĥ": 99237,
  "è§£": 49238,
  "Ġdm": 28676,
  "contro": 43748,
  "Ġaplik": 76245,
  "ĠBor": 22918,
  "leDb": 89506,
  "_dec": 13783,
  ";</": 11347,
  "ä¼¼": 99636,
  "ranking": 96546,
  "åħ¬å¯ĵ": 105517,
  ".proc": 83430,
  "_Details": 97426,
  "ĠDIS": 11977,
  "Ġliquid": 14473,
  "(cpu": 48814,
  "çŃ®": 121238,
  "ĠWild": 13630,
  "ĠDanger": 47299,
  "éĽħæĢĿ": 114431,
  "cede": 94874,
  "alta": 68051,
  "Ġgrey": 19780,
  "repid": 93594,
  "setType": 70341,
  "Ġmiejs": 76870,
  "å¤ļæ¬¡": 104183,
  "_band": 45344,
  "Ġcoal": 11497,
  "_cs": 35372,
  ")+'": 39734,
  "Ġfint": 84285,
  "Kom": 82043,
  "ä¸¤è¾¹": 110159,
  "Ġinstances": 13121,
  "ä½ĵå½©": 118037,
  "éģįåıĬ": 116652,
  "_IDX": 40932,
  "GREE": 98562,
  "mapping": 40792,
  ".station": 87340,
  "åģļäºº": 109223,
  "Ġmechan": 7697,
  "ĠHour": 30833,
  ",cljs": 95645,
  "_TAG": 16592,
  "DDevice": 89007,
  "éĿĻéĿĻåľ°": 115845,
  "icians": 9621,
  "ç«ŀäºīåĬĽ": 104322,
  "ĠUncomment": 63858,
  "_callbacks": 60148,
  "FX": 16381,
  "ä¸¤åĳ¨": 113151,
  ".rating": 48659,
  "èĮĥçķ´": 108977,
  "çİ«": 102918,
  "ä¼ĺäºİ": 117455,
  "ĠgetItem": 26978,
  "audi": 15523,
  "Ġhint": 13012,
  "digital": 57269,
  "è½³": 120090,
  "\"),\"": 98434,
  "ĠCabinets": 77389,
  "ĠeCommerce": 93559,
  "embali": 68705,
  "Ġld": 26129,
  "Mirror": 54216,
  "employment": 20461,
  "Ġelectric": 9072,
  "ĠsearchTerm": 89026,
  "çĺĲ": 121276,
  "_traits": 39693,
  "Ġdisco": 53869,
  "rocessing": 48687,
  "æ½ľæ°´": 113257,
  "installation": 80816,
  "Ġhay": 17669,
  ".App": 5105,
  "ä¸įç¡®å®ļ": 103486,
  "toMatchSnapshot": 61426,
  "-live": 73451,
  "Ġcardinal": 55880,
  "Ġses": 15537,
  "Ġcatalogue": 48539,
  "ĠNec": 63124,
  "ĠDickens": 92899,
  "Luck": 77352,
  "burn": 21719,
  "persons": 76651,
  "xxx": 24048,
  "ĠSecrets": 52079,
  "Invariant": 76621,
  "äººæīįåŁ¹åħ»": 106901,
  "Ġpathname": 39683,
  ":.": 16976,
  ".orig": 68837,
  "_ai": 69415,
  "ç»¡": 120543,
  "å·¦è¾¹": 114788,
  "Ġfilming": 38870,
  "ĠSupplies": 50252,
  "ç±»äº§åĵģ": 114010,
  "oyer": 41119,
  "Ġempath": 35581,
  "Ġmarzo": 85528,
  ";]/": 90838,
  "Ġ`,": 90190,
  "æĿĲæĸĻ": 100643,
  "ĠYAML": 53127,
  "Ġhurried": 72873,
  "èįĢ": 119134,
  "ĠHorny": 68254,
  "åŁºæľ¬": 99797,
  "åĲ²": 119705,
  "ĠGree": 20422,
  "Ġassaults": 56819,
  "Ġacompan": 51410,
  "mark": 3987,
  "Ġplight": 69975,
  "Experience": 34115,
  "è¹©": 122000,
  "Ġihren": 52716,
  "<y": 79546,
  ".ColumnHeader": 44831,
  "$results": 73229,
  "_sequences": 58732,
  "-relative": 75706,
  "Ġotra": 45395,
  "Ġappar": 33288,
  "Ġcrypt": 14436,
  "<My": 79333,
  "ĠGlo": 24373,
  "Ġnoqa": 45621,
  "Ġdiscre": 33938,
  "ï¼Ħ": 145026,
  "ĠErectile": 88789,
  "Ġanger": 19234,
  "alysis": 9092,
  ".begin": 6848,
  "iOS": 62760,
  "Ġqualify": 25384,
  "ArrayList": 14674,
  "Ġblacks": 38977,
  "Ġreck": 28199,
  "upa": 45831,
  "è¶ħé«ĺ": 112168,
  "Ġduplic": 26347,
  ".DockStyle": 29672,
  "amins": 37825,
  "emales": 86403,
  "abbreviation": 76857,
  "Ġthy": 25174,
  ".Utc": 51474,
  "Ġrecreational": 36000,
  "åħĦå¼Ł": 104212,
  "_INSTANCE": 42587,
  "ĠCapcom": 93553,
  ".WHITE": 42382,
  "Ġpurity": 52400,
  "BUFFER": 41472,
  "Ġsitcom": 80366,
  "Ġabbreviation": 71478,
  "éĥ½æĥ³": 112744,
  "ĠJamie": 35757,
  "lion": 78151,
  "Ġima": 92693,
  "Ġboils": 88955,
  "æĿĢæŃ»": 109256,
  "åĬłå¿«": 100710,
  "æĪıæĽ²": 112237,
  "Ġrecommended": 11102,
  "æĪĳéĥ½": 107108,
  "adora": 29813,
  "ĠOrder": 7217,
  "_KeyDown": 81459,
  "ĠSnackbar": 56254,
  "ĠVikings": 40348,
  "éľı": 121744,
  "ĠexpectedResult": 81441,
  "(hand": 63211,
  "åľº": 82224,
  "ĠVoyage": 95272,
  "u": 84,
  "_performance": 84833,
  "Individual": 43159,
  "_rgb": 37407,
  "Ġinvite": 21399,
  ".addElement": 65856,
  "ĠCOPYRIGHT": 14537,
  "/package": 64000,
  "ç²®": 101263,
  "Ġenjoyment": 44178,
  "ĠAnnex": 88620,
  ">p": 63627,
  "Ġconserv": 11110,
  "Ġrats": 31410,
  "-assets": 75158,
  "ĠHeck": 72717,
  "çļĦçĲĨè§£": 108894,
  "æ²īé»ĺ": 107107,
  "cciones": 54703,
  "æĪĳä¸įçŁ¥éģĵ": 108724,
  "Ġdeprived": 61583,
  "è¥Ħ": 103504,
  "éľĵ": 119097,
  "ĠtableView": 13756,
  "_DRV": 66173,
  "experience": 49559,
  "èĻŁ": 102699,
  "isEmpty": 18972,
  "é¦ĸä¸ª": 105992,
  "éĻ©": 99567,
  "ĠPlay": 7054,
  "åħ«å¤§ä»¥æĿ¥": 116247,
  "ä½łçİ°åľ¨": 113254,
  "ä¸ĢåĲį": 101177,
  "Ġgtk": 18692,
  "ĠSpoon": 93513,
  "æ¡ķ": 120330,
  "(std": 5194,
  "Ġnumbering": 78262,
  "Ġstool": 63072,
  "ategori": 31234,
  "Ġheaters": 81367,
  "`:": 44622,
  "è¨»": 100998,
  "Ġredu": 3595,
  "èĤļåŃĲ": 105925,
  "Cha": 95971,
  "-plugin": 23629,
  "ĠMac": 7401,
  "æ¯ĴæĢ§": 116888,
  "fdc": 92168,
  "Ġsupreme": 43122,
  "ĠAM": 6769,
  "æĸ¹å¼ı": 75768,
  "ä¸įåĩº": 101480,
  "è¯ħ": 119770,
  "çļĦè¯´æ³ķ": 108284,
  "-Fi": 26299,
  "å¤±æİ§": 116455,
  "æĭĶ": 101355,
  "ĠvalueForKey": 48588,
  ".sax": 88063,
  "(nextProps": 72825,
  "ĠCount": 4504,
  "Case": 4207,
  "vd": 16598,
  "åĢ»": 122653,
  "ĠPutting": 77890,
  "ique": 2372,
  "Vir": 49035,
  "æ²³è¾¹": 116691,
  "Ġproved": 18651,
  "Ġpigment": 76578,
  "asma": 22572,
  "æīĵåĮħ": 112401,
  "ĠSeasons": 67200,
  "ĠLanding": 46424,
  "ä¸ĩäº©": 106478,
  ".Stretch": 55009,
  "/application": 33032,
  "lt": 4832,
  "è¿Ļä¸ªéĹ®é¢ĺ": 105073,
  "ĠHabitat": 98588,
  "vation": 60328,
  "è½¿": 102998,
  "executable": 95924,
  "Ġforegoing": 87831,
  ".setToolTip": 73616,
  "normally": 85236,
  "Ġstealing": 37998,
  "çļĦç»ıåİĨ": 109025,
  "aturdays": 69704,
  "åĥį": 127901,
  "entanyl": 94291,
  "PostalCodesNL": 83969,
  "erin": 84409,
  "ĠCock": 33927,
  "ĠsetUp": 18620,
  "Chip": 56417,
  "Ġwrestling": 35440,
  "Ġsustainability": 40229,
  "Ġ=&": 59132,
  "development": 29571,
  ".getBlock": 53441,
  "çĸĨ": 102259,
  "Ġindications": 55090,
  "ĠDrawing": 37759,
  "çıĸ": 122567,
  "Ġdescribe": 7512,
  "åıĳçĶŁåľ¨": 108132,
  ":'": 4884,
  "_DATE": 18500,
  "Ġ\"--": 14482,
  "Ġtuple": 14405,
  "Ġsorted": 10615,
  "iente": 12844,
  "Ġcartridges": 71733,
  "rou": 581,
  "Total": 7595,
  "Streaming": 76509,
  "ĠAPC": 86241,
  "ENABLE": 43728,
  "Ġdisagrees": 94983,
  "åĲīä»ĸ": 115789,
  "Ġ'\"'": 52090,
  "_LOOP": 49502,
  "\"C": 46316,
  "çģµæĦŁ": 109912,
  "éªĵ": 120833,
  ".logging": 16572,
  "\\/": 4739,
  ")get": 62307,
  "oret": 18174,
  "merican": 15717,
  "Ġmin": 1308,
  "ĠCareers": 98355,
  "ĠLighting": 44523,
  "_arch": 34330,
  ".BOTTOM": 83719,
  "getInstance": 19720,
  "ANCES": 84410,
  "å¤ĸæı´": 113284,
  "/event": 40763,
  "GAN": 58487,
  "Ġechoing": 93724,
  "ĠBowl": 20288,
  "Ġbreastfeeding": 64764,
  "iphers": 82077,
  "ĠInkWell": 84840,
  "conomic": 31007,
  "Ġidentified": 10820,
  "economic": 48844,
  "Handling": 38606,
  "çļĦå¥³äºº": 106354,
  "Mb": 87313,
  "ĠOID": 76358,
  "ĠKis": 85637,
  "Ġrefer": 8300,
  "andalone": 84112,
  "Ġnominations": 59598,
  ".isDefined": 84326,
  "åĽŀ": 18397,
  "çĶŁæĹ¥": 105511,
  "åĽłæŃ¤": 101886,
  "Ġcompiler": 19415,
  "æĪĸå¤ļ": 118174,
  "operative": 42619,
  "ĠEden": 50815,
  ".Obj": 90191,
  "çľŁåĪĩ": 115012,
  "ä¸Ńåħ±": 102771,
  "è¸ıä¸Ĭ": 111385,
  "Priority": 20555,
  "ä¸įåĸľæ¬¢": 105556,
  "uzzle": 14945,
  "-Americans": 59064,
  "Ġfax": 48619,
  "sock": 13199,
  "Ġdays": 2849,
  "ĠRift": 56327,
  "ï¾į": 144729,
  "ĠUM": 57122,
  "å¤´æĿ¡": 103098,
  "åıªè§ģ": 107053,
  "oval": 13516,
  "æĭ¼æĲı": 108649,
  "ĠPackageManager": 56395,
  "_attrs": 39578,
  "ĠWebster": 63277,
  "informatics": 97488,
  "çİ°å·²": 108399,
  "iteral": 9953,
  "æĢ§": 33071,
  "thalm": 77643,
  "è¿ĻæĿ¡è·¯": 116215,
  "ĠMoney": 17633,
  ".CONNECT": 92652,
  "ĠMorales": 75502,
  "ĠMavericks": 86156,
  "Day": 10159,
  "Ġalumnos": 97859,
  "æľīä¸įåĲĮçļĦ": 114046,
  "ĠBlasio": 92393,
  "Ġaup": 97444,
  "éĵºè®¾": 112815,
  "Ġvandalism": 88852,
  "cursor": 17437,
  "ĠTransport": 16742,
  "æł¹æľ¬æ²¡æľī": 113193,
  "è®·": 119645,
  ".cookies": 65298,
  "RP": 21657,
  "forcing": 41496,
  "Ġproper": 6169,
  "ĠDone": 27357,
  "æīĵèµ¢": 110095,
  "imens": 45597,
  "ĠMost": 7496,
  "ĠSVN": 75714,
  "ruptcy": 95219,
  "æ¶¨ä»·": 110584,
  "init": 2327,
  "Ġpedestrians": 61458,
  "çļĦæĻĤåĢĻ": 106129,
  "_QMARK": 87343,
  "Ġgeli": 125963,
  "Ġcompensated": 65882,
  "two": 19789,
  "gement": 29564,
  "ĠAnglic": 90534,
  ".pages": 37980,
  "ĠEric": 16247,
  "_TRUE": 14044,
  "Ġwc": 26548,
  "+(": 13362,
  "Ġproponents": 70696,
  "-helper": 77664,
  "=[": 5818,
  "agents": 54875,
  "(lhs": 57535,
  "(sh": 23254,
  "ĠFIELD": 40278,
  "_VIRTUAL": 76959,
  "Ġkin": 23938,
  "ĠBOOST": 21203,
  "ĠYear": 9742,
  ".Stat": 53419,
  "elsea": 23278,
  "Delimiter": 91098,
  "éĿĴ": 99467,
  "Ġincrease": 5263,
  "emetery": 36538,
  "Ġqualifier": 60647,
  "çĽ¾": 102230,
  "antwort": 69046,
  ".parent": 8659,
  "SectionsIn": 95005,
  "åħ³ç³»": 100145,
  "Ġdifferentiate": 53163,
  "modx": 95630,
  "(rel": 49235,
  "Ġhandset": 82163,
  "Ġoccupied": 24367,
  "çľĭå¥½": 106303,
  "{lng": 88754,
  "Faculty": 94667,
  ")(((": 11132,
  "ä¸įæľĥ": 105668,
  "åĤ©": 120991,
  "ĠLarry": 29290,
  "ä¸ĢçĤ¹éĥ½ä¸į": 114734,
  "Ġnewline": 39027,
  "ĠHak": 71298,
  "Ġsol": 2048,
  ".f": 833,
  "AtIndex": 22556,
  "MYSQL": 54063,
  "ĠPAS": 59917,
  "IGNAL": 17754,
  "ĠDIY": 31458,
  "ĠClaudia": 80056,
  "ç¼´çº³": 106600,
  "æĻĻ": 122804,
  "Tooltip": 25717,
  "ODO": 4464,
  "ĠWinnipeg": 51882,
  "Ġciting": 32164,
  "_note": 27207,
  "toUpperCase": 37086,
  "Ġmarketed": 60049,
  "Ġfiss": 94059,
  "(argument": 68485,
  "'>\"": 34438,
  "Ġreg": 1217,
  "å«ł": 121350,
  "-supported": 87113,
  "\"crypto": 87965,
  "[out": 49697,
  "_Ass": 62222,
  "vero": 88810,
  "Anyone": 40695,
  "Ġblessed": 32844,
  "æĺ¯ä¸Ģåº§": 115164,
  "sep": 28036,
  "oulos": 53947,
  "selectors": 95264,
  "ESTAMP": 30655,
  "tright": 68976,
  "Ġsophisticated": 26779,
  "ĠSing": 10833,
  "ĠCle": 36002,
  "Ġadvertise": 50836,
  "defines": 57043,
  "èĤ©è´Ł": 115486,
  "Ġlah": 89045,
  "Interest": 34556,
  "æ¦ľåįķ": 109045,
  "Ġrepairing": 67237,
  "å½¢å¼ı": 100414,
  "toy": 81225,
  "=\"\"></": 39583,
  "etes": 95181,
  "-that": 93500,
  "Ġpunk": 35758,
  "Several": 34762,
  "åŁĥåıĬ": 109943,
  "rock": 20521,
  "è½¬åħ¥": 113259,
  "_forward": 32121,
  "_PARAMETER": 33241,
  "èĬİ": 119598,
  "xhr": 58983,
  "Ġcontinuously": 30878,
  "ajas": 66822,
  "èµ³": 120021,
  "_ipc": 83806,
  "]),": 9719,
  "ĠDortmund": 71450,
  "ĠPatent": 57990,
  "æĪĺå£«": 100853,
  "çļĩåĲİ": 108595,
  "Ġsparse": 33444,
  "PO": 2045,
  "ĠKP": 77524,
  "tableView": 14430,
  "_formats": 68351,
  "ksi": 31060,
  "vide": 19448,
  "Ġoil": 5590,
  "Ġweakest": 80763,
  "Ġswell": 77253,
  "ĠSOUR": 48763,
  "Ġcompetit": 51204,
  "åĲĪèµĦåħ¬åı¸": 118896,
  "ĠYES": 14080,
  "fin": 5472,
  "_push": 14218,
  "MethodManager": 72130,
  "Ġcontempt": 45354,
  "Ġprevention": 26248,
  "çļĦèº«ä½ĵ": 106214,
  "åĨįè¯´": 107077,
  "ĠDanielle": 71616,
  "çľ·": 110846,
  "(sn": 59865,
  ".organ": 50172,
  "/get": 23302,
  "close": 5552,
  "éļİ": 103778,
  "ĠMERCHANTABILITY": 7935,
  "ĠTalent": 54507,
  "ĠJad": 72724,
  "ĠEACH": 94413,
  "Ġch": 521,
  "éĤ£æ®µ": 110872,
  "è½¦èº«": 107885,
  "DU": 21547,
  "ahr": 15113,
  "Ġfreezer": 49585,
  "HC": 22455,
  "=\"(": 78239,
  "èĳ«èĬ¦": 111065,
  "Ġalan": 72562,
  "ĠDefine": 18614,
  "è¶¼": 122807,
  "Ġpaternal": 92267,
  "thickness": 90967,
  "_counts": 25977,
  "ĠSAR": 68778,
  "Bloc": 91170,
  "rvine": 66574,
  "jsp": 93340,
  "ocale": 36311,
  "camel": 93321,
  "ç»ıæµİç¤¾ä¼ļ": 105441,
  ",re": 38125,
  "ssql": 79713,
  "Ġstab": 26964,
  "-n": 5279,
  "è¯ģçĽĳ": 106671,
  "apist": 59229,
  "ponible": 96851,
  ".jdesktop": 77075,
  ".VERTICAL": 65282,
  "çī¹æ´¾": 115224,
  "ĠWhoever": 90295,
  "IRC": 51840,
  "Ġ&#": 44533,
  "-stars": 96906,
  "ç¼Ń": 119498,
  "åī§åľº": 112847,
  "Ġnumpy": 8591,
  "å¾Ĺå¤©": 118363,
  "']": 660,
  "usic": 11524,
  "AlertDialog": 71096,
  "_temp": 11771,
  "/St": 84440,
  "origin": 8611,
  "å¤§çļĦ": 99750,
  "åľ¨åħ¨åĽ½": 105527,
  "ĠNikon": 62152,
  ".front": 23445,
  "ometimes": 12693,
  "Things": 41475,
  ".ObjectMapper": 89408,
  "[counter": 54421,
  "ĠRow": 10801,
  "è¿Ļä¸ªåĲįåŃĹ": 118164,
  "ĠfullPath": 85844,
  "æľĪä»¥æĿ¥": 114738,
  "nej": 35800,
  "eczy": 96495,
  "Ġsuperheroes": 90718,
  ".Italic": 94446,
  "SW": 16844,
  "Ġcoup": 15706,
  "_plural": 57427,
  "Ġzw": 24396,
  "liers": 40376,
  "å¥ĸ": 99500,
  "icie": 76277,
  "Ġkami": 62669,
  "unte": 10830,
  "ĠmarginTop": 22828,
  "Actual": 28123,
  "è¸£": 123445,
  "ĠAss": 2688,
  "_mass": 36714,
  "ä¸ĵä¸ļäººå£«": 114516,
  "Ġstrtoupper": 60440,
  "é»ł": 121981,
  "æŃ¥æŃ¥": 115706,
  "ĠEye": 27829,
  "å¯¹åħ¶è¿Ľè¡Į": 118738,
  "Ġtarde": 60645,
  "Ġwindows": 11030,
  "Ġlaat": 72399,
  "_util": 18974,
  "è®ĵäºº": 111546,
  "å®¢æĪ·çļĦ": 107069,
  "ICollection": 18061,
  "ä»ħä¸º": 108880,
  "å¯Ĳ": 121065,
  "(Query": 59036,
  "ç¾İå¾·åħ¬åı¸": 117953,
  "Lock": 11989,
  "_mask": 9999,
  "åįłçĶ¨": 109054,
  "æµİåįĹ": 102420,
  "ĠHampshire": 30897,
  "Ġconcluded": 19941,
  "ebra": 50213,
  "(rb": 64044,
  "rypton": 53536,
  "Includes": 55834,
  "ä¸Ńå¿ĥåŁİå¸Ĥ": 114976,
  "Tambah": 91051,
  "ĠdeleteUser": 81056,
  ".Builder": 15641,
  "ĠDEV": 50895,
  "Ġopting": 74601,
  "parsed": 41030,
  "%%%%%%%%%%%%%%%%%%%%%%%%%%%%%%%%": 33009,
  "Ġconsider": 2908,
  "ensely": 60032,
  "ĠTHR": 90586,
  "ImageRelation": 90489,
  "åª¾": 121328,
  "_EXECUTE": 91103,
  "æįŀ": 109869,
  "åĿĩçº¿": 112456,
  "olicies": 42038,
  "Ġunfit": 93467,
  ".Compile": 89323,
  "åľ¨ä¹İ": 111478,
  "ĠMexicans": 96762,
  "ĠLatest": 28157,
  "Ġdiet": 9968,
  "angelog": 61873,
  "_key": 3097,
  "çļĦç¼ĺæķħ": 115727,
  "Ġmalls": 83368,
  "Ġshining": 47925,
  "ĠcreatedBy": 83773,
  "DTD": 42019,
  "ĠPulse": 49249,
  "å¤§åĽ½": 107944,
  "è¿ħçĮĽ": 113157,
  "_SI": 94421,
  "Services": 11025,
  "éģĵå£«": 102315,
  "_strike": 71717,
  "Ġ(#": 29083,
  ".getSize": 40492,
  "Bootstrap": 45511,
  "ĠCursors": 93166,
  "Ġbrakes": 44564,
  "Ġoid": 48766,
  "CH": 2149,
  "ĠMakeup": 72914,
  "Ġheter": 29448,
  "æ²¡éĹ®é¢ĺ": 114815,
  "éĥ¨åī¯": 117987,
  "Ġresisting": 69341,
  "Ġcalibrated": 84985,
  "Ġconcern": 4643,
  "é¡º": 99683,
  "))(": 28154,
  "åħ¬è¯ī": 118060,
  "Ġmetod": 94384,
  "Ġrid": 9279,
  "Ġpunches": 60751,
  "ĠCroatia": 57211,
  "(padding": 90906,
  "ĠlabelText": 64710,
  "door": 10787,
  "Ġchocia": 141609,
  "åµ´": 121216,
  "ManyToOne": 43094,
  "è°²": 121525,
  ".NewReader": 68587,
  "å®¦": 119170,
  "èĮĦåŃĲ": 118866,
  "ĠBC": 18040,
  "truncate": 66054,
  "ç©ĳ": 121784,
  "ansson": 80165,
  "...............": 135535,
  "Ġsignifies": 77764,
  "ĠVOC": 92521,
  "ĠSync": 28937,
  "_LCD": 63092,
  "Ġfrase": 90329,
  "//!": 13650,
  "French": 43197,
  "Ġmisled": 98425,
  "storms": 82009,
  "Ġutilisateur": 86526,
  "æŀĿ": 101324,
  "cee": 70596,
  "-cond": 83376,
  "æķĻæ¡Ī": 118089,
  "ercise": 18359,
  "_xx": 95968,
  "Observer": 17151,
  "\"./": 95092,
  "sigma": 24912,
  "åĮ®ä¹ı": 118465,
  "_INTR": 43661,
  "éĺĹ": 121283,
  ".alibaba": 48662,
  "åľ°åŁŁ": 106002,
  "Ġtesters": 89719,
  "ĠShares": 44185,
  "æĺº": 122454,
  "æĬĬæīĭ": 110349,
  "Ġgrunt": 43043,
  "mediate": 14636,
  "æĥħå½¢": 106263,
  "Ġweit": 85117,
  "äº§ä¸ļéĽĨèģļ": 117260,
  "Spi": 96664,
  "åĮ»çĸĹ": 100182,
  "@example": 35487,
  "ĠGil": 20793,
  "Ġproducto": 34774,
  ".Number": 31182,
  "nak": 42874,
  "_cur": 18956,
  ".getCount": 52914,
  "éĥ½æ²¡": 105562,
  "ending": 2459,
  "Ġestos": 44786,
  "ä¸įåĲĪçĲĨ": 111858,
  "ĠBeautiful": 19490,
  ".rightBarButtonItem": 92917,
  "å°įæĸ¼": 105820,
  "uments": 2831,
  "Ġomap": 88236,
  "çĤ¹äºĨ": 112384,
  "Photo": 10463,
  "Ġlatest": 5535,
  "bones": 80991,
  "è³ĩè¨Ĭ": 102816,
  "åĴĮç¤¾ä¼ļ": 106640,
  "ĠSo": 2055,
  "Sessions": 59062,
  "ĠDebugger": 93646,
  "æĹı": 70769,
  "Ġabrasive": 93704,
  "Ġcert": 2777,
  "Ġsera": 34637,
  "php": 1208,
  "è®±": 122146,
  "Ġgriev": 49913,
  "KT": 33539,
  "ieux": 52719,
  "unda": 26892,
  "clusion": 8957,
  "æĲŀå¾Ĺ": 116956,
  "abby": 78636,
  "åĬłå·¥": 101130,
  "planes": 38057,
  "Ġupgrades": 31614,
  "Ġdio": 64470,
  "åĿĢ": 40623,
  ".layoutControl": 61661,
  "-tested": 96073,
  "his": 25235,
  "çł°": 117783,
  "Ġcandle": 37799,
  "éĸĴ": 118540,
  "Portable": 96571,
  "çħ§äº®": 116176,
  "è®¤åĲĮ": 106139,
  "ĠTR": 4984,
  ".short": 26666,
  "æĮļ": 118915,
  "Ġsleeve": 36153,
  "macros": 86398,
  "Ġdescri": 5018,
  "Deaths": 66321,
  "Shield": 84099,
  "division": 28764,
  "Examples": 40381,
  "Ġkicks": 36250,
  "èĭ±éĽĦ": 104182,
  "ç¡ħè°·": 118012,
  "Ġbased": 3118,
  "Ġdoubles": 39296,
  "Ġwand": 28710,
  "-buy": 79678,
  "ĠKeeping": 55378,
  "role": 5778,
  "é²»": 121805,
  "Eastern": 96388,
  "Ġconfirmed": 10774,
  "ç®¡çĲĨèĢħ": 110347,
  "fk": 41718,
  "Ġhugged": 93468,
  "å¤ªåİŁ": 107667,
  "åľ¨åĵª": 109333,
  "Ġchef": 29706,
  "sales": 29041,
  "èī¨": 122036,
  "datagrid": 84990,
  "åħļåĴĮæĶ¿åºľ": 118787,
  "Ġfail": 3690,
  "ĠRelevant": 87416,
  "Alpha": 19384,
  "Ġarchived": 51993,
  "éĸ¢": 96418,
  "acula": 85193,
  "Ġresource": 5101,
  "ĠSoy": 62003,
  "(setq": 57036,
  "angepicker": 75321,
  "ForKey": 14954,
  "Ġthermometer": 92197,
  ".tabControl": 49447,
  "Ġtheano": 95899,
  "Ġdeprivation": 68664,
  "éķ¿å¾ģ": 111159,
  "Ġbought": 10788,
  "ĠNative": 16703,
  "Ġformulate": 88859,
  "likes": 25039,
  "_J": 10598,
  "ç¾İå¥½çļĦ": 106369,
  "Ġsubtle": 26447,
  "è¿Ļä¹Īåģļ": 112663,
  "PasswordEncoder": 76579,
  "åı¤": 99470,
  "Ġupto": 80126,
  "èĪªæµ·": 118819,
  "æ¡¢": 120326,
  "èĬ¯": 102491,
  ".pow": 25290,
  ".inline": 29416,
  "(chars": 76206,
  "aturity": 37854,
  "ixed": 3286,
  "ĠCho": 32580,
  "-awaited": 89250,
  "/Foundation": 33925,
  "Ġsynthetic": 27268,
  "ĠChloe": 59370,
  "æ¸Ĺ": 102914,
  "çŃĿ": 103801,
  "incy": 75586,
  "-time": 7246,
  "Ġhiding": 25037,
  "para": 14794,
  "country": 11141,
  "ancouver": 20471,
  "ĠEmbed": 37068,
  "Ġarms": 11715,
  "_die": 61588,
  ".max": 6678,
  "iren": 46335,
  "_passwd": 88667,
  "Ġgrandma": 82677,
  "ĠQuando": 91666,
  "éŃĶé¾Ļ": 115983,
  "Ġnisi": 68152,
  "ounce": 9734,
  "åĺ¹": 119483,
  "ute": 1070,
  "Ġoverd": 39452,
  "æİ¨ä»ĭ": 103194,
  "tyard": 55536,
  "});": 14088,
  "-root": 39214,
  "vl": 14536,
  "=\"../../": 15437,
  "äºĨè¿ĩæĿ¥": 112994,
  "ĠOcean": 21575,
  "ä½İè¿·": 111953,
  "GetProperty": 82593,
  "ĠNikki": 69107,
  "Ġdips": 96504,
  "ceans": 42220,
  "Ġboiler": 27625,
  "ĠNewest": 78697,
  "Ġdepartamento": 95889,
  ".Mongo": 78205,
  "inality": 80777,
  "Initialization": 61928,
  "essay": 79977,
  "(\",": 12918,
  "ittal": 82123,
  "ĠMandal": 88879,
  "æ¨¯": 121574,
  "pesan": 96285,
  "pedo": 52494,
  "ucker": 24370,
  ".addAll": 27078,
  "Ġtemp": 2730,
  "prom": 24468,
  "uchs": 53152,
  "åĽŀåĽ½": 108184,
  "(Name": 21182,
  "ä¼łå¯¼": 116630,
  "eda": 13830,
  "Ġfame": 32551,
  "(Transform": 83626,
  ".Tele": 86522,
  "/channel": 73121,
  "orph": 16347,
  "ĠPeyton": 85456,
  "ĠCharles": 14927,
  "enable": 12552,
  "_latency": 74832,
  "Ġobservational": 89280,
  "æľ¬æ¬¡": 101184,
  "(the": 30424,
  "ç¬ĭ": 111313,
  "/day": 44739,
  ";o": 93449,
  "_front": 22926,
  "Ġpromising": 25383,
  "-hours": 76005,
  "wcs": 34943,
  "Ġdetalle": 79720,
  "math": 10374,
  "å¹´é¾Ħ": 102185,
  "Ġmeasurable": 65203,
  "Storyboard": 36047,
  "èĹį": 112262,
  "ç°¿": 113649,
  "ossa": 43836,
  "å¼Ľ": 103838,
  "Agents": 91804,
  "_trials": 75845,
  ".chart": 30672,
  "ĠResults": 18099,
  ".teacher": 87610,
  "zas": 50355,
  "Ġembody": 80558,
  "ogenous": 52495,
  "Ġretrospective": 78829,
  "Ġinterceptions": 72457,
  ".spark": 32546,
  "ä¹Łæ²¡": 102362,
  "æī¿è®¤": 104953,
  "planet": 50074,
  "igua": 90746,
  "classCallCheck": 80198,
  "Ġkostenlose": 48522,
  "ĠJohann": 87864,
  "ç»Īç»ĵ": 112080,
  "Decorator": 47951,
  "ĠAlways": 23240,
  "_dom": 35749,
  "Ġfar": 3041,
  "ĠCGSizeMake": 78687,
  ".NUM": 58224,
  "-camera": 71944,
  "çªľ": 112855,
  "Ġot": 14147,
  "QueryBuilder": 51400,
  "(numbers": 47207,
  "ĠExercises": 90454,
  "(@\"": 10941,
  "çĥ½": 118750,
  "ĠSabbath": 80176,
  "ä¸ĵé¡¹æĸĹäºī": 108210,
  "ĠGreenville": 92554,
  "_shutdown": 54804,
  "ĠCody": 57282,
  "ĠWave": 31318,
  "addOn": 58067,
  "Ġutilization": 49449,
  "<uint": 16434,
  "leaders": 78386,
  "_go": 25515,
  "ï¨Ĺ": 147356,
  "Ingrese": 50489,
  "ĠRELEASE": 53034,
  "_macro": 58810,
  "Ġobedience": 66094,
  "Jacob": 94167,
  "çŃ¾ç½²äºĨ": 114281,
  "èī°å·¨": 118314,
  "mousedown": 56638,
  ".kernel": 31226,
  "å¤§æ¥¼": 108309,
  "uffer": 2040,
  "ä¸¤æ¬¡": 105177,
  "é²º": 123566,
  "ĠContentType": 70431,
  "Ġedx": 63645,
  "åĸľæ¬¢åĲĥ": 115844,
  "æ·Ħåįļ": 109481,
  ".visitVarInsn": 55165,
  "ep": 747,
  "Ġaqui": 43576,
  "bam": 80567,
  "Gab": 74639,
  "uiltin": 25628,
  "ĠShan": 59767,
  ".elapsed": 77482,
  "Ġlevitra": 67920,
  "inch": 36750,
  "charset": 25327,
  "bolt": 52433,
  "POCH": 69945,
  "achu": 64918,
  "[current": 25767,
  "ä¸īåįģå¹´": 114264,
  "Ġpract": 3771,
  "ahrung": 65224,
  "needle": 59519,
  "braska": 33788,
  "-country": 55871,
  ".clone": 15997,
  "èĪªéģĵ": 117660,
  "KeyEvent": 62996,
  "Ġreordered": 49032,
  "XYZ": 32196,
  "uring": 1677,
  "ĠRouter": 10554,
  "extends": 15231,
  "é©¬åĬĽ": 113219,
  "Ġkennenlernen": 88862,
  "_department": 71886,
  "kea": 42428,
  "ĠCASCADE": 97059,
  "Triangles": 97794,
  "flip": 39017,
  ".NO": 42883,
  ":green": 95731,
  "éĥľ": 120150,
  "Ġatrav": 70406,
  "_gender": 62821,
  "_series": 35015,
  "_FA": 19058,
  "Ġsembl": 79564,
  "terr": 68669,
  "ĠSah": 41959,
  "Ġreiterated": 65747,
  "ĠSummon": 53906,
  "Ġzobac": 141611,
  "/live": 94212,
  "éĿ¸": 120876,
  "Ġdigestive": 58971,
  "IDS": 25614,
  "å¤ļæł·": 101725,
  "ãĢĳ,": 91266,
  "Expert": 74292,
  "ç©¿": 99621,
  "mented": 26980,
  "_HORIZONTAL": 75867,
  "éĺ¼": 122264,
  "\\DependencyInjection": 84236,
  "Ġrooftop": 66192,
  "ades": 3452,
  "ç»ĵæŀľ": 59151,
  "<Form": 77600,
  "èĩ³å°ĳ": 104102,
  "Fd": 74476,
  "Ratio": 22777,
  "åį£": 119692,
  ".day": 26216,
  "æ²¡èĥ½": 109146,
  "Ġgarnered": 67290,
  "agment": 15601,
  "ycin": 64056,
  "Ġstriped": 67590,
  "åĲĪä¼Ļ": 103182,
  "ussels": 31864,
  "_amp": 60281,
  "-token": 34841,
  ".Components": 59788,
  "é²£": 121650,
  "çĤ¹åįĬ": 111394,
  "post": 2203,
  "ĠRiley": 46835,
  "ĠScr": 32134,
  "æľĢåħ³éĶ®çļĦ": 115253,
  "éĦŀ": 121123,
  "fec": 76526,
  "ĠFunds": 60188,
  "income": 56966,
  "èı©": 101670,
  "ç¤¼": 99748,
  "ç§Ń": 120152,
  ".extensions": 48439,
  "ADATA": 39119,
  "theon": 63010,
  "ĠrootReducer": 84608,
  "Connector": 35954,
  "\\Bridge": 98110,
  "Ġkald": 127900,
  "è½®èĥİ": 108012,
  "ĠEventArgs": 8124,
  "Ġbreakup": 84498,
  "Ġshader": 21013,
  "MEMORY": 98706,
  "Ġmod": 1463,
  "_ALREADY": 80554,
  "ĠERROR": 12874,
  "Ġkicker": 86176,
  "Gi": 46841,
  "ĠClip": 29692,
  "Ġdecis": 33022,
  "CTYPE": 15015,
  "Ġ\"%\"": 78797,
  "])+": 47966,
  "fahren": 96922,
  ".Abstract": 37340,
  "Ġoptimizations": 81178,
  "ä¹ıåĬĽ": 113631,
  "FFFFFFFF": 98843,
  "Ġimmedi": 5551,
  "(Link": 84944,
  "Med": 13310,
  "çħ¤": 100471,
  "Southern": 85738,
  "rys": 41326,
  "Ġbog": 34419,
  "è¿·ä¿¡": 115110,
  "getc": 71303,
  "taken": 82161,
  "åĥ¹æł¼": 112664,
  "_stderr": 93033,
  "IVER": 18793,
  ";?>": 24904,
  ".Constant": 58940,
  "Ġkil": 15045,
  "ĠDavid": 6798,
  "Ġstartling": 67734,
  "ĠWr": 31630,
  "ĠTM": 23975,
  "cls": 18074,
  "ç¬¬ä¸Ģä½į": 110559,
  "ĠIEnumerator": 27952,
  "Ġconstituency": 64639,
  "[Unit": 87827,
  "_syn": 51393,
  "çļĦäºĭ": 104140,
  "çķĮéĿ¢": 107113,
  "Monad": 86933,
  "ĠMoran": 92235,
  "ortion": 25886,
  "Ni": 56494,
  "ĠGlacier": 95386,
  "');": 4667,
  ".demo": 26260,
  "Ġphantom": 69708,
  "Ġexports": 12794,
  "çĲ¨": 120845,
  "-read": 28806,
  "Ġrealize": 13083,
  "iliary": 34446,
  "desc": 8614,
  "æ¶īåıĬåĪ°": 109228,
  "ĠShall": 85461,
  "ara": 5059,
  "NotFound": 10372,
  "Orientation": 22332,
  "entifier": 7189,
  "Ġpom": 29484,
  "Ġine": 19116,
  "Teen": 64231,
  "Ġcharger": 44569,
  "Ġroyalties": 84874,
  "Ġsnatch": 84560,
  "Ġebook": 33997,
  ".getFullYear": 39951,
  "Ġobjection": 45555,
  "åŁĿ": 120569,
  ".existsSync": 69833,
  "Ġdeserialize": 35240,
  "Ġssh": 29230,
  "_rf": 65466,
  "_MODULES": 95742,
  "ĠArabian": 72598,
  "æĺŁå·´åħĭ": 117635,
  "dea": 55088,
  "Ġsaya": 53937,
  "Slf": 72238,
  "estruction": 68702,
  "Ġsculpture": 49967,
  "REAL": 24895,
  "Ġmindset": 39443,
  "ĠWholesale": 55416,
  "Ġbone": 17240,
  "ä¸Ģæĸ¹": 105235,
  ":\"\",": 83131,
  "åĲĮåŃ¦ä»¬": 105363,
  "Ġmilf": 25399,
  "ï¾ĺ": 144364,
  "-sheet": 88966,
  "}&": 24778,
  "Pedido": 70026,
  "ĠLAST": 47295,
  "_fh": 90808,
  ".reload": 20292,
  "ĠHide": 25590,
  "ĠDISCLAIMER": 97097,
  ".commit": 15728,
  "Ġcmake": 92996,
  "Ġunions": 28490,
  "å°¤ä¸ºéĩįè¦ģ": 118900,
  "Ġwhitelist": 67727,
  "ĠTours": 56049,
  "Ġsucker": 93788,
  "Ġtemps": 26046,
  "Ġmusic": 4627,
  "TextLabel": 96630,
  "äºķ": 104097,
  "æµİå®ģ": 112345,
  "-padding": 42549,
  "von": 58170,
  "(points": 32450,
  "avourites": 69316,
  "_SL": 25622,
  "Ġap": 1443,
  "åĪŃ": 119784,
  "è¢«èªī": 109720,
  "Ġbard": 41810,
  "Ġthrom": 83564,
  "æĻħ": 122623,
  "ĠCached": 74205,
  "Ġgraphic": 20514,
  "çģ«åĬĽ": 114763,
  "å¼ı": 28330,
  "æ±Ĥå©ļ": 116618,
  "çīĽå¥¶": 106477,
  "ĠPlum": 83309,
  "æ©Ĳ": 121736,
  "(pass": 39790,
  "Ġorganized": 16645,
  "ä¾Ŀæīĺ": 104539,
  "Dire": 87409,
  "ĠSTOCK": 82651,
  "ä¸ºä¹ĭ": 110624,
  "Img": 13033,
  "Ġsmith": 76721,
  "LinkId": 66396,
  "anden": 61700,
  "Ġgating": 73399,
  "ä¿Ĭ": 104357,
  "Ġcargar": 81911,
  "-from": 38051,
  "edio": 61959,
  "verity": 26472,
  "Ġbiking": 66080,
  "Ġsafety": 7149,
  "å¤Ļ": 119629,
  "lecture": 76761,
  "_extract": 39123,
  "ĠClassNotFoundException": 65641,
  "é¸ŁæĪĲéķ¿": 115991,
  "ĠWinter": 20101,
  "Convention": 44932,
  "ĠAccording": 10548,
  "anax": 84612,
  "Ġtotalitarian": 89264,
  "ulously": 37562,
  ".Schedule": 87081,
  ".kind": 36632,
  "ĠFinn": 34062,
  ">B": 36721,
  "æĳ¸ç´¢": 111878,
  "Ġeps": 17986,
  "å¿¿": 119334,
  "actions": 4020,
  "Ġcampaigners": 93293,
  "OSP": 77816,
  "Ġforest": 13638,
  "è¡Į": 22243,
  ".Positive": 74387,
  "Ġhavoc": 65492,
  "bot": 6331,
  ".ok": 18165,
  "imedia": 26936,
  "ĠFeast": 90928,
  "assed": 59004,
  "Ġsuppose": 22477,
  "æ®ļ": 120900,
  "ĠĠĠĠĠĠĠĠĠĠĠĠĠĠ": 2290,
  ".state": 3467,
  "æ³¸å·ŀ": 116899,
  "çº«": 119310,
  "çŃīå¤ļé¡¹": 117259,
  "ä¸ºä¸»é¢ĺ": 103237,
  "ĠVoters": 82722,
  "Session": 5283,
  "æīĳ": 102498,
  "ç´«å¤ĸçº¿": 114795,
  ".frame": 9140,
  "ĠCancellationToken": 37237,
  "Ġladies": 22786,
  "Ġnieu": 53801,
  ".snapshot": 52677,
  "åĳ½é¢ĺ": 111660,
  "fy": 30595,
  "ĠDelegate": 40180,
  "ĠGolden": 17809,
  "ĠSiber": 67500,
  "èĲİ": 103584,
  "in": 258,
  "äĪĢ": 149715,
  "ĠChronic": 72682,
  "-Pro": 57086,
  "è±ģ": 116664,
  "Labels": 23674,
  "å¼Ģå°ģ": 112491,
  "Ġceremon": 42512,
  "æĹħæ¸¸æĻ¯åĮº": 112837,
  "ç¬¬äºĮæī¹": 116760,
  "DonaldTrump": 72417,
  "orth": 2364,
  "Ġsunscreen": 82084,
  "!!!!!": 69800,
  ",B": 8161,
  "Girl": 30628,
  "äºĮç»´çłģ": 106174,
  "ĠCar": 3261,
  "six": 50364,
  "(sa": 79910,
  "Ġkeyboard": 13625,
  "-Aug": 61635,
  ".Parent": 28985,
  "bish": 57699,
  "Ġ];": 13084,
  "Ġbase": 2331,
  "bn": 11081,
  "åį±å®³": 102672,
  "Ġprobl": 50988,
  "ĠUndefined": 62370,
  "è¬Ģ": 119129,
  "Ġqual": 5841,
  "Pan": 35693,
  "Ġstrategist": 64135,
  "(empty": 24216,
  "ĠHung": 25523,
  "ĠCultureInfo": 44467,
  "holding": 42491,
  "ĠWing": 34522,
  "Ġafore": 43773,
  "ĠCHtml": 51336,
  "Ġlen": 2422,
  "sendMessage": 61957,
  "ashire": 96314,
  "ĠChoose": 22201,
  "_rt": 40169,
  "éĻħ": 99326,
  "Past": 50113,
  "<<<<<<<<": 82128,
  "ĠNag": 29062,
  "Ġreson": 28180,
  ".draw": 7007,
  "ropped": 41716,
  "_days": 28353,
  "ĠBrazilian": 34983,
  "åīģ": 118607,
  "ĠWeiss": 41155,
  "textField": 37782,
  "Ġ[],": 10071,
  "Ġtrader": 44365,
  "ĠComing": 39891,
  "Nested": 71986,
  "_tail": 35471,
  "onet": 68686,
  "ĠEthiopian": 95534,
  "\"><?=$": 56390,
  "ynam": 11440,
  "_tweet": 75419,
  "ä¼ģ": 97797,
  "åĬĽè¿ĺæĺ¯èĩª": 117971,
  ".$.": 85387,
  "licken": 93790,
  "UPDATE": 9239,
  "ĠOLD": 64891,
  "Ġpolit": 3354,
  "Ġtelemetry": 61037,
  "å®¶ä½ı": 112567,
  "Ġex": 505,
  "Ġneeds": 3880,
  "_filters": 22481,
  "Washington": 38131,
  "é¢ĳé¢ĳ": 111972,
  "åīŁ": 122734,
  "Visit": 26218,
  "Ġthats": 40036,
  "Ġur": 4335,
  "æľīåĬĽ": 102301,
  "Women": 35090,
  "(skip": 82074,
  "Ġyear": 1042,
  "ĠBRE": 80562,
  "ĠerrMsg": 60078,
  "du": 1054,
  "bf": 13233,
  "æª¬": 103566,
  "yet": 46392,
  "aways": 39590,
  "éĥ½åºĶè¯¥": 114740,
  "/co": 64942,
  "-semibold": 81916,
  "ombies": 35694,
  "/{$": 78658,
  "ĠFOR": 4613,
  "ĠExhaust": 88234,
  "Ġdla": 28976,
  "Ġestablishments": 62237,
  "ĠPoor": 44673,
  "ĠOper": 7461,
  "ä¸Ńå¼ı": 111276,
  "èĩªç§ģ": 115516,
  "atters": 10175,
  "Ġclick": 4205,
  "ĠobjectForKey": 22684,
  "isex": 75253,
  "ople": 1164,
  "çĦĨ": 122878,
  "åĸĺ": 103425,
  "Ġopcion": 72808,
  "(Event": 30469,
  "ä¸Ńåįİäººæ°ĳ": 105492,
  "attice": 31791,
  "ĠKB": 25016,
  "_browser": 53414,
  "å¤§èħ¿": 112072,
  "ĠDegree": 37082,
  "$q": 45321,
  "Ġany": 894,
  "Ġcleaner": 31881,
  "elementGuidId": 88375,
  "lius": 86419,
  "->___": 85442,
  "Ġdetermination": 25248,
  "PING": 73267,
  "HashSet": 44601,
  "ĠIntelliJ": 94082,
  "_camera": 29843,
  "è¿Ļç¯ĩæĸĩç«ł": 113273,
  "Ġobra": 61734,
  "dbe": 83406,
  "ĠSiemens": 90224,
  "_REGISTER": 33355,
  "',//": 86797,
  "Produto": 51150,
  "æĪĸè®¸æĺ¯": 112792,
  "ĠMinist": 64892,
  "çİ¶": 122391,
  "ĠRib": 63105,
  "çįĹ": 121654,
  "å¤ĸåĽ´": 107880,
  "moving": 65115,
  "ĠFact": 36712,
  "Ġrecharge": 46823,
  "_WH": 53876,
  "Ġresultant": 83813,
  "-labelled": 31801,
  "'gc": 61975,
  "ĠPsi": 53451,
  "æ´ļ": 122528,
  "_decorator": 87252,
  ".want": 70212,
  "TimeInterval": 68041,
  "æł¹åŁº": 110381,
  "ä¸ŃåĽ½æ±½è½¦": 114548,
  "æĢµ": 119959,
  "Ġtougher": 48231,
  "Ġwagon": 60419,
  "åĪĨéĴŁ": 83031,
  "IMO": 83404,
  "Ġkon": 16540,
  "Ġsnapping": 79789,
  "Ġuncomment": 62073,
  "ĠTTC": 87800,
  "Ġmarathon": 44696,
  "covered": 20804,
  "è¿ĳä¹İ": 115064,
  "ĠICollection": 36558,
  ".ag": 28092,
  "GIS": 55289,
  "æµģåĬ¨": 102403,
  "ĠMemorial": 26774,
  "slider": 20349,
  "åĲĪæ³ķæĿĥçĽĬ": 107978,
  "éļ¾": 99349,
  "Ġ//!<": 41280,
  "ĠShrine": 93474,
  "_matches": 38344,
  "Pair": 12443,
  "Ġfork": 22435,
  "Ġud": 26994,
  "èĢĮå¯¼èĩ´": 112690,
  ".randint": 23280,
  "ĠCorvette": 85825,
  "_books": 73084,
  "(table": 15761,
  "ĠWort": 93504,
  "_surf": 88323,
  "åħ´èĩ´": 118975,
  "_terms": 37498,
  "tractive": 69078,
  "ĠHut": 66313,
  "-connected": 72188,
  "ä¸Ģä¸ĭåŃĲå°±": 118475,
  "Ġmicroseconds": 84762,
  "_C": 920,
  "Ġ?\",": 42313,
  "åĨįä¸Ģæ¬¡": 109817,
  "èĽĭçĻ½": 102835,
  "persona": 70594,
  "éĻĽä¸ĭ": 113998,
  "ampton": 42001,
  ".'_": 62243,
  "æĬ±æŃī": 115546,
  "åĶ¬": 119409,
  "Ġmidst": 34346,
  "Ġroyal": 29236,
  "strar": 22189,
  "åħīæ³½": 111583,
  "ĠWebDriver": 41896,
  "Accepted": 65906,
  "è¹Ļ": 121967,
  "unes": 8531,
  "Ġdrawable": 52071,
  "dt": 8047,
  "birds": 66361,
  "=msg": 97378,
  ".Features": 73257,
  "))[": 41364,
  "Generating": 73314,
  "å·¨å¤§çļĦ": 104567,
  "_resource": 17962,
  "OA": 41339,
  "Ġwhatsoever": 35634,
  "SendMessage": 80863,
  "_content": 7495,
  "Ġ//--------------------------------": 73538,
  "å¿ĥåºķ": 111158,
  "ĠBarrett": 55759,
  "ĠMADE": 78699,
  "(adj": 71522,
  "ĠHarlem": 82752,
  "æľºåĻ¨äºº": 104354,
  "operation": 9262,
  "ç¾İåĽ½äºº": 111190,
  "çľ¨": 103718,
  "Ġcertainty": 43643,
  "ĠCarter": 24563,
  "éĤ²": 122255,
  "Ġreins": 89418,
  ".Framework": 21056,
  "INE": 3981,
  "_crypto": 78298,
  "Clean": 27529,
  "ancement": 16480,
  "ĠSound": 14594,
  "Ġhipp": 43556,
  "ALER": 88378,
  "å¤įä¹ł": 107090,
  "aybe": 49791,
  "remen": 61869,
  "ĠBible": 16947,
  "èıģ": 115358,
  "outside": 66990,
  "ĠRealm": 41106,
  "Ġpertinent": 61523,
  "å¬ĸ": 121840,
  "htags": 25285,
  "åĿ«": 119800,
  "ĠPatterns": 62723,
  ".IContainer": 30140,
  "åĲŁ": 108375,
  "Ġsmartphone": 21511,
  ",A": 15031,
  "Ġauctions": 70132,
  "Ġfractions": 64895,
  "gesture": 85357,
  "Ġimmac": 98138,
  "è¿ĺä»¥ä¸º": 116421,
  "æį¢åıĸ": 118911,
  "ĠColts": 51984,
  "Ġredhead": 91705,
  "ä¹¾éļĨ": 111224,
  "Ġry": 33919,
  "(resp": 20267,
  "Sending": 49282,
  ".Set": 4202,
  "hattan": 25337,
  "Ġcomics": 28059,
  "Ġdoctor": 10668,
  "quared": 34249,
  "-major": 65581,
  "ĠBiol": 80794,
  "ĠAval": 48978,
  "ĠXiao": 65590,
  "/Math": 98717,
  "ĠFS": 24289,
  "triangle": 55114,
  "Ġprivileges": 35732,
  "æµıè§ĪåĻ¨": 110821,
  "autoreleasepool": 87422,
  "ï½±": 144390,
  "æģ¸": 120237,
  "_queue": 10841,
  "ĠBan": 22730,
  "early": 22140,
  "Ġannual": 9775,
  "å°Ħæīĭ": 111500,
  "ĠMiddleton": 91614,
  "å§¤": 122549,
  "Ġevolving": 40928,
  "XX": 6148,
  "ĠBrussels": 37169,
  "ĠFischer": 61916,
  "(content": 15063,
  "åħ¬éĸĭ": 109035,
  "Ġdifficile": 76311,
  "Ġpou": 16836,
  "æľĢä¸»è¦ģ": 111612,
  "Ġineligible": 95816,
  "ight": 491,
  "(jPanel": 21560,
  "ĠMA": 9718,
  "Ġinvestment": 9162,
  "Argb": 19442,
  "renom": 44843,
  "Ġtempfile": 54819,
  "Ġpadd": 53169,
  "ingly": 11307,
  "_IS": 12766,
  "ISED": 26458,
  "Ġhorizontal": 16202,
  "å°ģå»º": 112391,
  "ĠgetBy": 57169,
  "word": 1158,
  "é³ŀ": 111272,
  "ĠFell": 62605,
  ".navigateTo": 78408,
  "ä¸ĢåĪĨéĴ±": 117329,
  "_APB": 70391,
  "æľīæĿ¡ä»¶çļĦ": 118989,
  "ä¹ĭä¸Ń": 104054,
  "Ġack": 10725,
  "ĠPodesta": 87128,
  "ĠDates": 51624,
  "UIStoryboardSegue": 89450,
  "WithValue": 22767,
  "ç»ıèĲ¥çĲĨå¿µ": 113095,
  "Ġbacklight": 94322,
  "Ġdisciplinary": 56215,
  "Ġtherapists": 67516,
  "itzerland": 26423,
  "Ġhtonl": 86982,
  "getColor": 47660,
  "avor": 3292,
  "ĠEVER": 73666,
  "Ġbes": 9057,
  "workspace": 42909,
  "å³Ĥ": 122316,
  "zip": 9964,
  "èµļéĴ±": 104518,
  "aseline": 49314,
  "æ½¸": 121676,
  "Ġalto": 23299,
  "æľīå¾Īå¤ļ": 101194,
  "Law": 38066,
  "Ġcopy": 2975,
  "ppy": 33963,
  "èĺŃ": 107507,
  "_stop": 19039,
  "glass": 58436,
  "Ġaccompl": 13089,
  "(parameters": 37959,
  "_HALF": 74611,
  "Ġcud": 78587,
  "Collection": 6482,
  "Ġoutreach": 46110,
  "Ġthrough": 1526,
  "Ġunanswered": 75447,
  "ĠAway": 41481,
  "ĠInstitutional": 97884,
  "Ġcategory": 5582,
  "(sort": 46998,
  "_Enable": 65216,
  "lic": 415,
  "Ġthai": 17936,
  "-power": 26526,
  "ĠDWC": 70259,
  "-year": 4666,
  "æĢ»ä¼ļ": 106529,
  "acons": 75444,
  "èªį": 100959,
  "_LABEL": 25670,
  "_AT": 8667,
  "ĠDuncan": 41309,
  "å¼©": 115141,
  "Ġow": 15570,
  "çķĪ": 120118,
  "Ġstrtok": 48345,
  "Ġcor": 1829,
  "Ġsubsidized": 94014,
  ".lp": 79332,
  "Ġdevotion": 55257,
  "Ġestim": 14932,
  "Ġcombating": 95078,
  "_per": 5678,
  "ç¬¬ä¸ĢæĿ¡": 116252,
  "/XML": 48624,
  ".Core": 12777,
  "ĠRecognition": 47598,
  "Ġdecals": 97685,
  "=\"'.": 37317,
  "æ¶´": 122888,
  "ĠPere": 72478,
  "------------------------------------------------": 9229,
  "Ġnaval": 45298,
  "[i": 989,
  "å±£": 121526,
  "ĠsetTime": 89521,
  "Ġballots": 48636,
  "ĠAd": 2410,
  "çĵ¶åŃĲ": 118579,
  "æĸĳæĸĵ": 118567,
  "ĠCars": 35131,
  "ç»ıæµİæķĪçĽĬ": 106572,
  "Ġcomentario": 82717,
  "bable": 59051,
  "]=\"": 23825,
  "Ġhet": 9017,
  "Ġ/>'": 71042,
  "çºµåĲĳ": 116348,
  "Ġheb": 58141,
  "NSData": 52007,
  "ĠFC": 16013,
  "Ġfost": 36313,
  "sale": 32654,
  "Ġpores": 70928,
  "uctose": 86773,
  "éĴ¬": 122485,
  "vider": 3734,
  "ighting": 44750,
  "presso": 34460,
  "åĥ»": 118134,
  "è¯ł": 103232,
  "Instances": 42725,
  "otr": 86379,
  "ancia": 24158,
  "_HC": 98991,
  "ĠPon": 65315,
  "team": 9196,
  "logging": 25263,
  "());": 13426,
  "Ġtoastr": 58352,
  "noon": 12402,
  "_ob": 36322,
  "Don": 8002,
  "-condition": 58005,
  ".ReadString": 96738,
  "/ui": 22444,
  "ĠTEM": 75670,
  "comma": 45386,
  "Ġmondo": 69709,
  "ĠGets": 10310,
  "ortal": 33372,
  "çļĦèĥĮåĲİ": 111515,
  "å¼¼": 121076,
  "ĠDio": 84942,
  "Ġwast": 40321,
  "Ġfec": 53961,
  "Ġtim": 6792,
  "iffany": 55082,
  "Ġplage": 85351,
  "swire": 79725,
  "å¤§åŃ¦æ¯ķä¸ļ": 114455,
  "imid": 98494,
  "ĠMOVE": 34926,
  "ĠGetter": 56130,
  "emale": 11749,
  "<User": 16761,
  "antic": 8159,
  "WARDS": 96217,
  "ç»¿åľ°": 108505,
  "åıĺå¾ĹæĽ´åĬł": 112335,
  "OperationException": 24924,
  "ĠFString": 65236,
  "ĠJohnston": 60482,
  "ĠZa": 64708,
  "Haz": 99044,
  "Ġcompound": 23628,
  "æĽ¿": 100290,
  "æĹħ": 99407,
  "LookAndFeel": 58604,
  "Estado": 38216,
  "_experiment": 82302,
  "éľĨ": 103523,
  "Ġoz": 24596,
  "_sh": 3712,
  "å®Įæķ´çĥŃ": 117468,
  "åĹľ": 114732,
  "Thousands": 80144,
  "hcp": 62169,
  "Ġorganization": 7321,
  ".Parameter": 30269,
  "ĠHyundai": 59840,
  ":',": 17440,
  "errors": 7650,
  "Ġunchecked": 53191,
  "æ¯Ķäºļ": 103451,
  "\"context": 51517,
  "ĠCircuit": 27218,
  "arge": 2744,
  "_CONST": 23098,
  "ĠThreat": 52335,
  "Ġ&_": 30795,
  "ve": 586,
  "nv": 36941,
  "éľĩ": 99974,
  "Ġaspect": 12893,
  "ĠStorm": 21862,
  "ĠTu": 28649,
  "æ´»åĬ¨": 99600,
  "Sections": 38122,
  "()==": 20709,
  ".stderr": 34742,
  "ĠManus": 95333,
  "_HASH": 32309,
  "ĠDiabetes": 52589,
  "Ġyp": 75975,
  "çī©çĲĨåŃ¦": 115481,
  "/pro": 18008,
  "Maintenance": 92735,
  "ugg": 2596,
  "okemon": 13514,
  "Ġempir": 37869,
  "Ġhabits": 25785,
  "ailer": 38782,
  "Ġcuenta": 31095,
  "Ġvisionary": 86390,
  "è¿Ľåħ¥äºĨ": 107847,
  "_acquire": 97523,
  "Ġgenerates": 26885,
  "lovak": 86110,
  "Ġreferencing": 56516,
  "ListItemIcon": 95247,
  ".hh": 33432,
  "Ġ/.": 14751,
  ".*": 4908,
  "sqrt": 26888,
  "Ġfocus": 5244,
  "Ġstronger": 16245,
  "annotate": 91350,
  "èĻ¿": 120093,
  "_INPUT": 21022,
  "_upgrade": 67794,
  "(volume": 74706,
  "ĠAlle": 42161,
  ".Word": 64969,
  "~~~~~~~~~~~~~~~~": 32543,
  "Ġnationalist": 51894,
  "Ġconspir": 21513,
  "Ġsenses": 37107,
  "èĦĸåŃĲ": 107966,
  "$header": 96496,
  "}(": 25547,
  "gnu": 68828,
  "Ġvisualize": 50087,
  "William": 44787,
  "ĠKot": 61663,
  "ĠWebsite": 16023,
  "é§Ĳ": 119159,
  "UpdatedAt": 72279,
  "<Component": 96689,
  "Ġsar": 28047,
  "+\")": 57224,
  "åĹĦ": 121188,
  "ĠTaiwanese": 92937,
  ".har": 86455,
  "ĠForever": 54606,
  "Ġangrily": 86525,
  "-saving": 57985,
  "-header": 9351,
  "Ġunt": 13065,
  "ĠOH": 28722,
  "çľĭéĩį": 110172,
  "çļĦæľīæķĪ": 107474,
  "Ġderivative": 31805,
  "ust": 590,
  "Ġdegrade": 95530,
  "Ġobjections": 53011,
  "Ġseated": 46313,
  "ĠCaucasian": 84419,
  "è·¯éĿ¢": 107824,
  "Ġ.\"": 41348,
  "ckt": 68412,
  "ImageContext": 70649,
  "ĠGrandma": 97968,
  "ornado": 62943,
  "elled": 15201,
  "ĠNormalize": 68092,
  "Ġglare": 80134,
  "Ġquantity": 12194,
  "Ġquantities": 32676,
  "addListener": 84587,
  "Ġrunoff": 78052,
  "ĠCentOS": 95513,
  "anych": 44453,
  "ĠPoz": 78985,
  "Ġholland": 64664,
  "Jennifer": 71426,
  "èŃ¦æĸ¹": 104779,
  "Ġfostering": 85544,
  ".Spring": 25707,
  "éĢļé£İ": 107663,
  "çŀ©çĽ®": 111299,
  "Ġmerged": 26001,
  "////////////////////////////////////////////////": 27405,
  "ĠFrederick": 50664,
  "bean": 17479,
  "èĭ¦æģ¼": 116008,
  "-stop": 41211,
  "ĠBetween": 27133,
  "Statistics": 38599,
  "ä¿¡æģ¯å®īåħ¨": 115333,
  "Ġtypically": 11136,
  "Ġrecommends": 39812,
  "Ġjur": 16037,
  "åĵģçīĮå½¢è±¡": 115264,
  "ĠTradition": 80478,
  "Ġvamp": 59055,
  "+C": 70792,
  "wb": 20211,
  "æĭħå¿ĥ": 102142,
  "çļĦæĥħåĨµä¸ĭ": 104248,
  "Ġscenery": 50231,
  "Ġsocks": 38986,
  "æ»¡äºĨ": 106973,
  "modified": 27162,
  "ĠHoward": 19870,
  "æĹ©æĻ¨": 107917,
  ".datatables": 86891,
  "ĠBiography": 78169,
  "umbed": 98596,
  "Nut": 78470,
  "_coords": 32576,
  "ĠWARNING": 26479,
  "Ġdecember": 89011,
  "è´£ç¼ĸ": 110658,
  "ĠMaybe": 10696,
  "Ġtolerant": 73482,
  "Ġkt": 18541,
  ".getResult": 44301,
  "innerHTML": 15609,
  "è¿Ļåľº": 105304,
  "foy": 93717,
  "Ġtrades": 30342,
  ".\"\"\"": 74000,
  "_latest": 64880,
  "æĸĩåĮĸéģĹäº§": 108077,
  "ĠFILTER": 35352,
  "Ġserialized": 32916,
  "åķĨä¼ļ": 107210,
  "Ġtem": 1562,
  ".ResponseBody": 74101,
  "],&": 82304,
  "ĠImp": 14390,
  "(ml": 90277,
  "Ġvessels": 29980,
  "cooldown": 90396,
  "_accounts": 55665,
  "cies": 69007,
  "OMIC": 51793,
  "dp": 9796,
  "æ²¡åħ³ç³»": 113477,
  "ĠCrus": 50103,
  "ĠKeyError": 38094,
  "ĠforState": 28228,
  ")=\"": 68752,
  "ADIO": 42853,
  "Ġgays": 56477,
  "åĪ¶åº¦æĶ¹éĿ©": 111699,
  "èĮĦ": 101833,
  "Install": 24690,
  ",void": 98895,
  "Ġlanz": 83146,
  "Indiana": 88749,
  ".lat": 28631,
  "luet": 56316,
  "å¤ªç©º": 108481,
  "Ġrehab": 26778,
  "è´§å¸ģæĶ¿çŃĸ": 113592,
  "æĮ£æīİ": 110197,
  "èĪªæ¯į": 110357,
  "Risk": 85307,
  "åĲįç§°": 29991,
  "éĩİçĶŁ": 103436,
  "(bool": 9764,
  "ä¾£": 101789,
  "Ġcervical": 66727,
  "ç¾¯": 116328,
  "abelle": 54167,
  "Ġsymptoms": 13495,
  "ĠFX": 28901,
  "ĠSpears": 93955,
  "æĸ°äº¬": 112904,
  "Ġvoz": 84090,
  "ucht": 32030,
  "_PRODUCTS": 79881,
  "vironment": 3105,
  "more": 6384,
  "_DISTANCE": 63217,
  "serve": 13267,
  "åĶ¯ä¸ĢçļĦ": 106610,
  "èµ°è®¿": 105902,
  "idd": 1772,
  "ordova": 76163,
  "NotExist": 45535,
  "ä¹ŁæŃ£æĺ¯": 113035,
  "ĠBomb": 32809,
  "æĪ·å¤ĸ": 105813,
  "_FD": 86221,
  "Ġeuro": 17672,
  "æĻ¨æĬ¥": 116483,
  ".modified": 81038,
  "PUTE": 92343,
  "ivery": 6497,
  "å¤ºå¾Ĺ": 112831,
  "ä¸ľåĮĹ": 104756,
  "Ġresponder": 64034,
  "ĠeBooks": 94621,
  "Ġunique": 4911,
  "_TAC": 48221,
  "Definitions": 50542,
  "Ġenables": 20081,
  "Ġprovoked": 75466,
  "éĺ¿å§¨": 107643,
  "Ġcorrecting": 81375,
  ".Debugf": 88278,
  "UK": 24537,
  "ï¼ĮãĢĬ": 91111,
  "Nous": 65832,
  "pictures": 75403,
  "IsNull": 98593,
  "Ġidade": 65965,
  "('/')": 47729,
  "Payments": 87646,
  "oa": 19533,
  "_CLR": 71499,
  "ĠVictorian": 43177,
  "çı«": 122572,
  "èľľ": 100576,
  "èĶ¸": 121371,
  "åĨ½": 119934,
  "-pattern": 79569,
  "accept": 10330,
  "Ġnodes": 7798,
  "éķģ": 113636,
  "ĠGraphic": 43951,
  "serv": 30775,
  "Ġoffer": 3010,
  "Ġjunto": 61988,
  "æĸĩåĪĽ": 109121,
  "åŁİä¹¡å±ħæ°ĳ": 116863,
  "Ġfilmes": 97796,
  "-second": 43863,
  "friends": 29462,
  "Property": 3052,
  "include": 997,
  "_IB": 79263,
  "_defined": 52870,
  "åŁ¹": 99668,
  "Ġplais": 70268,
  "Ġpantalla": 70024,
  "ĠBair": 97678,
  "(xml": 29932,
  "Ġle": 512,
  "Ġposte": 91046,
  "//'": 44539,
  "-powered": 40403,
  "Ġtrainer": 28894,
  "elseif": 26016,
  "å±ķè§Īä¼ļ": 113403,
  "ãĢĵ": 144972,
  "Ġ`": 1565,
  "Ġdownstream": 51352,
  "Ġcolder": 75114,
  "returns": 4216,
  "ï¼ĮåĪĻ": 95053,
  "éĸĭæĶ¾": 117208,
  "Ġveggies": 59299,
  "ĠPLEASE": 53133,
  "ĠRoots": 74587,
  "Ġbeetle": 97386,
  "med": 2061,
  "Ġneo": 35082,
  "Ġsublime": 70146,
  "licated": 13724,
  "_TIMEOUT": 23412,
  "plies": 7202,
  "å¨ģåĬĽ": 111235,
  "é¬·": 123716,
  "ĠgetId": 20452,
  "ENC": 16226,
  "ĠSeconds": 60983,
  "Ġaltitude": 35858,
  "ĠJoint": 29733,
  "Ġcyn": 47264,
  "ĠFerry": 78449,
  "Ġcinematic": 64665,
  "ĠCURRENT": 43107,
  "å®ĪæĬ¤": 106446,
  "-license": 58967,
  "æĶ¾åĪ°": 107974,
  "ennon": 62925,
  "å¿Ĳ": 119691,
  "Ġadhere": 48453,
  "æīĶ": 105603,
  "Ġamo": 86100,
  "':{'": 82759,
  "ABB": 44322,
  "ĠWitnesses": 86339,
  "-',": 53819,
  "Ġpoder": 28538,
  "bookmark": 60375,
  "_normalized": 80006,
  "Ġperplex": 73152,
  "çĸµ": 103825,
  "?option": 85275,
  "åħ¨å¥Ĺ": 113823,
  "ĠMarie": 32016,
  "ĠUEFA": 78715,
  "ASCADE": 30713,
  "Ġlovers": 32118,
  "Ġcompuls": 47106,
  "Ġgenetics": 55004,
  "Ġformulario": 62428,
  "_Code": 38084,
  "IFDEF": 83881,
  "(effect": 91779,
  "æ»ĺ": 123261,
  ".members": 44839,
  "undra": 78730,
  "[H": 80385,
  "ubernetes": 29827,
  "ĠremoveAll": 65099,
  "ĠExist": 61809,
  "Ġmesure": 83821,
  "æĽĻ": 103741,
  "BeforeEach": 87275,
  "Cele": 54654,
  "Ġcuent": 87238,
  ".ListView": 46546,
  "Ġenter": 3725,
  "-leaning": 77361,
  "ä¸»å¸ħ": 110221,
  "ĠBenchmark": 61622,
  "Got": 32462,
  "_cov": 50028,
  "èĿ»": 121611,
  "éĶĻ": 28726,
  "éĿĴæµ·çľģ": 117781,
  "Ġhut": 75879,
  "/arch": 59973,
  "aton": 23535,
  "uart": 27170,
  "éĤ®": 64473,
  "////////////////////////////////////////////////////////////////": 9822,
  "æ¸į": 114820,
  "_FP": 70981,
  "(pg": 84133,
  "åįĬä¸ªæľĪ": 112520,
  "KeyId": 81343,
  "otionEvent": 63420,
  "ARENT": 28155,
  "æĿĥ": 40981,
  "æ§Ľ": 102922,
  "Note": 9112,
  "Names": 7980,
  "ĠDealers": 78189,
  "_http": 25888,
  "Ġchoisir": 89094,
  "Ġmeaning": 7290,
  "rite": 1247,
  ".Delete": 18872,
  "hydro": 66129,
  "ĠHistorical": 40043,
  "ç¾Į": 114484,
  "åĪĽæĸ°èĥ½åĬĽ": 112337,
  "Ġdalle": 85244,
  "å¨¥": 116511,
  "Ġenhance": 18379,
  "å°Ŀè¯ķ": 104482,
  "Ġbusinessman": 46278,
  "ICO": 32650,
  "æĸ°äººçİ©å®¶": 117294,
  "/se": 59587,
  "Ġries": 53598,
  "byn": 39085,
  "/qt": 89976,
  "_width": 7927,
  "äºĴçĽ¸": 104945,
  "Version": 5637,
  "ĠHor": 14741,
  "ĠHat": 21341,
  ".GetData": 58839,
  "å¹¶æ²¡æľī": 104065,
  "Ġtimp": 76645,
  "uffling": 79690,
  "-density": 88031,
  ".Connection": 17463,
  "ĠpH": 36043,
  "ä¸¤åįĥ": 113990,
  "Ġcapacitor": 84425,
  "inema": 93423,
  "Ġä¿®æĶ¹": 63071,
  "teil": 55632,
  "Ġcartoons": 62023,
  "äºĶåĽĽ": 116487,
  ":host": 72361,
  "ĠResponsible": 67628,
  "æľīå¹¸": 115522,
  "åŁºè°ĥ": 116965,
  "ĠCompletion": 56250,
  ".students": 91435,
  "oded": 6737,
  "ATTRIBUTE": 82998,
  "ĠinFile": 94001,
  "Ġclo": 5292,
  "Ġnailed": 74874,
  "åĬĽè¿ĺæĺ¯": 117970,
  "Ġdeeply": 17247,
  "æµĴ": 120233,
  "Ġactivities": 7488,
  "è¿ĺè¦ģ": 104019,
  "è·Ŀç¦»": 100764,
  "$I": 68700,
  "ĠSoda": 96072,
  "ĠDONE": 54685,
  ".orm": 47749,
  ":numel": 91081,
  "ĠgetInstance": 37886,
  "lobals": 16616,
  "ç¾İåħĥ": 101237,
  "æĺĦ": 122306,
  ">alert": 52777,
  "ĠBool": 12608,
  "ĠRoberts": 30148,
  "(pre": 27659,
  "ĠOt": 30576,
  "ĠJOHN": 75175,
  "Ġsense": 5530,
  "_cmos": 81597,
  "Ġcategor": 22049,
  "Ġprograms": 7468,
  "/pp": 87146,
  "co": 1015,
  "ä¸Ģåıªæīĭ": 117111,
  "loadModel": 93931,
  ".GO": 97574,
  "BIND": 91796,
  "èĦ¾": 101696,
  "ĠSCP": 48523,
  "Ġsuccinct": 98632,
  "èĵ¦": 121125,
  "Ġfactual": 59901,
  "pga": 74669,
  "oyo": 52378,
  "(y": 7021,
  "_blob": 45908,
  "Ġregimes": 60811,
  "_dot": 30941,
  "ĠSchwe": 55734,
  "Ġcoconut": 33457,
  "PrimaryKey": 25981,
  "uther": 25487,
  "ĠItaly": 15344,
  "_SY": 11399,
  "çļĦå·¨å¤§": 109906,
  "æķ°åŃĹç»ıæµİ": 109712,
  "ĠFahrenheit": 68723,
  "ĠMEP": 90836,
  "åĲ§": 100003,
  ".mouse": 26449,
  "éľĩæĥĬ": 108791,
  "(tags": 57213,
  "Ġmarketplace": 29533,
  "Ġdang": 57512,
  "èĤī": 99894,
  "éĩİ": 99924,
  "Ġhandmade": 51686,
  "PathComponent": 60068,
  "Ġreduces": 25271,
  "èĴ¸": 101494,
  "Components": 10443,
  "ĠTories": 65969,
  "mult": 25875,
  "Plain": 26982,
  "ç¾¡æħķ": 107767,
  "_PROC": 45050,
  "ĠSham": 72091,
  "ä»Ģä¹Īæĺ¯": 106582,
  "Flying": 93800,
  "Ġbroadcasters": 92914,
  "numeric": 19600,
  "/files": 33220,
  "_ptrs": 79533,
  "ĠNing": 85083,
  "Ġbehand": 72202,
  "æ¶īå«Į": 105460,
  "æľ¬äºĭ": 110478,
  "ofstream": 52930,
  "Ġblessing": 39049,
  ".ta": 72160,
  "Ġgathers": 85681,
  "pal": 19308,
  "-res": 11588,
  "ĠActions": 26722,
  "-create": 39679,
  "åģĩè£ħ": 115795,
  "Ġfreezes": 93377,
  "guards": 78738,
  "æ¦Ĥè¿°": 113608,
  "ĠNRF": 72010,
  "(false": 3576,
  "_state": 4387,
  "ĠOwens": 63357,
  "(video": 40742,
  "æģĻ": 120486,
  "çļĦé£İéĻ©": 106066,
  "ĠOklahoma": 22797,
  "Buzz": 59473,
  "åį³ä¾¿": 105408,
  "_indicator": 58070,
  ".Dictionary": 56320,
  "ĠjdbcTemplate": 87317,
  "Ġcentre": 12261,
  ".toLocale": 69418,
  "-ret": 69110,
  "uitka": 58840,
  "ĠBars": 56106,
  "AP": 2537,
  "\\Desktop": 91296,
  ".side": 48631,
  "Ġgrows": 27715,
  "çīģ": 120263,
  "Ġvastly": 52008,
  "Ġcola": 83667,
  "ĠDriver": 14577,
  "ofs": 36081,
  "olon": 72269,
  "ĠTEAM": 58103,
  "æ¹İ": 121045,
  "/is": 46427,
  "Ġsignature": 11957,
  "ĠLM": 46414,
  "Ġperfect": 4727,
  "ĠCraw": 43666,
  "Wiki": 53896,
  "ĠAcross": 57137,
  "ĠEg": 38075,
  "Ġsudah": 49796,
  "xDF": 73334,
  "enting": 91199,
  "<TextView": 90102,
  "erequisites": 82301,
  "Ġrevenue": 12957,
  "ĠbasePath": 71577,
  "_BGR": 50825,
  "cimal": 87099,
  "expr": 9413,
  ".mixin": 93510,
  "åĽŀèĲ½": 108389,
  "Ġmushroom": 57366,
  "emes": 15660,
  "naments": 73815,
  "ĠEnde": 51292,
  "Ġfaded": 53334,
  "Ġjunk": 29674,
  "Ġbegr": 87541,
  "Ġ************************************************************************": 10534,
  "ç¾İä¸½çļĦ": 105664,
  "Ġhydr": 44605,
  "ĠSPACE": 52060,
  "(cnt": 46373,
  "ä½ķå¤Ħ": 114216,
  "éĢĻè£¡": 109814,
  "Ġ\"('": 82368,
  "_BOTTOM": 58333,
  "xz": 92955,
  "Ġpyramid": 46797,
  "åĽ¾": 28029,
  "/mark": 73598,
  ".semantic": 94039,
  "ï¥ī": 148533,
  "ĠFINSEQ": 70127,
  "OLEAN": 23587,
  ".Do": 33596,
  "éĴ±åĮħ": 110886,
  "_ADAPTER": 79602,
  "çĽĪåĪ©èĥ½åĬĽ": 110169,
  "Ġacquaint": 53527,
  "ROS": 33439,
  "çĽ´éĢļè½¦": 118854,
  "çļĦåĦ¿åŃĲ": 108621,
  "Ġsulph": 82678,
  "ĠSlide": 43364,
  "ä¸ĩäº¿": 108518,
  "Ġprescribe": 71233,
  "m": 76,
  "cluded": 10181,
  "Ġpoets": 72972,
  "å²¬": 119878,
  "Ġnylon": 51055,
  "Ġobligation": 28572,
  ".IsAny": 51168,
  "Compatibility": 85880,
  "(percent": 89213,
  "Ġtuning": 41338,
  "ĠSpecial": 9785,
  "èŀĹ": 123543,
  "ĠPrel": 40088,
  "ĠaddCriterion": 18724,
  "Ġpremise": 40202,
  "å®ŀè·µç»ıéªĮ": 118577,
  "ference": 2202,
  "_presence": 56403,
  "ĠSupervisor": 57107,
  "riger": 63944,
  "ä¸Ģç³»åĪĹ": 102322,
  "dv": 37261,
  "spa": 89198,
  "Ġmindfulness": 70605,
  "Showing": 54863,
  "ibrary": 27666,
  "ĠMidi": 83076,
  "Ġunknown": 9788,
  "Ġreferencia": 81909,
  "Ġcarpets": 88241,
  "ĠArist": 51929,
  "éĥ½è¦ģ": 104278,
  "Ġwebpage": 44610,
  "Ġinteg": 5388,
  "_amt": 54605,
  "ĠScots": 74267,
  "é£Ĵ": 120207,
  "ĠKEY": 12013,
  "æ¸¬": 107636,
  "ä¹ĸ": 101842,
  "åĽ½èµĦå§Ķ": 107506,
  "ĠTransactions": 55285,
  "ito": 6357,
  "Ġboth": 2176,
  "-example": 43430,
  "èħ°": 102113,
  "(paths": 54728,
  "Ġberg": 45885,
  "Ġchem": 8424,
  "Ġgul": 90270,
  "æĹłéľĢ": 106431,
  ":<?": 89471,
  "Gateway": 40709,
  "ĠShutdown": 65379,
  "æĪ£": 123281,
  "ĠprincipalTable": 58651,
  ".he": 48035,
  "/animations": 77394,
  "Ġespecific": 68594,
  "éĥ¿": 120813,
  "MethodBeat": 79512,
  "å½±è§Ĩåī§": 118050,
  "SJ": 97489,
  "æĦŁè§īåĪ°": 105849,
  "å®ŀçİ°äºĨ": 104415,
  "ã§Ĳ": 119661,
  "_DATABASE": 45510,
  "[it": 57196,
  "ĠMetallic": 86871,
  "Ġsche": 70251,
  "ä¹ī": 64559,
  "çķ¬": 123053,
  "fte": 63319,
  "Ġfossil": 30276,
  "Ġinterior": 14791,
  "Ġrests": 53231,
  ":a": 43833,
  "æīĵçĶµè¯Ŀ": 106202,
  "ivar": 56398,
  "Ġautomat": 60752,
  "ClassLoader": 74116,
  "Ġmissile": 25224,
  "Ġpasado": 57416,
  "ç£·éħ¸": 118095,
  "_se": 3453,
  "çİ·": 119345,
  ".skip": 36596,
  "achat": 96164,
  "ä»Ģä¹Īäºĭ": 110400,
  "Ġmitigation": 65760,
  "-taking": 79571,
  "respect": 44634,
  "ï¼ľ": 137573,
  "ultimate": 66566,
  "frog": 85982,
  "Ġposter": 22361,
  "Ġapprentices": 71251,
  "(full": 28907,
  ".Screen": 37798,
  "ĠAqua": 71407,
  "ĠEVT": 93257,
  "/admin": 17402,
  "åģļçĶŁæĦı": 113997,
  "TEX": 25192,
  "_genre": 91322,
  "èĲ½åľ¨": 103184,
  "Ġrez": 48058,
  "Ġgps": 45567,
  ".getUserId": 58181,
  "iliation": 28009,
  "æĺĩ": 119219,
  "èŃ·": 101614,
  "INDER": 60182,
  "Ġexamining": 37836,
  "æ»ĭæ¶¦": 112845,
  "_Field": 46272,
  "éľĢè¦ģçĶ¨": 118976,
  "ifty": 38624,
  "length": 4129,
  "Ġ****************": 46846,
  "judul": 67612,
  "äººå¤§å¸¸å§Ķ": 113067,
  ".Chat": 58844,
  "getString": 20769,
  "ç½¶": 123453,
  ".Created": 45413,
  "çŁ³æĿĲ": 111463,
  "ĠAlexand": 37477,
  "ĠComics": 34056,
  "?><": 55317,
  "loyd": 25796,
  "Ġ//": 442,
  "æķ´ä¸ª": 101908,
  "<Path": 82883,
  "èĻĲ": 103478,
  "Ġherr": 54739,
  "Delta": 20277,
  "jpg": 17974,
  "ĠUPLOAD": 83818,
  "é¦Ļæ¸¯": 101926,
  "å±Ģéĥ¨": 106304,
  "createCommand": 97380,
  "å¸ĮæľĽèĥ½": 107452,
  "Russ": 77970,
  "(address": 15434,
  "èĲį": 106220,
  "Ġnargin": 58985,
  ".GL": 36475,
  "é¹£": 123485,
  "atted": 12127,
  "ĠRBI": 52941,
  "Ġpit": 19838,
  "Ġ\";": 18963,
  "ç«ĭè¶³": 105794,
  "æĭ¿æĿ¥": 113641,
  "Watch": 14247,
  "bel": 9779,
  "Ġunwrap": 79813,
  "ĠTaking": 35825,
  "ĠVARIABLES": 76753,
  "shots": 27634,
  "(is": 9623,
  "ĠLair": 57096,
  ".\"": 1189,
  "Ġ<%": 59230,
  "bourne": 21436,
  "_Handler": 41879,
  "Ġ=[": 67610,
  "UCK": 27543,
  "_entities": 47377,
  "cp": 4672,
  "ĠTile": 20744,
  "ROWN": 74515,
  "Ġparadox": 51213,
  "ĠSymphony": 62206,
  "ĠSec": 4520,
  "_PK": 63898,
  "è¦ģæ³¨æĦı": 105213,
  "REST": 38307,
  "ãĢĤãĢĮ": 65227,
  "Ġmidi": 54040,
  "ĠHER": 15645,
  "QRSTUV": 71860,
  "lx": 31447,
  "Ġclicked": 19910,
  "Ġgod": 9886,
  "ĠNuevo": 87758,
  "Fant": 56534,
  "_DEPEND": 94293,
  "éĹ¨åºĹ": 105256,
  "ç®Ģæ´ģ": 110485,
  "Region": 14091,
  "Ġ\".\",": 68514,
  "Ġpurple": 24932,
  "_game": 18547,
  "bh": 51871,
  "osaur": 57976,
  "<a": 9312,
  "/dist": 19537,
  "Ġdepleted": 78166,
  "orial": 21913,
  "Ġsalopes": 81322,
  "ĠREUTERS": 51791,
  "Ġ/>}": 85043,
  "ĠIDEOGRAPH": 96602,
  "orient": 14881,
  "Ġsilver": 14961,
  "ĠinputData": 90162,
  "ĠSEXP": 86040,
  "suggest": 95761,
  "ĠRECORD": 55993,
  "éªģ": 120276,
  "Ġramps": 86116,
  "Alternative": 75763,
  "KeyType": 97964,
  "xmax": 94032,
  "ĠSlow": 38147,
  "ï¥£": 147762,
  "åĲ¸å¼ķåĬĽ": 107616,
  "engu": 27004,
  "-solving": 98146,
  "QDebug": 88191,
  "NOP": 57556,
  "-flow": 61313,
  "ĠRic": 32552,
  "_cut": 41317,
  "Ġaussi": 27363,
  "isme": 43518,
  "bons": 46520,
  ".SizeMode": 65328,
  "Ġ%": 1018,
  "Ġjob": 2618,
  "(bus": 60872,
  ".has": 6858,
  "å®ŀæĸ½": 100355,
  "artic": 80887,
  "Ġmeeting": 6438,
  "ĠresizeMode": 98579,
  "Ġnormalize": 21694,
  "amples": 4023,
  "æīĭæ¸¸": 106005,
  "compute": 27706,
  "Sensitive": 63316,
  "WindowSize": 87817,
  "ĠPolicy": 10974,
  ":UIButtonType": 86261,
  "_SYM": 82933,
  "wav": 52046,
  "edi": 19048,
  "_TV": 96703,
  "[curr": 58959,
  "benef": 67144,
  "yang": 40245,
  "iological": 40214,
  "!:": 35575,
  "ĠSmith": 9082,
  "timeline": 48960,
  "çģ°å°ĺ": 114267,
  "Ġsplash": 34632,
  ">null": 52872,
  "ĠEnded": 76071,
  "ĠDB": 5952,
  "çļĦç¡®æĺ¯": 113293,
  "_admin": 12207,
  "Ġuncont": 69993,
  "Ġsides": 11067,
  "(split": 39955,
  "Ġgew": 22539,
  "ä¹ĭå¿ĥ": 107720,
  "Ġconcise": 63594,
  "Ġfetisch": 97730,
  "...\"": 21215,
  "_clusters": 46243,
  "_green": 48254,
  "æ¸Ķ": 100938,
  "çļĦèº«å½±": 108101,
  "ĠISIL": 82069,
  "NumberFormatException": 75128,
  "ĠBib": 29445,
  "Ġcomplex": 6351,
  "ofile": 65273,
  "éģĲ": 119053,
  ".override": 96802,
  "Panel": 4381,
  "Prediction": 88279,
  "reek": 10726,
  "/documentation": 85586,
  "monton": 40765,
  "ursed": 51732,
  "èĥ¸åīį": 117024,
  "Ġaltre": 93560,
  "æ¯ķ": 99764,
  "Ġregs": 44498,
  "Ġstorm": 13458,
  "aber": 43139,
  "Ġinstrumental": 40945,
  "Ġmike": 97669,
  "Ġadore": 60635,
  "éªĹåıĸ": 118890,
  "-type": 10604,
  "SceneManager": 70332,
  "Ġcrashed": 33753,
  "æ²Ļæ»©": 110944,
  "Ġaccordance": 18353,
  "ĠChrome": 17225,
  "ĠTreeSet": 90427,
  "Ġzones": 25395,
  "ĠGrat": 42081,
  "ä¸ĢèĦļ": 112858,
  "Ġsurviving": 39646,
  "ä¼ļè§ģ": 112569,
  "å®ª": 103295,
  "expanded": 35483,
  "Ġ(++": 46338,
  ".gz": 20963,
  "brities": 34695,
  "å®¢æłĪ": 115512,
  "å®īä¸ľå°¼": 116527,
  "è·³": 100421,
  "ĠEnemies": 60481,
  "Ġja": 11937,
  "èī½": 119556,
  "CG": 8798,
  "(cps": 66120,
  "Ġuploader": 82257,
  "/process": 86780,
  "-good": 71700,
  "æļ§": 103724,
  "ç²¾å¿ĥ": 105191,
  "_Output": 65062,
  "çº¸è´¨": 115233,
  "Grid": 3543,
  "åĬ¨éĿĻ": 114094,
  "ROPERTY": 46511,
  ".DIS": 59411,
  "_stub": 62781,
  "Ġtel": 18708,
  "Ġ************************": 54176,
  "ĠCommunity": 12062,
  "_bus": 25418,
  "getNode": 69984,
  "(Resources": 69266,
  "ĠNorman": 40068,
  "Expr": 16041,
  "ĠGef": 55857,
  "alette": 28510,
  ".ImageLayout": 66123,
  "Ġkostenlos": 26073,
  "-nil": 83248,
  "Ġbeliefs": 20799,
  "ĠHole": 50929,
  ".Call": 27017,
  "åŃ©": 99406,
  "ä¸Ĭçľĭ": 108734,
  ".And": 31164,
  "MBOL": 19480,
  "æľīéĹľ": 111024,
  "ĠBenghazi": 67768,
  "èµŀèªī": 115786,
  "Ġdispos": 53140,
  "ĠParses": 73430,
  "ĠBrands": 54232,
  "emons": 58296,
  "isl": 22457,
  "ä¸¤": 77540,
  "ĠINV": 66924,
  "unication": 39195,
  "Ġzaman": 83140,
  "çŃīæ´»åĬ¨": 110561,
  ".Speed": 84461,
  "Didn": 86519,
  "Ġnotify": 15456,
  "istles": 65943,
  "_GATE": 81116,
  "æłĩ": 30844,
  "ĠCourses": 47678,
  "Ġrationale": 56816,
  "-Tr": 88047,
  "KeySpec": 84791,
  "Ġfears": 23209,
  "Ġseeds": 19056,
  "ĠSOLUTION": 97897,
  "_que": 47342,
  "ĠND": 38444,
  "Ġexpressly": 52511,
  "ikel": 28855,
  "åħ¨åİ¿": 105456,
  "Ġfruity": 91932,
  "Ġsenators": 38920,
  "Ġdetector": 31214,
  "åĪ¶çº¦": 107336,
  "Ġr": 435,
  "Ġeman": 68139,
  ".Navigate": 73694,
  "sigmoid": 88927,
  "ren": 1440,
  "ToolStrip": 15559,
  "Ġvoyage": 44540,
  "Annual": 80496,
  "azo": 40184,
  "Ġexplores": 40324,
  "(vs": 78182,
  "_WS": 68388,
  "ĠAttached": 83436,
  "Ġerratic": 94575,
  "Plus": 21807,
  "çĳĦ": 121098,
  "ĠSAY": 84629,
  "æī°ä¹±": 117000,
  "Residents": 93609,
  "æľīå®³": 108589,
  "ustria": 84812,
  "è¿ĳè·Ŀç¦»": 114926,
  "çļĦä¸įåĲĮ": 106797,
  "GAME": 47575,
  "limits": 41078,
  "Ġfrag": 8343,
  "Ġtentang": 92064,
  "ã¸Į": 123749,
  "-cal": 48136,
  "Ġbranching": 85467,
  "Brightness": 93247,
  "students": 37218,
  "xfe": 31469,
  "Ġsemantics": 52694,
  "Ġvat": 78526,
  "(href": 91976,
  "éĵĪ": 120403,
  "Ġoutbreak": 30088,
  "ĠsubTitle": 91910,
  "Ġprofitable": 33135,
  "PublicKey": 61822,
  "States": 23256,
  "Ġkto": 135727,
  "ĠDane": 79872,
  "çļĦæĸ¹å¼ıæĿ¥": 117265,
  "å½¢æĪĲçļĦ": 108165,
  "ĠgetField": 70964,
  "Ġwithd": 44974,
  "egrated": 47172,
  "è¿ĺåİŁ": 108670,
  "Ġrange": 2088,
  "Ġsenza": 41926,
  "Ġglfw": 50829,
  "Ġpractise": 87588,
  "_directory": 14846,
  "apters": 17425,
  "Ġprosecute": 65843,
  "åĽ½éĻħåĲĪä½ľ": 116151,
  "ĠLinkedList": 22917,
  "_FAMILY": 80828,
  "xEE": 77124,
  "(ret": 16057,
  "/E": 25646,
  "arma": 19726,
  "Ġcohorts": 89288,
  "editar": 83175,
  "}/>": 87556,
  "ĠpaddingRight": 70015,
  "Ġenterprises": 39819,
  "éĶĢåĶ®æĶ¶åħ¥": 109609,
  "ĠEternal": 66772,
  "contin": 21319,
  "Ġ//////////////////////////////////////////////////////////////////////": 95180,
  "data": 691,
  ".savetxt": 97822,
  "Ġsubpo": 60509,
  "iterate": 41512,
  "LEC": 84130,
  "Ġrefriger": 29377,
  "ï½¶": 144414,
  "Facade": 55331,
  "Fabric": 81731,
  "åĿĭ": 122191,
  "Ġapologise": 81385,
  "Ġkale": 62477,
  "Ġsole": 13309,
  "ï½Ľ": 145448,
  "Ġtested": 12510,
  "arsity": 70880,
  "æ´º": 122529,
  "-Z": 11171,
  "terminal": 36327,
  "_locale": 55518,
  "Ġexternally": 68342,
  "Ġfine": 6915,
  "è½®": 99620,
  "ä½ĵéĩį": 107235,
  "ĠonCreateViewHolder": 58164,
  "took": 90353,
  "ĠSupports": 66446,
  "å¤ªéĺ³": 101281,
  "æ¯«åħĭ": 118930,
  ".say": 56939,
  "ĠAlive": 65426,
  ".decoder": 74047,
  "moth": 67404,
  "arious": 53271,
  "Opts": 43451,
  "ĠTik": 72742,
  "Ġ;-)": 142299,
  "=w": 63417,
  "[user": 53545,
  "Ġconfigurations": 32383,
  "æŁ¥æī¾": 109547,
  "Ġreaches": 24491,
  "vertising": 29924,
  "(convert": 60808,
  "Parallel": 16547,
  "Ġtot": 2401,
  "ç¨ŀ": 121233,
  "ĠAtlanta": 19440,
  "_toggle": 48860,
  "_delivery": 50562,
  "éĩĮçļĦ": 102073,
  "Ġbecause": 1576,
  "Ġxm": 55249,
  "_lazy": 49646,
  "ĠSports": 13180,
  "Dep": 7839,
  "æĺ¯ä¸Ģä»¶": 107477,
  "åįļæĸĩ": 115658,
  "Ġspacious": 32136,
  "dit": 17752,
  "Sl": 7442,
  "(scene": 39821,
  "Ġcheaper": 23048,
  "ĠTrap": 52820,
  "Ġpartir": 30532,
  ".Table": 18257,
  "_CUBE": 91969,
  ".statistics": 91684,
  "æĬµæĮ¡": 115843,
  "kker": 52598,
  "çļĦå±ĢéĿ¢": 108785,
  "ä¼°è®¡": 104711,
  "-and": 9777,
  "diet": 93842,
  "Ġimagination": 27799,
  "(timeout": 38966,
  "åĽłèĢĮ": 105025,
  "_loaded": 49205,
  "claim": 7859,
  "plus": 7138,
  "æİ¡": 103392,
  "Ġfeathers": 55894,
  "ĠåĴĮ": 58143,
  "JSGlobalScope": 96458,
  "-deals": 67548,
  "_middle": 62580,
  "è§Ł": 123233,
  "_SCHEDULE": 98118,
  "æł¸æ¡ĥ": 111474,
  "ç»¼èīº": 103543,
  "Ġzwarte": 92086,
  ".seconds": 56343,
  "utton": 959,
  "ĠVM": 17792,
  "Charlotte": 95895,
  "ĠKostenlose": 86784,
  "_Password": 93302,
  "ations": 804,
  "paging": 72746,
  "psc": 81984,
  "GameState": 59069,
  "Runs": 73920,
  ".mit": 84734,
  "_VAR": 25750,
  "particle": 41979,
  "ç»±": 120830,
  "åķĨçĶ¨è½¦": 118493,
  "blocking": 70356,
  "Ġreally": 2167,
  "ĠSingh": 26894,
  "é«ĺæ¡£": 108491,
  "Ġairplanes": 75381,
  "ĠGrades": 95220,
  "çª®": 119195,
  "Ġathletes": 22742,
  "Ġoblig": 12331,
  "dimensions": 59239,
  "Ġmiscon": 29671,
  "Ġfasting": 53460,
  "Tp": 62241,
  "éĢĿ": 101649,
  "åĲĪåĶ±": 112500,
  "ĠSite": 12911,
  "Ġmanifest": 14455,
  "$str": 42757,
  "èµĮ": 101501,
  ".path": 3875,
  "ĠGr": 2825,
  "Ġshaking": 37739,
  "aret": 11302,
  "_strings": 33500,
  "uestion": 8678,
  "Ġ?>\"><": 48782,
  "Ġinstructions": 11221,
  "Ġbench": 13425,
  "ĠNDEBUG": 98529,
  "-away": 89624,
  "Ġadminister": 26093,
  "Ġplank": 72087,
  "qrt": 8140,
  "_summary": 27251,
  "_setup": 21363,
  "Ġlogical": 19819,
  "ĠCt": 62279,
  "èĳ¡äº¬": 114946,
  "external": 20921,
  "å¼ºæĤį": 117353,
  "Ġpreceding": 37746,
  "Ġwash": 11369,
  "è¯¦è§ģ": 116340,
  "è¯´ä¸įåĩº": 114454,
  "Ġhomer": 91305,
  "ordon": 21508,
  "éŁ§æĢ§": 115626,
  "qv": 69578,
  "èĭľ": 119818,
  "MAL": 88799,
  "åįı": 99339,
  "ĠIndiana": 21591,
  ".makedirs": 37092,
  "Ġreflections": 62751,
  "tanggal": 48699,
  "åĸŁ": 120934,
  "é¢Ħæµĭ": 104538,
  "çĥĶ": 122691,
  "MW": 54173,
  "ĠSuff": 59263,
  "ilogy": 40058,
  "Ġ'_'": 35302,
  "ï©Į": 148465,
  "ĠRx": 35376,
  "-Cs": 78222,
  "ĠATTR": 37918,
  "ĠPED": 93753,
  "æĸ°éĹ»ä¸Ńå¿ĥ": 111432,
  "Ġamigos": 56557,
  "Ġshitty": 77458,
  "Ġtakes": 4990,
  "NSNotification": 42813,
  "ĠAtlantic": 22375,
  "ocene": 77682,
  "mpi": 39479,
  "Closed": 26884,
  "è¢±": 103882,
  "elry": 24044,
  "Ġqreal": 75574,
  "Ġvenues": 36178,
  "ĠAAC": 75348,
  "èģ·": 107037,
  "Bool": 11233,
  "lea": 88291,
  "cw": 62543,
  "Ġvery": 1602,
  "èĢģçĻ¾å§ĵ": 105819,
  "å¡Ķ": 101105,
  "PELL": 22374,
  "/key": 68864,
  "èļĮ": 103885,
  ".Messaging": 88969,
  "programming": 91626,
  "iosk": 74917,
  "ĠKl": 27941,
  "Ġanimation": 10355,
  "gamma": 32214,
  ",t": 13960,
  "(link": 25389,
  "æĻĭçº§": 108760,
  "Ġdyst": 68010,
  "lbl": 31998,
  "ushman": 75481,
  "Ġgovernor": 19044,
  "è°ĥéħį": 115402,
  "Ġopposing": 30222,
  "Ġfunctioning": 30201,
  "çıĮ": 122397,
  "(H": 10896,
  "Ġtransplantation": 97602,
  "ĠDAO": 44368,
  "èµ¶èµ´": 116972,
  ".showMessageDialog": 32668,
  "Ġrecruited": 44325,
  "Ġshuffled": 74271,
  "ï¾Ĳ": 144941,
  "ini": 6591,
  "èĳĹåĲį": 102280,
  "å°ıä¼Ļ": 103621,
  "äºĨå¥½å¤ļ": 117633,
  "_scaling": 79216,
  ".jar": 27628,
  "Ky": 77118,
  "ï¼ł": 144060,
  "/j": 4437,
  "Ġdepartment": 9292,
  "'$": 44701,
  ".DisplayStyle": 93440,
  "åº§æ¤ħ": 108144,
  "ĠCarey": 65218,
  "anal": 48821,
  "Ġnarrator": 64171,
  "ocop": 83521,
  "Ġ!!": 11015,
  "End": 3727,
  "éĥ½å·²ç»ı": 108445,
  "Ġattempted": 17201,
  "Chron": 67753,
  "Ġsterile": 81643,
  "Ġentails": 70104,
  "Ġdumb": 29255,
  "ĠNorfolk": 58692,
  "Moved": 53232,
  "Moreover": 57176,
  "Ġå¦Ĥæŀľ": 81263,
  "indo": 34999,
  "éĵ»": 120955,
  "Ġprejud": 33820,
  "Produces": 49112,
  "?key": 89585,
  "statement": 24184,
  "_polygon": 73542,
  ")(\"": 61173,
  "Ġcrash": 9920,
  "å®ĮæĪĲäºĨ": 105236,
  "ĠKomm": 87727,
  ".getChannel": 99061,
  "æĢ§çĸ¾çĹħ": 114719,
  ">S": 25837,
  "Ġeuth": 80580,
  "appearance": 96655,
  "Ġunits": 8153,
  "èĭ¹æŀľ": 104167,
  "Ġtight": 10296,
  "Ġsparking": 98982,
  "Ġagents": 13009,
  "æĲº": 100914,
  "ĠJunk": 66552,
  "å·§åħĭåĬĽ": 110548,
  "åį³ä½¿": 102033,
  "åĬ¿å¿ħ": 112356,
  "Ġinitializes": 57857,
  "ĠAsi": 87710,
  "ĠHeating": 67854,
  "/default": 28989,
  "Callbacks": 44461,
  "Ġjquery": 61701,
  "auss": 63051,
  "ç¥Ĩ": 119981,
  "ĠYak": 70868,
  "æŀļ": 102991,
  ".Tab": 4328,
  ".YELLOW": 94651,
  "_F": 1400,
  "æĬķè¯ī": 104943,
  "çŁ³å®¶": 107238,
  "Sleep": 41745,
  "Ġlandlords": 63629,
  "å¸Ĥéķ¿": 102975,
  "ular": 1276,
  "(tree": 21298,
  "Ġprodutos": 61862,
  "_VIEW": 24374,
  "ascii": 23324,
  "ĠTemplate": 14355,
  "hol": 8452,
  "Ġaument": 40780,
  ".Undef": 32528,
  "Ġdilemma": 54767,
  "(expr": 34322,
  "Ġfarming": 32389,
  "ï½ĥ": 144196,
  "ĠDataSource": 43384,
  "Ġficken": 35879,
  "-divider": 69900,
  "Ġclinic": 27813,
  "ĠActionTypes": 89206,
  "_GE": 59033,
  "egment": 71080,
  "Mods": 81500,
  "Ġassess": 8552,
  "Ġappreciated": 25808,
  "å¹²éĥ¨éĺŁä¼į": 118659,
  "Ġoxidative": 78301,
  "blocked": 61348,
  "_multiplier": 51800,
  "è¾½": 101528,
  "Ġshattered": 55367,
  ".lib": 14947,
  "Ġdomains": 30476,
  "_settings": 10853,
  "-but": 69796,
  "ĠBru": 18697,
  "Red": 6033,
  "Func": 9626,
  "èĩªå¸¦": 111353,
  "ritel": 58962,
  "ç¥ĩ": 119983,
  "ä¿®æŃ£": 108271,
  "(selected": 25190,
  "éľĢè¦ģæ³¨æĦı": 107916,
  "Ġwrists": 85778,
  "ä»ĸå°±": 105799,
  "Ġinvestigations": 25883,
  "igli": 76161,
  "åĳĨ": 104660,
  "Ġaccumulate": 46276,
  "Printf": 42736,
  "ĠNSLocalizedString": 60272,
  "ĠContentValues": 55929,
  "endDate": 45618,
  "erialized": 67577,
  "']>": 94494,
  "ingen": 27918,
  "Ġdefinite": 43770,
  "ĠMaint": 42887,
  "èĴ¨": 123147,
  "Ġquestions": 4755,
  "Ġkra": 96411,
  "ä¸¥æł¼æĮīçħ§": 110439,
  "-tip": 83229,
  "ç®¡çĲĨåĳĺ": 95457,
  "center": 3057,
  "ĠWorst": 69092,
  "inter": 2245,
  "æĺ¯å¤ļå°ĳ": 111558,
  "(Camera": 65745,
  "çį¬": 121808,
  "Ġfichier": 44320,
  "Latin": 41547,
  ">(&": 44784,
  "åĲĮè¡Į": 106034,
  "ä¹ĲåĽ¢": 116767,
  "Ġquicker": 38292,
  "é¢ģåıĳ": 106738,
  "Regions": 79284,
  "åĳµåĳµ": 106397,
  "lem": 3433,
  "Ġgenre": 17328,
  "ĠMent": 48593,
  "Ġentreprises": 96163,
  ";;;;;;;;": 40300,
  ".hstack": 77501,
  "Ġexisted": 24295,
  "-paced": 64219,
  ".jpg": 4819,
  "VO": 11169,
  "æ¬§åĨł": 111059,
  "PhoneNumber": 45820,
  "Sortable": 88352,
  "ĠAlfred": 41492,
  "èĢĮæĺ¯": 103955,
  "/ex": 25815,
  "Initially": 89984,
  "æ»¢": 121298,
  "ResponseBody": 29637,
  "ue": 361,
  "Ġladen": 81687,
  "Parking": 94316,
  "ĠMerge": 40085,
  "ĠofType": 71754,
  "/control": 82667,
  "Ġjenter": 37159,
  "->{$": 33647,
  "èī¯å¥½çļĦ": 104205,
  "ĠCorm": 96189,
  "/(": 11884,
  "-sp": 22238,
  "ĠCoke": 73262,
  "Ġath": 11742,
  "Ġmujer": 52093,
  "-name": 11494,
  "Ġfi": 9136,
  "lando": 23693,
  "Ġbetr": 81314,
  "ĠVanessa": 70519,
  "_recursive": 66242,
  "-blind": 94349,
  "la": 4260,
  "Ġ/><": 23976,
  "ĠHale": 66151,
  "åĬ¨èĦī": 109826,
  "æĩĤäºĭ": 117045,
  "/cupertino": 86955,
  "ĠKatz": 77109,
  "è¡ĮçĤº": 106247,
  "Ġvape": 68170,
  "Ġcoupon": 23821,
  "ĠSar": 13637,
  ".Cdecl": 96900,
  "è§Ħéģ¿": 113408,
  "'util": 48863,
  "Ġpartitions": 46688,
  "Ġwholesale": 34457,
  "_argv": 73563,
  "éħ©": 121158,
  "Ġ****": 30704,
  "åĨ³å®ļäºĨ": 109604,
  "Ġtransc": 41490,
  "Ġstubborn": 51396,
  "ICATION": 11754,
  "ĠPROP": 41977,
  "äºİä¸Ģä½ĵ": 103394,
  "æ¥¼æĪ¿": 116248,
  "Ġconceptual": 43801,
  "Ġrelied": 39913,
  "Divider": 42571,
  "fp": 10852,
  "Legendary": 75125,
  "åīįåįģ": 112318,
  "Ġmuddy": 79473,
  "ç§¯æŀģæİ¢ç´¢": 110965,
  "Ġcapped": 60146,
  "Ġdestruction": 19258,
  "æł·æľ¬": 110241,
  "Ġstanza": 95436,
  "Ġexec": 3883,
  "Ġeverywhere": 16852,
  "Ġkamu": 85190,
  "åī¥ç¦»": 118266,
  "Ġadvertised": 45741,
  "ule": 1111,
  "Ġconveniently": 48070,
  "(pages": 98722,
  "Professor": 47020,
  "Ġfittings": 68926,
  "ĠencodeURIComponent": 56737,
  "è¿ĺç®Ĺ": 111675,
  "ĠsetImage": 39962,
  "ĠDublin": 32877,
  "implicit": 30940,
  "ĠWak": 85537,
  "Neutral": 86907,
  "Ġsegreg": 43067,
  "æ¿ĢåĬ±": 104774,
  "Ġpopulated": 34359,
  "Ġalcan": 75771,
  "Ġmanic": 69122,
  "strcasecmp": 68852,
  "DIG": 86929,
  "ĠOrbit": 84457,
  "ĠCovered": 72195,
  "Ġkup": 80708,
  "/L": 7434,
  "Triangle": 51942,
  "_pieces": 83479,
  "åŁļ": 120297,
  "Ġmultiline": 85218,
  "arine": 74214,
  "Ġanchors": 55439,
  "ĠfileId": 91261,
  "ĠGson": 38394,
  "ç»ĿæľĽ": 110018,
  "_Al": 40812,
  "éļıçĿĢæĹ¶éĹ´": 116497,
  "å½ĵåľº": 109171,
  ".LastName": 54549,
  "ĠCirc": 16338,
  "å¤§å¤«": 110277,
  "(pp": 43952,
  ".cross": 52761,
  "Ġdonating": 60859,
  "ĠFee": 40458,
  "åĪ¤åĨ³": 106530,
  "-box": 12625,
  "(SE": 51048,
  "Ġfairly": 14138,
  "Ġcovariance": 59308,
  "alendar": 12082,
  "ä¸ĢæĿ¯": 107165,
  "(Project": 65980,
  "_RSP": 85642,
  "ä¸Ģä¼ļåĦ¿": 106868,
  "Serialized": 77521,
  "Ġexplosion": 24199,
  "é»¾": 119868,
  "Ġhalk": 142183,
  "ĠRestr": 41327,
  "GG": 22254,
  ".we": 30239,
  "Ġrum": 13995,
  "similar": 64287,
  "Ġsudden": 10968,
  "çº°": 119787,
  "Ġworkout": 25242,
  "_RSA": 76994,
  "Ġcatal": 33354,
  "Ġstmt": 20020,
  "NOWLED": 96522,
  "çĽĳ": 48828,
  "num": 2413,
  "arith": 56636,
  "charge": 13891,
  "ĠSYN": 61694,
  ".drawImage": 47876,
  "UIBarButtonItem": 75793,
  "è¿ŀäºĳæ¸¯": 116043,
  "inda": 17416,
  "Ġrecreate": 52775,
  "Ġcontrad": 22296,
  "Ġ(^)(": 58265,
  "*y": 33247,
  "&&!": 83706,
  "*/),": 55030,
  "è·±": 123186,
  "ADR": 96473,
  "è¿Ļä¸ªåľ°åĽ¾": 106439,
  "_eof": 90792,
  "(det": 71373,
  "Ġspot": 7702,
  "Ġnicknamed": 89134,
  "ĠDame": 40698,
  "uj": 9635,
  "Ġestable": 51664,
  "æī¿æİ¥": 108113,
  "ä¸Ģ": 14777,
  "anga": 19372,
  "Wnd": 23203,
  "orrar": 57648,
  "æĬĹæĪĺ": 112288,
  "çĽ´è¾ĸå¸Ĥ": 116866,
  "æĹģè¾¹": 102708,
  "HashMap": 18497,
  "Ġtiny": 13673,
  "Ġtal": 8210,
  ".solve": 69102,
  "å°ī": 111621,
  "AFP": 46654,
  "_DISPATCH": 88674,
  ".len": 19406,
  "Ġsofa": 31069,
  "Ap": 10611,
  "æī¹ç¤º": 115674,
  "ignet": 84858,
  "èĿĪ": 121417,
  "åľºæ¯ĶèµĽ": 101676,
  "Ġocas": 93252,
  "~~": 5817,
  "é©¾é©¶è¯ģ": 118532,
  "Ġunrecognized": 96139,
  "-force": 80049,
  "patch": 3400,
  "Ġnegativity": 92695,
  "Ġpitch": 9649,
  "_micro": 73003,
  "query": 1631,
  "çªĹæĪ·": 109142,
  ".DAY": 62516,
  "çļĦæł¹æľ¬": 107030,
  "Automation": 98856,
  "éĿŀæ´²": 106055,
  "Ġ`<": 30586,
  "çľĭå¾ħ": 103172,
  "Views": 23217,
  "()],": 79558,
  "ĠBur": 12369,
  "Ġshelter": 22906,
  "Ġpamph": 74831,
  "ç¿¼": 101401,
  "ä¸Ĭå¸Ĥåħ¬åı¸": 104364,
  ".WRITE": 89048,
  "Ġuri": 13071,
  "ĠFORE": 43923,
  "Ġstigma": 59281,
  "æĸ°å¨ĺ": 111274,
  "Ġnavbar": 15548,
  "ablytyped": 80898,
  "å¸ķ": 105091,
  "ĠUN": 6643,
  "ĠAL": 8753,
  "(index": 7195,
  "ĠKenny": 48319,
  "Ġantioxidant": 69239,
  "Ġarson": 86750,
  "/css": 6710,
  "<AM": 33434,
  "Ġassembly": 14614,
  "lection": 1170,
  "æ¯ıä¸Ģä¸ª": 104367,
  "ä¸įè¦ģåĨį": 113673,
  "çĽ®": 29732,
  "pid": 10412,
  "Ġawait": 2535,
  "çŃĩ": 120714,
  "æ¶¦": 99842,
  "Ġwatches": 31760,
  "èĢ»": 110662,
  "ĠMaiden": 82842,
  "-ts": 94501,
  "Ġthus": 8450,
  "ĠMOUSE": 83190,
  "_remaining": 59244,
  "Ġchallenger": 69150,
  "POINT": 21531,
  "å¤§æµ·": 107910,
  "Ġmelodies": 89013,
  ".getInteger": 96514,
  "(inplace": 82206,
  "ĠFIX": 20151,
  "Ġasign": 60079,
  ".kwargs": 76742,
  "ĠProcedures": 74011,
  "alm": 7673,
  "teness": 63097,
  "Ġsurroundings": 39090,
  "trip": 32981,
  "ç»¿": 99679,
  "clk": 32583,
  "è®¡ç®Ĺ": 100768,
  "Ġjente": 72404,
  ".UIManager": 55873,
  "though": 4535,
  "Ġlav": 29483,
  ".getWritableDatabase": 96091,
  "ä¸ĵä¸ļçļĦ": 104715,
  "çĻ£": 119523,
  "base": 3152,
  "cke": 60273,
  "_dicts": 88961,
  "æľĢç¾İ": 107623,
  "Ġep": 4155,
  "Ġthinking": 7274,
  "éĤ£æĹ¶": 105334,
  "lua": 27623,
  "æ¹¯": 112944,
  "ĠChronicles": 65316,
  "Ġregul": 14089,
  "Ġcuid": 56676,
  ".gs": 95568,
  "('{{": 76101,
  "Ġopportunities": 10488,
  "ivalent": 11769,
  "ç»©æķĪ": 107039,
  "ĠNXT": 90401,
  "ĠAk": 16358,
  "ï¼¨": 142172,
  "-rock": 79337,
  "Ġtrendy": 57830,
  "-toggler": 45294,
  ".Co": 52114,
  "_DEV": 26419,
  "Ġcmb": 60893,
  "annual": 63609,
  "?q": 43782,
  "enny": 17835,
  "andal": 16672,
  "çĢı": 103256,
  "ĠJamaica": 56175,
  "Expense": 59689,
  "nyder": 49255,
  "Ġcancelled": 25681,
  "Ġcomprend": 59846,
  "è¿ĺåı¯ä»¥": 104468,
  "éĵ¬": 119244,
  "oner": 26576,
  "holes": 74690,
  "å·¥ä¿¡": 112910,
  "Ġshed": 24354,
  "Ġneckline": 91561,
  ".CommandText": 39066,
  "ĠOops": 95252,
  "}->{": 63118,
  "Ġhers": 10837,
  "_typeof": 93852,
  "ABCDEFG": 67004,
  "RowAt": 24228,
  "éĺŁåıĭ": 107777,
  "ĠAnimator": 45754,
  "ĠSat": 13177,
  "ĠRings": 46280,
  "é©¾é©¶åĳĺ": 107732,
  "_An": 32699,
  "Ġtactile": 98583,
  "ĠHayward": 92205,
  "æĶ¹æĪĲ": 116893,
  "ialis": 17691,
  "Ġrising": 16062,
  "Ġbetween": 1948,
  "æŁ¥å°ģ": 117579,
  "éĿĻ": 99541,
  "inst": 6308,
  "\"io": 42200,
  "Ġnett": 27770,
  "-Out": 84515,
  "Ġspecification": 25128,
  "Ġintervals": 26992,
  "(repo": 50608,
  ".nl": 30507,
  "æ²³åĮĹçľģ": 107082,
  "ç¬¨": 108727,
  "è´¼": 106296,
  "ĠContinuing": 81017,
  "Building": 30133,
  "getParent": 59169,
  "èĲ½æĪ·": 106425,
  "Ġshirts": 36724,
  "cy": 11130,
  "concert": 88305,
  "gettext": 57259,
  "/topics": 57662,
  "åĲįçīĩ": 108973,
  "Ġdenim": 63805,
  "rawl": 33683,
  "å®¶ä¼ģä¸ļ": 106328,
  "turnstile": 56190,
  "Ġuniq": 54152,
  "ĠRHS": 73832,
  "comic": 89889,
  "Ġglyc": 71057,
  ".comm": 33381,
  "_soup": 97352,
  "åį¡è½¦": 111902,
  "ä¸įæħİ": 116611,
  "è¶Ħ": 120859,
  "ĠCups": 78106,
  "BERT": 61437,
  "æŁ¥çľĭæĽ´å¤ļ": 106236,
  "ĠIM": 6517,
  ".Mod": 23127,
  "å¸ĥæĭī": 111359,
  "çļĦæĹ¥": 117724,
  "rowad": 82287,
  ".loc": 14664,
  "ĠJessica": 32367,
  "ithub": 3827,
  "ĠHurricanes": 88503,
  "\\(": 44292,
  "ç´¢èµĶ": 114617,
  ".ease": 62654,
  "ĠPalette": 66409,
  "CAR": 36390,
  "éļıå¤Ħåı¯è§ģ": 115928,
  "-show": 30537,
  "AFF": 48045,
  "Ġyeti": 143417,
  "Ġcsv": 13147,
  "æģ¶éŃĶ": 112257,
  "ä»ĸè®¤ä¸º": 109064,
  "é½Ĳé²ģ": 112368,
  "ĠSweep": 85022,
  "Ġdialogue": 21276,
  "ä¹ĲåĽŃ": 107396,
  "Ġhasattr": 31056,
  "Ġorganism": 46020,
  "éĺĪ": 120763,
  "Ġgenu": 16497,
  "='_": 52805,
  "Ġfrantic": 88606,
  "Feel": 32927,
  "Ahead": 87962,
  "')}": 37807,
  "æļĤåģľ": 107276,
  "Ġseized": 30489,
  "ewolf": 76699,
  ".='": 83655,
  "roduction": 16741,
  "éĸĵ": 55865,
  "(Map": 21253,
  "Ġspectacular": 27709,
  "reta": 65698,
  "ĠConsoleColor": 58834,
  "ipel": 81079,
  "Ġplaced": 9099,
  "Ġproductivity": 25148,
  "å°ıæ¸¸æĪı": 115047,
  "wort": 31151,
  "uality": 10733,
  "stant": 4706,
  "ĠIncluding": 55121,
  "Choice": 24728,
  "Instruction": 16664,
  "Ġresetting": 78028,
  "æĪĲäº¤éĩı": 111290,
  ".setLayoutManager": 67633,
  "Ġlifelong": 50163,
  "resco": 71418,
  "zimmer": 64474,
  "å©¶": 118504,
  "ĠSok": 84114,
  "Ġexe": 47193,
  "ĠDIST": 36103,
  "æĮĩåįĹ": 105866,
  "ĠgroupId": 41797,
  "ä¹ĭæ¬ĬåĪ©": 117784,
  ".coord": 74638,
  "ĠStat": 12166,
  "ĠåĽ¾": 90867,
  "chl": 67056,
  ".isAuthenticated": 73528,
  "å¤įå·¥å¤įäº§": 107476,
  "åįĹæ²Ļ": 116113,
  "/js": 9113,
  "DUCTION": 47546,
  "ĠVisitors": 68840,
  "ainted": 30229,
  "ĠDID": 59119,
  "ç¢ĳ": 100934,
  ";if": 81004,
  "EventArgs": 11126,
  "(Unknown": 97856,
  "-room": 47740,
  "å¾Ľ": 122847,
  "Ġtimeouts": 91444,
  "='#": 28623,
  "Ġtraj": 62028,
  "ĠJudges": 85855,
  "ĠSun": 8059,
  "Ġkidneys": 80860,
  "éĸ±": 103270,
  "éĩįé»ŀ": 114921,
  "Ġcasc": 74957,
  "imity": 30935,
  "Thinking": 93945,
  "ĠPRESS": 73819,
  "ĠRena": 48794,
  "è¯Ń": 72881,
  "URL": 3144,
  "æį®": 16038,
  "Ġsop": 70204,
  "_FIND": 67285,
  "because": 27653,
  "Ġexceptions": 19585,
  "Ġnanoparticles": 93653,
  "ç¥Ĳ": 122541,
  "ĠSponsored": 73747,
  "orage": 2680,
  "Ġguarding": 79500,
  "oom": 4191,
  "_goals": 96244,
  "ĠUnd": 16887,
  "å®¿è¿ģ": 117446,
  "Ġassistir": 88515,
  "æĳ©": 100487,
  "Ġcoating": 40294,
  "Ġalternatively": 68387,
  "Ġpokemon": 37651,
  "Ġthick": 12045,
  "Ġquantify": 75398,
  "ĠLikely": 93637,
  "Ġelek": 62788,
  "ĠprovidedIn": 44010,
  "Ġpropositions": 83273,
  "ĠinitialState": 29427,
  "éºŁ": 103481,
  "SQL": 6688,
  "/log": 19413,
  "Ġrotary": 61817,
  "ĠButterfly": 77720,
  ",...": 28675,
  "_BYTE": 27349,
  "Ġbranding": 43717,
  ".MAIN": 98559,
  "iri": 20679,
  "åıĨ": 121351,
  "_YELLOW": 94139,
  "Ġownership": 15278,
  "æ£Ģæµĭ": 101978,
  "ï§³": 151151,
  "_angles": 72643,
  "/high": 58135,
  "IRA": 60556,
  "Ġdisappearing": 66403,
  "å®¶è£ħ": 108844,
  "Str": 2580,
  "Ġwhats": 40109,
  "<Texture": 72454,
  "winter": 82928,
  "(metadata": 54436,
  "Ġcentralized": 57883,
  "achte": 84642,
  "eb": 3065,
  "ĠRoutine": 71062,
  ".Business": 38825,
  "face": 1564,
  "Checking": 40129,
  "éĻįèĩ³": 112299,
  "å¿ĺè®°äºĨ": 113713,
  "Ġdistricts": 26438,
  "åŀ¾": 122580,
  "_PH": 17909,
  "Ġfleet": 25099,
  "QUENCE": 50842,
  "Ġmsec": 80359,
  "ĠFrog": 71419,
  "lien": 85036,
  "éī´": 100564,
  "è½´": 102390,
  "ĠCollect": 20513,
  "idata": 81080,
  "æ³ķåŃ¦": 112045,
  "ĠPublish": 23499,
  "UFF": 8825,
  "Ant": 17117,
  "Ġnumber": 1372,
  "ĠOnt": 17819,
  "leads": 98370,
  "èĲ¦": 119278,
  "Ġaka": 37141,
  "ĠITEMS": 77465,
  "uffed": 40573,
  "ĠOSS": 83233,
  "Ġcommunicator": 86671,
  "('/')[": 94773,
  "ABC": 25411,
  "ĠgetCategory": 93575,
  "(cube": 91117,
  "_subs": 82767,
  "ä¸ĵçıŃ": 116838,
  "ç«ŀ": 99640,
  "ĠOccupation": 98352,
  "-columns": 73569,
  "Deleting": 60475,
  "_EXTENDED": 95952,
  "åıĳæĺİ": 102832,
  "_et": 45668,
  "ĠTribal": 90112,
  "èµ¤": 104565,
  "addPreferredGap": 34275,
  "DK": 18301,
  "ĠSus": 16288,
  "_CHUNK": 70508,
  "ĠNug": 58245,
  "icional": 62793,
  ")": 8,
  "ĠuseRef": 40133,
  "iddled": 87762,
  "Ġsynchron": 14121,
  "Ġfot": 31840,
  "Tell": 40451,
  "_TM": 70223,
  "å»ļ": 117155,
  "Ġcaso": 23020,
  "å¦Ħ": 108682,
  "Ġnz": 42942,
  "Ġsynonyms": 85406,
  "ĠStringUtils": 42938,
  "æĻļå¹´": 114836,
  "Ġrho": 31381,
  "ichael": 59708,
  "Ġcommenting": 40265,
  "hdr": 28785,
  "å¸¨": 122641,
  "/orders": 82818,
  ".[": 7873,
  "Ġminority": 22591,
  "Ġreceived": 3949,
  "(AdapterView": 63740,
  "private": 1996,
  "ĠPromo": 57403,
  "Ġshaving": 80009,
  "Ġcabinet": 21921,
  "ĠMrs": 17618,
  "ĠPsychology": 35573,
  ".ASCII": 80969,
  "ĠVivo": 88168,
  "(handle": 26405,
  "è¿Ļæł·åģļ": 107698,
  "Ġtimelines": 87144,
  "Ġmanifesto": 74603,
  "ĠMatching": 70691,
  "ose": 960,
  "Ġ\");": 36778,
  "CCR": 69146,
  "ĠOnce": 9646,
  "æľº": 32648,
  "ĠLarger": 80808,
  "ĠINPUT": 26149,
  "Ġbridal": 80412,
  ".findAll": 24564,
  "Router": 9523,
  ".breakpoints": 78676,
  "åĩ¯": 104156,
  "éĶ¦æłĩ": 115772,
  "æ²¡è§ģè¿ĩ": 117121,
  "rowth": 19089,
  "åĨ³æĪĺ": 113675,
  "ĠshowError": 63003,
  "Ġ)\"": 90798,
  "è¾ħ": 100519,
  "Ġkaz": 90725,
  "ĠTaken": 55974,
  ".BO": 67601,
  ".cert": 67016,
  "ĠGuill": 73638,
  "åģ¿è¿ĺ": 111544,
  "Ġpartial": 7130,
  "atten": 14456,
  "ĠNome": 58275,
  "Ġreimb": 97578,
  "Ġchess": 32719,
  "controllers": 21611,
  "ĠlocalStorage": 15566,
  "ä¹Łå¼Ģå§ĭ": 110462,
  "è¡Ĺ": 99913,
  ".tagName": 57015,
  "Ġcudd": 64145,
  "Ġexplored": 35031,
  "ĠBowie": 67247,
  "ĠBennett": 38286,
  "_PROVID": 51868,
  "ĠngOnDestroy": 76738,
  "æİ¨åĩº": 102014,
  "Ġcriterion": 35957,
  ":class": 91964,
  "Ġjoins": 28682,
  "ĠFilme": 96185,
  "Ġpads": 35995,
  "ĠMST": 84280,
  "Ġenumer": 10153,
  "Help": 12689,
  "Ġresponds": 30580,
  "ĠMass": 9167,
  "ĠAlger": 58509,
  "variation": 75785,
  "rotein": 90648,
  "todo": 17370,
  "_cu": 92045,
  "ndl": 88370,
  "Curve": 31325,
  "specs": 94531,
  "otate": 20223,
  ".fun": 81982,
  "ç»ĪçĤ¹": 111557,
  "mutable": 30473,
  "å°ıåŃĲ": 108634,
  "woord": 72506,
  "Ġoccurrences": 56015,
  "ĠScaling": 88001,
  "è±ī": 120617,
  "æĺ¥èĬĤ": 102376,
  "æ¯ıä¸ªæľĪ": 111137,
  "Ġexhibiting": 86619,
  "ngine": 70891,
  "_idle": 47810,
  "_of": 3575,
  "_CAST": 25753,
  "ĠOfficials": 63139,
  ".right": 9517,
  "Present": 21195,
  "ĠCarroll": 46109,
  "ĠGap": 57915,
  "æ¶Īå¤±": 102505,
  "Ġaud": 6136,
  "ĠSanchez": 47154,
  "ä¸ļåĬ¡": 103923,
  "ä¼ģä¸ļæıĲä¾Ľ": 111371,
  "orce": 16316,
  "onth": 6039,
  "ä¿¡è´·": 106729,
  "Ġgraduated": 32009,
  "Ġkicked": 27120,
  "Ġloyal": 28847,
  "ft": 723,
  "Ġransom": 57586,
  "æĻķ": 102997,
  "elts": 84028,
  "Ġboxed": 73664,
  ".setWidth": 75623,
  "Ġprostitutes": 62582,
  "æĪ¿": 99218,
  "ĠDylan": 43358,
  "Spo": 68680,
  "Ġinstantly": 21818,
  "ĠBuddy": 59526,
  "Ġpaperback": 85731,
  "Ġ:+:": 15950,
  "Talk": 36210,
  "/AP": 59129,
  "Ġvirus": 16770,
  "Ġmentoring": 75479,
  "ĠGRE": 61896,
  "_SELECTOR": 72396,
  "Ġbattered": 79656,
  "IST": 3846,
  "-Christian": 88041,
  "ä¸Ģéģį": 107060,
  "ĠGovernance": 80589,
  "_MAC": 28076,
  "Ġjumper": 68984,
  "directory": 23037,
  "è¾Ĥ": 120358,
  "Ġdue": 4152,
  "éķ©": 121899,
  "queda": 41360,
  "Ġtub": 14938,
  "ä»¥æĿ¥": 99919,
  "$is": 86438,
  "Ġdefect": 22219,
  "Ġdeterrent": 82620,
  "Ġ__(\"": 55561,
  "Instance": 2523,
  "Entre": 70588,
  "ĠSkin": 26951,
  "æģį": 119079,
  "Ġonslaught": 87692,
  "Ġ*@": 45637,
  "-\"": 27651,
  "ich": 713,
  ".vote": 79422,
  "xfa": 48890,
  "Ġcheese": 17163,
  "OMATIC": 85338,
  "=f": 18111,
  "Ġceramics": 95706,
  "Ġargue": 17585,
  "Ġhundreds": 11499,
  "mensagem": 88841,
  "ĠInvoke": 39667,
  "_temperature": 53525,
  "æ¶ĵ": 120501,
  ".Linq": 6034,
  "des": 5799,
  "ĠYug": 69725,
  "Knife": 56405,
  "Ġchicas": 56567,
  "Ġavait": 49490,
  "Ġstranded": 62105,
  "OLER": 90722,
  "æĬķç¨¿": 108291,
  "ĠOrt": 44340,
  "INO": 47975,
  "Ġcatering": 53829,
  "è¦ĸçĤº": 118429,
  "/Auth": 86280,
  "SharedPointer": 99054,
  "ocytes": 56778,
  "Ġinfect": 33427,
  "Ġweaken": 32456,
  "AWN": 99103,
  "erable": 26959,
  "ĠAtt": 7711,
  "<(": 28706,
  "iates": 42298,
  "ĠDart": 48097,
  ".General": 75749,
  "ĠBec": 31046,
  "ĠSal": 8211,
  "ĠSpecialty": 81514,
  "Ġrex": 86510,
  "ĠNottingham": 66559,
  "ä¸įè¶³": 102004,
  "Ġjailed": 54506,
  "Ġrap": 7327,
  "Ġhelper": 13137,
  "WHITE": 56999,
  "åįĵ": 101440,
  "_decl": 35814,
  "æ°¤": 120413,
  "èį¼": 120314,
  "comings": 69143,
  "Ġoe": 68383,
  "atty": 22908,
  "]?": 49964,
  "Ġlawn": 36025,
  "ĠGriffin": 40396,
  "ĠPres": 4111,
  "ĠKoreans": 69711,
  "ĠNe": 4182,
  "ĠLightweight": 83267,
  "Ġattractions": 38491,
  "ä¸įæĸŃå¢ŀåĬł": 118652,
  "ĠĠĠĠĠĠĠĠĠĠĠĠĠĠĠĠĠĠĠĠĠĠĠĠĠĠĠĠĠĠĠĠĠĠĠĠĠĠĠĠĠĠĠĠĠĠĠĠĠĠĠĠĠĠĠĠĠĠĠĠĠĠĠĠĠĠ": 47549,
  "flowers": 88670,
  "_categorical": 87455,
  "ĠGoa": 85522,
  "Ġliar": 72624,
  "Ġfaithfully": 93076,
  "ĠMonthly": 44334,
  "äı¡": 122500,
  "Ġreceiving": 12308,
  "{!!": 54466,
  "ĠQTimer": 96669,
  "Ġvoucher": 48658,
  "-dismissible": 77633,
  "==\"": 11036,
  "Ġsteps": 7354,
  "ĠendDate": 30445,
  "Ġaccurately": 29257,
  "éĮ¯èª¤": 114497,
  "ç§¯ç´¯": 102467,
  "Listing": 52564,
  "busy": 78467,
  "ĠDISCLAIM": 24717,
  "Ġ'='": 40554,
  "è§ĳ": 121590,
  "æľīéĹ®é¢ĺ": 110686,
  "setFont": 89402,
  "çĶ³è¯·äºº": 107921,
  ".Convert": 36179,
  "ĠBATCH": 98791,
  "èģĶ": 49082,
  "ĠAustrian": 56969,
  "SHIP": 70220,
  "FACE": 19759,
  "ĠOther": 6944,
  "çĪ¨": 122124,
  "ä»Ł": 119566,
  "rint": 1586,
  ".getMin": 95879,
  "ĠFatal": 65629,
  "metics": 45266,
  "Eq": 27312,
  "çī¹èī²å°ıéķĩ": 116132,
  "æľ¬çĿĢ": 108612,
  "(toolbar": 78458,
  ".ErrorMessage": 73628,
  "æ¼Ń": 121297,
  "nel": 8138,
  ".Con": 4801,
  "Ġsca": 15350,
  "ĠCatherine": 41563,
  "atoes": 20187,
  "_hat": 39773,
  ".endswith": 40115,
  "ĠLots": 40215,
  "Ġtrailing": 27748,
  "news": 9984,
  "-slide": 36457,
  "\"math": 78128,
  "æİĪ": 99942,
  "Ġdatabase": 4625,
  "ĠSea": 15029,
  "Ġmercy": 38224,
  "_source": 10347,
  "ipheral": 23298,
  "_substr": 83578,
  "Ġowe": 41110,
  ".getAttribute": 19146,
  "Ġunited": 28192,
  ".Servlet": 37993,
  "Ġ\"@\"": 96848,
  "alus": 86127,
  "ä¾ĭåŃĲ": 103358,
  "çŁŃæľŁåĨħ": 111836,
  "Ġmulter": 80245,
  "Ġ:'": 53546,
  "è°ģçŁ¥éģĵ": 117333,
  ">Lorem": 67939,
  "çĻ»": 28641,
  "/class": 25514,
  "Ġmaxlen": 75448,
  "ĠSaf": 12582,
  "Ġbeet": 48012,
  "åħŃåĲĪ": 113302,
  "Ġcarnival": 93396,
  "pray": 90604,
  "-flight": 76203,
  "ĠMali": 63894,
  "èĤŃ": 122341,
  "å©·": 107085,
  "reveal": 94026,
  "klass": 54422,
  "Ġsalari": 143576,
  "CONF": 38634,
  "ulario": 32330,
  "è¡¥é½Ĳ": 117698,
  "æľŁå¾ħ": 104177,
  "interpreted": 93461,
  "ĠColin": 39879,
  ".entities": 25543,
  "äºĨä»ĸçļĦ": 108124,
  "Ġbesides": 27758,
  "inating": 15873,
  "å¹»": 100320,
  "åłį": 120571,
  "Shutdown": 62004,
  "irms": 14404,
  "Ġimprimir": 92506,
  "pps": 59543,
  "ĠSerializer": 58822,
  "éĩįæĸ°": 70361,
  "Ġalien": 19594,
  "Ġclk": 45798,
  "ä¼ĺè´¨çļĦ": 107220,
  "Ġbelieving": 33990,
  "orse": 10836,
  "_#{": 90599,
  "Countries": 71728,
  "çİ°ä»£åĨľä¸ļ": 109526,
  "èŃī": 101524,
  "wnd": 23152,
  "$x": 62983,
  "_submenu": 96733,
  "(TR": 68804,
  "snake": 72139,
  "çŁ¥è¯ĨåĪĨåŃĲ": 117197,
  "å¦¾": 114835,
  "Ġforb": 54744,
  "Ġscor": 61095,
  "ecome": 51421,
  "çĬ¹å¦Ĥ": 108228,
  "ä¸Ģç¯ĩ": 101555,
  "Ġholes": 19766,
  ".Compute": 89237,
  "unbind": 73111,
  "_tls": 71262,
  "Dat": 45696,
  ".java": 10848,
  "Ġshin": 76011,
  "Ġyarn": 38247,
  "/mod": 38479,
  "contest": 65717,
  "al": 278,
  "Ġhic": 77907,
  "Ġendeavour": 88931,
  ".masksToBounds": 81993,
  "plevel": 88805,
  "itous": 49755,
  "_nil": 36175,
  "panse": 94419,
  "ï¾Ŀ": 144057,
  "(ident": 95270,
  "Levels": 46991,
  "_comb": 34454,
  "Ġbureauc": 33746,
  "ĠMAV": 80819,
  "ĠSek": 49241,
  "åĲĪçĲĨçļĦ": 105630,
  "ibrated": 60566,
  "ounced": 19453,
  "(steps": 84271,
  "Ġ(*((": 82379,
  "culate": 11207,
  "Ġgr": 1081,
  "dde": 88089,
  "udio": 3230,
  "Ġayant": 85771,
  "åĲŃ": 119315,
  "ï¼ĵ": 33517,
  "ĠOl": 11959,
  "ĠNaples": 82621,
  "-haspopup": 61226,
  "Tpl": 87137,
  "geo": 13052,
  "ãĺİ": 123615,
  "çħĭ": 123249,
  "åĩºå¢ĥ": 113478,
  "abort": 46699,
  "/show": 34175,
  "è²«": 119151,
  "_EMP": 68784,
  "Ġcolleagues": 17639,
  "ifie": 56509,
  "tsy": 58960,
  "_COMPILER": 87009,
  "Ġinstalled": 10275,
  "munition": 33586,
  "ONGL": 91113,
  "Ġprogramm": 55486,
  "Not": 2623,
  "Ġdoi": 35895,
  "(as": 36951,
  "ä¸ĵè¾ĳ": 109468,
  "oundingBox": 57504,
  "Ġcompetitions": 42582,
  "Ġrecipient": 21713,
  "Ġautonom": 94003,
  "Ġoverloaded": 74591,
  "çĶŁäº§è½¦éĹ´": 118884,
  "erez": 33786,
  "è°·çĪ±": 116086,
  "ĠDead": 15021,
  "åľ°åĿª": 118863,
  "Ġdrone": 26713,
  "_srv": 63921,
  "çĻ½ç³ĸ": 117152,
  "isas": 85934,
  "Ġuphe": 95610,
  ".Require": 81288,
  "ĠSalisbury": 91955,
  "okers": 40681,
  "æł¹æľ¬ä¸į": 108009,
  "aussian": 46972,
  ".min": 4358,
  "ProductName": 71103,
  "Documentation": 64334,
  "èģļéĽĨ": 105061,
  "ĠVladimir": 34911,
  "-answer": 95777,
  "æĦıåĲĳ": 107465,
  "<pair": 51307,
  "è®°å½ķ": 65577,
  "bbb": 53151,
  "Ġtexas": 59248,
  "Ġstack": 5611,
  "ç¾±": 123573,
  "èĬŁ": 119673,
  "æ¢ģ": 101965,
  "Ġparse": 4715,
  "Ġtransmit": 29282,
  "ĠBurgess": 97467,
  "ĠChristine": 45893,
  "-inline": 23633,
  "ĠQQ": 73115,
  "çĶµåķĨ": 101215,
  "Patient": 36592,
  "cheon": 75169,
  "nen": 12495,
  "çķ¸å½¢": 114998,
  ".^": 43259,
  "ĠCavs": 95635,
  "ĠElena": 68575,
  "Ġocor": 83972,
  "Prop": 2008,
  "çİ¯ä¿Ŀ": 101117,
  "å§ļæĺİ": 118385,
  "Ġlivelihood": 63651,
  "Extend": 72136,
  "uations": 37070,
  "é¹¢": 123484,
  "VECTOR": 43687,
  "ä¹ĭæīĢ": 112649,
  "-Y": 29137,
  "Ġverschiedenen": 88687,
  "\"If": 26708,
  "_DD": 95985,
  "Ġpurchase": 7627,
  "å¿ı": 119642,
  "iais": 56467,
  "Ġbfd": 94047,
  "æĬµå¾¡": 113917,
  "Ġpalms": 74718,
  "Ġbureaucrats": 88640,
  "(copy": 50713,
  "Ġscram": 34961,
  "?]": 92968,
  "_Position": 55724,
  "ovi": 45088,
  "occus": 91311,
  "-packages": 75761,
  "ĠLinden": 99065,
  "ardon": 45296,
  "ĠLT": 34469,
  "çŁ¿æ³īæ°´": 117137,
  "Hdr": 88367,
  "ĠDHS": 72603,
  "DefaultCloseOperation": 55382,
  "Ġcampus": 15319,
  "äºĶ": 75108,
  "companies": 64751,
  "èĲ¥ä¸ļæī§çħ§": 110579,
  ".MouseEvent": 43423,
  "èµ£": 103453,
  "ĠHoch": 67775,
  "Ġcelebrate": 18383,
  "scheduled": 93585,
  "_USERNAME": 42696,
  "Sk": 19290,
  "çķĻåŃĺ": 114762,
  ".Settings": 27000,
  "åĲįä¸º": 101599,
  "ĠBra": 25453,
  ".navigationController": 29452,
  "éļ±ç§ģ": 103495,
  ".ajax": 44586,
  "çĶ°éĩİ": 115450,
  "$view": 76207,
  "Ġdaring": 58672,
  "Ġpreparations": 46879,
  "UN": 1861,
  "æĺİäº®": 108575,
  "æīĺç¦ı": 118903,
  "Ġencompasses": 69910,
  ".signup": 81976,
  "?=": 59567,
  "Ġposix": 98343,
  "Ġyogurt": 54475,
  ".ol": 90365,
  "çĿ¡è§ī": 105403,
  "éĩĳéĻµ": 117998,
  "Ġmodelling": 60866,
  "æľŁæľĽ": 106076,
  "Ġhole": 14178,
  "Ġinfr": 24631,
  "sehen": 65423,
  "éĶ®çĽĺ": 112006,
  "Ġcontrib": 5919,
  "äººå¯¿": 110232,
  "ĠMarg": 23201,
  "åĩıåĢ¼": 118414,
  "èĪªè¿Ĳ": 110372,
  "è´¨": 99178,
  "uating": 53543,
  "æķ°æį®": 20074,
  "ĠVirus": 63992,
  "è§ĸ": 122865,
  "ä¸Ńåħ±ä¸Ńå¤®": 108674,
  "Ġmor": 4313,
  "/navbar": 81806,
  "Ġrandint": 53182,
  "une": 2886,
  "ĠBeef": 63125,
  "éĤµ": 108240,
  "-eight": 69715,
  "Ġdid": 1521,
  "èĽĢ": 119408,
  "Ġsubsidy": 67647,
  "èįı": 120040,
  "Ġmob": 12595,
  "Ġ}}\">{{": 68177,
  "ä¹Įé²ģ": 112548,
  "å£ģçĶ»": 116595,
  "atest": 13893,
  "ionales": 82423,
  "Ġ']": 42877,
  "ifact": 20754,
  "_cmds": 89472,
  "Ġcontinents": 65859,
  "(row": 7835,
  "æ¸ħæ´Ĺ": 105077,
  "é¥®æĸĻ": 106099,
  "<Player": 44302,
  "Ġcatalog": 16403,
  "'LBL": 65230,
  "------------------------------": 85126,
  "Ġday": 1899,
  "Ġcommons": 64962,
  "Ġtablename": 86365,
  "Ġlandscaping": 64018,
  "http": 1254,
  "Ġ$('.": 9607,
  ".onViewCreated": 93527,
  "ç«¶çĪŃ": 117614,
  "æĸ¹éĴĪ": 106025,
  "ĠGym": 45531,
  ".accuracy": 98295,
  "ĠPant": 53122,
  "çĽ®æ¨Ļ": 112219,
  "brahim": 57932,
  "äº¡": 100256,
  "ĠDRM": 60397,
  "proc": 15782,
  "Ġchambers": 52179,
  "åĽĽåįģ": 107035,
  "ç¬¯": 122836,
  "ĠBALL": 83848,
  "ace": 578,
  "Ġdenomination": 94936,
  "çĽ¸åħ³åĨħå®¹": 113148,
  ".Struct": 51445,
  "(evt": 19707,
  "é©¾çħ§": 118810,
  "åĲ¹": 102203,
  "éĶĢåĶ®": 100352,
  "æİĤ": 119401,
  "æĺµ": 119072,
  "AccessException": 38008,
  "::$_": 53478,
  "-des": 24506,
  "ĠPREFIX": 69978,
  "Ġgroundbreaking": 63855,
  "è§Ĵèī²": 100780,
  ".ReadKey": 60965,
  "ä»£è¨Ģäºº": 117678,
  "$$": 14085,
  "åłŀ": 120854,
  "ĠDeadline": 61956,
  "ĠArticles": 28361,
  "xdd": 53432,
  "-FIRST": 30362,
  "åº¥": 120200,
  ".onChange": 40985,
  "Ġfilenames": 40540,
  "ardown": 37496,
  "ĠGros": 69852,
  "Ġoccasions": 24930,
  "æĲŃæ¡£": 113550,
  "elon": 64367,
  "Ġsnaps": 51304,
  "Ġbio": 16905,
  "ĠPHYS": 83987,
  "çº¤": 101538,
  "Ġbullet": 17432,
  "item": 1203,
  "ĠMovies": 25930,
  "æ¬łç¼º": 116936,
  "Ġcarts": 65404,
  "Ġrake": 75418,
  "ĠRepair": 27167,
  "Powered": 71504,
  ".interval": 48205,
  "ICT": 14805,
  "Ġgraduate": 19023,
  "ĠWesley": 57606,
  "asl": 75366,
  "KeyPressed": 69320,
  "bw": 39824,
  "çłĶç©¶äººåĳĺ": 113299,
  "_keeper": 43404,
  "_inp": 78887,
  "åİĤæĪ¿": 107197,
  ".selectedIndex": 56744,
  "/use": 62272,
  "-report": 47411,
  "å§¹": 120271,
  "Ġinsistence": 78297,
  "proved": 95508,
  "ĠShooter": 98307,
  "Ġshowcases": 70749,
  "='{$": 55615,
  "Ġreferences": 15057,
  "ä¸ĭå·´": 113355,
  "/x": 10776,
  "YSQL": 62364,
  "Aspect": 37559,
  "ĠCVS": 77365,
  "Ġsmile": 15289,
  "Ġdistinguish": 32037,
  "Constructed": 82765,
  "_AXIS": 50431,
  "alc": 16927,
  "Ass": 5615,
  "æ»¤": 102980,
  "Ġunearth": 78575,
  "Ġsynchronized": 21466,
  "Ġtimeframe": 69953,
  "ĠKnife": 61202,
  "ĠVideos": 19544,
  "luck": 85376,
  "æłĴ": 122602,
  "Ġoutdated": 40526,
  "Ġobese": 49220,
  "åĪļæīį": 105189,
  "stage": 20743,
  "bands": 41906,
  "ields": 6907,
  "ĠnewVal": 72328,
  "ĠLawrence": 27474,
  "Ġsofter": 63130,
  "indhoven": 82058,
  ".docs": 71339,
  "Judge": 60256,
  "Ġegy": 30708,
  "Ġgobierno": 80793,
  "-vertical": 88598,
  "ĠQR": 38699,
  "Ġspeculation": 32322,
  "(optarg": 70143,
  "å¿ĥçĲĨ": 100438,
  "æľīä¸¤ä¸ª": 108534,
  "Ġexamine": 20961,
  "inden": 58217,
  "Ġmetres": 36256,
  "åĭĭç«ł": 117754,
  ")/": 5620,
  "ĠRail": 23786,
  "court": 62758,
  "(filepath": 34793,
  "ĠstartActivityForResult": 73627,
  "CppObject": 45018,
  "QUEST": 6671,
  "semblies": 45338,
  "Ġlorsque": 86058,
  "_messages": 23428,
  "å¹³çŃī": 105987,
  "æ´ŀå¯Ł": 113729,
  "èļª": 119378,
  "Language": 13806,
  "EB": 8264,
  "ĠWARRANTIES": 7427,
  "lace": 26536,
  "ergus": 32931,
  "Ġoriginals": 85590,
  "ĠVu": 56602,
  "ĠEXPER": 80081,
  "Ġglide": 85041,
  "Ġkosten": 18926,
  "Ġmutable": 25804,
  "Ġnever": 2581,
  "Ġgrandes": 37446,
  "housing": 80615,
  "rew": 4266,
  "ĠHindu": 35042,
  "ĠUnits": 35181,
  "ĠSisters": 60988,
  "çº¿ç´¢": 105814,
  ".CurrentCulture": 80066,
  "ĠClem": 45168,
  ".train": 19651,
  "/vendor": 35663,
  ">Show": 91309,
  "ä¸ĩä½Ļ": 103405,
  "Ġlap": 23410,
  "ä½łæĺ¯": 105043,
  "ĠonCancelled": 88500,
  "ï¦§": 148360,
  "Ġassembler": 88524,
  "åĮĸè§£": 106276,
  "Ġstip": 42673,
  "çĹħæ¯ĴæĦŁæŁĵ": 115275,
  "ç¬ĥ": 116046,
  "ĠactiveClassName": 98122,
  "Ġemlrt": 96212,
  "çĶµåŃĲä¿¡æģ¯": 113153,
  "Ġobliv": 66005,
  ">Login": 86260,
  ".answers": 83486,
  "Ġapi": 6330,
  "pl": 500,
  "Ġrefunded": 93452,
  "Ġscraped": 87837,
  "_channel": 14571,
  "ç®¬": 121454,
  "é»ĳåĲįåįķ": 118664,
  "_water": 54550,
  "_pag": 51003,
  ".SECONDS": 50912,
  "æĹ¶æĬ¥": 111839,
  "Ġcheckbox": 31300,
  "olution": 3214,
  "Ġclub": 6335,
  "èŀŁ": 121766,
  "Ġdelimiter": 29020,
  "éĴ±å¸ģ": 114614,
  "Ġsinc": 26241,
  "çĮ¥": 121009,
  "----------------------------": 27814,
  "éĴ¦": 110251,
  "sell": 34835,
  "ĠEvery": 7209,
  "ĠWas": 14804,
  "ĠApprox": 43819,
  "Ġenough": 3322,
  "æĭħè´Ł": 115824,
  "è°Į": 120798,
  "Ġcaptivity": 82919,
  "Ġharvested": 66472,
  "ĠNelson": 26464,
  "slice": 24963,
  "Ġsea": 9396,
  "Ġprint": 1173,
  "ĠPlatz": 72055,
  "ĠGCBO": 82746,
  "Ġcursos": 86491,
  "update": 2386,
  "ĠAppCompatActivity": 24125,
  "Ġbordered": 76217,
  "Ġterug": 89501,
  ".Act": 14140,
  "Independent": 76821,
  "ieres": 64488,
  "ĠCN": 24872,
  "è¿ĻäºĽ": 100001,
  "Ġ/*!<": 29371,
  "éļª": 101021,
  "ĠKem": 65966,
  "åŀ©": 120045,
  "anca": 63245,
  "Ġmembr": 30719,
  "_FieldOffsetTable": 88396,
  ">::": 6831,
  "Hy": 30816,
  "ĠGRA": 64020,
  "metro": 57047,
  "ä»ķ": 107669,
  "ĠMother": 21043,
  "ĠoffsetX": 73272,
  "ç¿»è¯ĳ": 105395,
  "è¿Ļæ¬¾è½¦": 117951,
  "ĠTemper": 74683,
  "MouseClicked": 86380,
  "ä½ĵçİ°åľ¨": 106535,
  "Visible": 5715,
  "itamin": 75552,
  "stones": 32510,
  "(Mod": 71956,
  "_devices": 41334,
  "Ġmethane": 59983,
  "ĠProgressDialog": 61831,
  "straction": 42602,
  "Ġcasual": 16334,
  "owing": 23184,
  "Ġthumbs": 56849,
  "Ġhamburg": 56847,
  "Ġsubmission": 20503,
  "Ġslave": 20362,
  ".isOn": 98384,
  "ĠLaguna": 93098,
  "ĠRy": 25691,
  "_vis": 15887,
  "_pkt": 42051,
  "ĠAnnual": 24947,
  "Ġparachute": 98120,
  "æĪĳä»¬çİ°åľ¨": 110693,
  "-caption": 58317,
  "waves": 57265,
  "\"": 1,
  "reen": 4442,
  "Ġmh": 72317,
  "_precision": 54618,
  "itemId": 54382,
  "åĮ»": 99286,
  "ĠQueries": 85873,
  "farm": 65811,
  "Clipboard": 65141,
  "/Getty": 20890,
  "Carol": 93272,
  "yat": 98615,
  "å¤ļåħĥåĮĸ": 106154,
  "Ġinnocent": 24243,
  "hardware": 68215,
  "ponents": 2700,
  "istrict": 8391,
  "Ġseamlessly": 60340,
  "//*[@": 37318,
  "info": 2733,
  "<Pair": 77922,
  "sql": 3544,
  "åŃ±": 121075,
  "æł¸": 71137,
  "å¯ºéĻ¢": 118116,
  "lient": 1451,
  "_restore": 62677,
  "atre": 15715,
  "_Vector": 61377,
  "åħ³çĪ±": 106913,
  "Ġeurope": 37534,
  "èĿĺ": 123447,
  "Ġmillennia": 95631,
  "ĠFiles": 17378,
  "Ġ'{\"": 52098,
  "UrlParser": 80293,
  "()\">": 69782,
  "Column": 2933,
  "æĪĳåĢĳ": 103981,
  "Ġmemory": 4938,
  "-clean": 91800,
  "Ġrestaur": 7544,
  "è¿Ļä¸Ģ": 100147,
  "uvwxyz": 64213,
  "æĪĲç»©åįķ": 118639,
  "-radius": 17710,
  ".SetKeyName": 82103,
  "ĠPlayerPrefs": 59283,
  "Brains": 68094,
  "Ġdisparities": 81957,
  "sealed": 75940,
  "_BORDER": 61235,
  "('.')": 79268,
  ".parseInt": 13691,
  "pdb": 84202,
  "_records": 31279,
  "å·²ç»ıæĪĲä¸º": 105940,
  "(State": 49196,
  "Ġmainly": 14576,
  "sterol": 32182,
  "(series": 70851,
  "çļĦäºĭå®ŀ": 109682,
  "ĠSetUp": 92101,
  "èĴĪ": 122959,
  "_DMA": 33782,
  "Ir": 48113,
  "obble": 95850,
  "ĠINCLUDED": 76451,
  "-night": 44327,
  "ĠPalestin": 16331,
  "MX": 29423,
  "slug": 15125,
  "ĠCunning": 67745,
  "aders": 6393,
  "Ġtook": 3867,
  "Ġcouncils": 60683,
  ".pre": 6225,
  "_SER": 14844,
  "ĠåĪłéĻ¤": 63073,
  "_widget": 13585,
  "Ġwaive": 90283,
  "Ġarticles": 9709,
  "/Y": 39249,
  "Ġritual": 27179,
  "Ġint": 526,
  "/crypto": 84229,
  "abolic": 56465,
  "{EIF": 30727,
  "æľīç§į": 112066,
  "=null": 18911,
  "ç¦ĭ": 123269,
  "ĠSCREEN": 35073,
  "æŀ¢çº½": 103104,
  "Ġlitre": 91369,
  ".banner": 85579,
  "æ¹Ľ": 101823,
  "Ġcosts": 7049,
  "-DD": 40175,
  "BOOK": 36625,
  "Ġservicios": 52123,
  "<Image": 46465,
  "äºĨä¸ª": 106352,
  "(snapshot": 53111,
  "creenshot": 31109,
  "ĠisConnected": 98796,
  "ĠBrowserModule": 37371,
  "_deposit": 85798,
  "Ġaftermarket": 89892,
  ",'%": 63354,
  "Ġfiling": 25480,
  "Ġpagamento": 78807,
  ")+": 7257,
  "_interval": 20541,
  "ingham": 23246,
  "tracted": 54435,
  "blocks": 21928,
  "Ġlag": 21454,
  "girl": 28552,
  "ĠProspect": 77815,
  "çĶľç¾İ": 114401,
  "uniform": 38351,
  "hammad": 33057,
  "Ġinterrogation": 65265,
  "IRT": 30521,
  "Ġsafely": 21000,
  "ĠLat": 9926,
  "Ġ<$>": 47879,
  "ĠY": 809,
  "æĪĲä¸ºäºĨ": 104989,
  "è²Ĥ": 119040,
  "[len": 24693,
  ".AddComponent": 67351,
  "ĠUILabel": 16238,
  "colm": 41837,
  "Ġbeds": 26938,
  "ĠTypeScript": 87457,
  "ledon": 82457,
  "(Token": 38584,
  "ĠWeinstein": 55582,
  "WP": 25674,
  "_contents": 16682,
  "Ġwasting": 47797,
  "åŁºç¡Ģ": 99896,
  "é¸ŁæĪĲéķ¿è®°": 115992,
  "åĿļæĮģ": 100356,
  ".openg": 73305,
  "Ġpickup": 29586,
  "ä½ĵçİ°äºĨ": 107614,
  ".vs": 94231,
  "ĠVerde": 72848,
  "=": 28,
  ".hover": 78423,
  "éĩı": 32757,
  ".GetFileName": 63566,
  "**(": 83725,
  "è§£æĶ¾åĨĽ": 109673,
  "roit": 68496,
  "ĠRw": 55294,
  "Ġzost": 95926,
  "conom": 44217,
  "_colour": 56260,
[...]
