{
  "Outlined": 56812,
  "ĠMultiple": 28811,
  "Ġracks": 65868,
  "YPD": 68314,
  "ĠGEN": 42674,
  "ç½ĳç»ľå®īåħ¨": 109939,
  "Ġcontraction": 70795,
  "vel": 889,
  "(buff": 39729,
  "Ġsubmerged": 84077,
  "åľºåĿĩ": 116709,
  "Ġnichts": 59765,
  "æ¶¨ä»·": 110584,
  "_choose": 77433,
  "çĶŁäº§åĴĮ": 110831,
  "/team": 78015,
  "(Symbol": 99095,
  "èĭ»": 119823,
  "ĠLGBTQ": 49942,
  "lek": 75776,
  "Enterprise": 85647,
  "ĠBund": 29608,
  "weighted": 79796,
  "AnimationsModule": 64179,
  "Ġteaches": 32892,
  "()._": 95071,
  "Ġha": 6386,
  ".getRequest": 38793,
  "Ġsouthern": 18070,
  "Condition": 10547,
  "ĠstatusCode": 35532,
  "-serving": 85986,
  "ĠRemark": 82733,
  "Areas": 71237,
  "REFIX": 14790,
  "çĬ°": 119572,
  "_neighbors": 55925,
  "Ġaltura": 59252,
  "duplicate": 63826,
  "æĪĳå¾Ī": 106922,
  "Ġsouls": 34726,
  "oralType": 95904,
  "<dyn": 92846,
  "Ġreserves": 29500,
  ">{@": 52878,
  "ĠFlask": 28173,
  "å®īéĿĻ": 106305,
  "åł¤": 107617,
  "atican": 43062,
  "lian": 91798,
  "æĲŀå¾Ĺ": 116956,
  "directive": 72863,
  "åıĤè§Ĥ": 104682,
  "Ġprofound": 27155,
  "éĤ¿": 122281,
  "å¦Ĥå®ŀ": 115970,
  "ä»»åĬ¡": 88802,
  "Ġbelieved": 11585,
  "Ġhart": 73928,
  "Ġcombin": 67125,
  "ç¼ºå°ĳ": 102822,
  "ĠCondition": 15180,
  "Ġczas": 47419,
  "åľ°çĭ±": 110664,
  "ancia": 24158,
  ".Render": 27386,
  "è®ºè¯ģ": 109752,
  "èĩªåĬ¨åĮĸ": 105550,
  "æĳŀ": 121355,
  "vest": 7019,
  "ĠuLocal": 81368,
  "Ġpresenta": 96080,
  "æľĥåĵ¡è¦ı": 107753,
  "_account": 13500,
  "rics": 6198,
  "äĦĢ": 149393,
  ".Name": 2967,
  "çĴŀ": 119057,
  "-around": 45616,
  "filtro": 93749,
  "ĠComments": 17681,
  "ern": 932,
  "Ġaktual": 84301,
  "ChangeListener": 31668,
  "Ġcatalyst": 50383,
  "Ġmovimiento": 88026,
  "çĤĢ": 119744,
  "åīľ": 120514,
  "ä¸ĭåĪĹ": 107976,
  "ĠDalton": 71454,
  "éĽ¢": 101606,
  "ĠHalloween": 26613,
  "ä¼ĬåĪ©": 118327,
  "Ġshrinking": 62085,
  "something": 33331,
  "Ġwallet": 15085,
  "ä¼´æľī": 115563,
  "ï¦´": 149468,
  "gerald": 56797,
  "ĠTyr": 49495,
  ".staff": 91866,
  "éĽĨä½ĵç»ıæµİ": 114590,
  "Ġskys": 84321,
  ")}}\"": 70787,
  "Ġinnovations": 44945,
  "Ġrounded": 17976,
  "ĠMusical": 56257,
  "ĠCamp": 9512,
  "ä»»ä½ķäººéĥ½": 119004,
  "Ġchina": 32525,
  "ĠEph": 68372,
  "æĶ¿åºľéĩĩè´Ń": 113365,
  "panse": 94419,
  "ipeline": 8790,
  "_SER": 14844,
  "ii": 3808,
  ">In": 65330,
  "/Q": 45274,
  "Ġpleasing": 53699,
  "ermo": 40716,
  "cene": 59351,
  "ystick": 30413,
  "AMERA": 87909,
  "Ġexcited": 12035,
  "Ġmaxlength": 29460,
  "åı¯ä»¥éĢļè¿ĩ": 105125,
  "SH": 8590,
  "Ġpremier": 20496,
  "Ġ\"\\\"": 15898,
  "çŁ³æ²¹": 102339,
  "éĢģè´§": 115796,
  "ĠNE": 7856,
  "æķ°æį®": 20074,
  "Ġaccessing": 31788,
  "ART": 2992,
  "ç´Ĭ": 103837,
  "Ġcredited": 40757,
  "Ġpoco": 38794,
  "Ġsatu": 58566,
  "éĥ½è¯´": 107743,
  "Ġcathedral": 79150,
  "Ġprecipitation": 59950,
  "Ġpreserve": 21129,
  "ç¬¬ä¸Ģæī¹": 109557,
  "phins": 39672,
  ".readlines": 37226,
  "ĠHuang": 58409,
  "(W": 14031,
  "ĠHonolulu": 81540,
  "Ġacknowledging": 60608,
  "Ġmodules": 13454,
  "analyze": 93221,
  "æŃ©": 143852,
  "Ġvacuum": 28202,
  "ĠMarilyn": 76360,
  "/compiler": 82694,
  "ĠRaleigh": 64083,
  "<void": 16958,
  "æıĴ": 101255,
  "/use": 62272,
  "_zone": 28692,
  "æľīçĶ¨": 115404,
  "care": 10506,
  "]+\"": 52864,
  "xb": 7929,
  "American": 28418,
  "ï¼Įå¹¶": 90395,
  ".doc": 23671,
  "DSP": 90732,
  "Ġalta": 45362,
  "ĠRx": 35376,
  "çĿĢçľ¼äºİ": 117322,
  "('*": 32014,
  ".Unit": 25159,
  "eldig": 98411,
  "ĠSight": 65337,
  "Base": 3978,
  "RegExp": 50192,
  "consume": 84494,
  "ipation": 48586,
  "ptoms": 51173,
  "spread": 58195,
  "rov": 39394,
  "Ġconstruct": 9245,
  "ï½Ĩ": 144862,
  "SetName": 69778,
  "ĠXiao": 65590,
  "çĥŁåı°": 106704,
  "Ġpremises": 33922,
  "Ġretiring": 59773,
  "_probe": 49108,
  "ç±Į": 119187,
  "Ġeruption": 79402,
  "^{-": 87210,
  "æ¸Ķæ°ĳ": 116613,
  ".xls": 74708,
  "[label": 67617,
  "_DIRECTORY": 43814,
  "Ġhamm": 82565,
  "çİ¿": 122398,
  "ĠcurrentNode": 46299,
  "Ġscr": 9224,
  "IOD": 33291,
  "He": 1519,
  "ä¸Ģå¤§åłĨ": 117582,
  "Ġplung": 52772,
  ".notifications": 74915,
  "-dr": 18643,
  "]).": 10697,
  "-pl": 32107,
  "Ġperc": 43463,
  "ĠDerm": 75408,
  "Ġendl": 5229,
  "ï¨ļ": 151155,
  "Ġrespecto": 88060,
  "LT": 27404,
  "ĠSUV": 38673,
  "ĠCoupe": 80420,
  "(proj": 92047,
  "çŃĶæ¡Ī": 102349,
  "Ġwet": 14401,
  "Ġapproved": 11792,
  ".AsyncTask": 82401,
  "ure": 552,
  "åľ£": 100189,
  "ĠTie": 58725,
  "åĨľçī§": 112001,
  "=\"\">": 18261,
  "_CTRL": 19170,
  "_BOOL": 32491,
  "ä¸Ģäºĭ": 110916,
  "ĠIndie": 76339,
  "ĠComplex": 22096,
  ".netbeans": 46329,
  ".CreateCommand": 79811,
  "imgs": 58575,
  "åıĬ": 81217,
  "æĸĩåĮĸèīºæľ¯": 112817,
  "Ġcollected": 14548,
  "ĠgetName": 20299,
  "arket": 54560,
  "zl": 67957,
  "æİĲ": 114175,
  "rowable": 14941,
  ".username": 12383,
  "Ġow": 15570,
  "_SOC": 67978,
  "ĠDom": 20751,
  "Ġbast": 31977,
  "æŃ¸": 109718,
  "çļĦåĪ©çĽĬ": 107588,
  "Ġcomed": 62013,
  "toggleClass": 48279,
  "hibition": 58973,
  "ocused": 20387,
  "ĠInput": 5571,
  "ĠSQ": 51618,
  "-md": 4433,
  "ervoir": 75850,
  "ymax": 56288,
  "è´¸æĺĵ": 100726,
  "/aws": 41273,
  "Ġbillboard": 85206,
  "Ġauthorized": 18630,
  "æ¨±æ¡ĥ": 114558,
  "Ġrefuge": 14510,
  "Ġtratt": 92934,
  ".reserve": 48520,
  "æĪĳçļĦ": 97611,
  "ĠLydia": 91206,
  "Ġuncomp": 65537,
  "Ġtraits": 24055,
  "Ġaustralia": 43232,
  "è£ī": 120804,
  "ke": 440,
  "_limit": 14763,
  "bindung": 90226,
  "æĭŃ": 103839,
  "Ġarrogant": 65368,
  "MODE": 22808,
  "é£İéĻ©": 101052,
  "$result": 14244,
  "ijke": 50405,
  "Ġslug": 24470,
  "æ³°": 100396,
  "Ġworsh": 81978,
  "åħ¨å¥Ĺ": 113823,
  "olicies": 42038,
  "Ġcommunicate": 19032,
  "_blocking": 91449,
  ".values": 10656,
  "drFc": 70266,
  "ĠViolet": 73474,
  "Ġcollaborate": 50596,
  "Ġbathing": 72409,
  "ĠLadies": 48013,
  "erged": 51525,
  "Ġcanadian": 87598,
  "mouse": 13237,
  "æĬĹä½ĵ": 116473,
  "ä¸ĵè®¿": 111481,
  "åĽ°æī°": 107526,
  "ĠCostume": 63689,
  "Ġcongregation": 58535,
  "æģ¨": 101407,
  "ĠWestern": 10867,
  "declaration": 80383,
  "Ġkidneys": 80860,
  "+-+-+-+-+-+-+-+-": 72713,
  "uggling": 61931,
  "æĹ¥æĻļéĹ´": 114756,
  "ĠThis": 1096,
  "Ġmetab": 19635,
  "Ġshaders": 67550,
  "ĠRichie": 98974,
  "pt": 417,
  "Ġheroic": 55275,
  "ĠMumbai": 34712,
  "éĥ¦": 120075,
  "awa": 14077,
  "Capability": 63746,
  "Ġambit": 29398,
  "Ġuse": 990,
  "ãŁĥ": 122318,
  "ĠMCS": 93193,
  "gren": 74265,
  "iens": 79363,
  "_submenu": 96733,
  "èĩ³åħ³": 107939,
  "Ġdied": 8469,
  ".backend": 37187,
  "thritis": 39385,
  "Ġborders": 23806,
  "_BINDING": 85172,
  "ĠXCT": 15929,
  "Ġmaar": 31591,
  "Ġrestaurant": 10729,
  "Ġankles": 89613,
  "inite": 15856,
  ".debug": 7883,
  "ĠFach": 78765,
  "Ġrecorder": 48835,
  "---------": 22738,
  "-function": 33749,
  "Ġfinder": 43730,
  "Artifact": 85578,
  "åĪ©çĶ¨": 100152,
  "-ios": 88119,
  "(statearr": 98102,
  "Ġbelievable": 91395,
  "éĿŀæ³ķ": 104692,
  "vara": 95950,
  "atchet": 83992,
  "å°ĩ": 101110,
  "å¿«ä¸ī": 102952,
  "é³Ŀ": 122074,
  "OutOf": 31731,
  "ä¸»åĭķè¨»åĨĬ": 118754,
  "ister": 1571,
  "Ġweights": 14324,
  "ç¿Ĭ": 120758,
  "Ġstrained": 72679,
  "(\".\"": 73133,
  "éĨ¾": 123788,
  "Direct": 16027,
  "unker": 79929,
  "å³Ĵ": 120139,
  "ï¦ĸ": 151136,
  "ĠBurk": 70640,
  "åł´åĲĪ": 125725,
  "æĿĢæŃ»": 109256,
  "_consum": 69870,
  "ĠFried": 30251,
  "å³£": 120137,
  "Ġseafood": 52305,
  "ä¸Ńå¿ĥåŁİå¸Ĥ": 114976,
  "ynomial": 25358,
  "Ġdispatch": 6845,
  "nak": 42874,
  "mt": 2501,
  "yyvsp": 38631,
  "adx": 38285,
  "emphasis": 86192,
  "ç»Ĩå¿ĥ": 110222,
  "åĲįåĪĹåīįèĮħ": 117107,
  "GPU": 49891,
  "Ġante": 39424,
  "azine": 9918,
  "Ġniet": 20791,
  "ĠJon": 12285,
  "ĠUniform": 47889,
  "writer": 18189,
  "/connect": 78489,
  "èŀł": 121765,
  "Ġantennas": 86751,
  "_colors": 33670,
  "Ġsegmented": 84945,
  "ĠinitWithFrame": 30067,
  "payment": 13755,
  "express": 13788,
  "ĠDestructor": 59068,
  "prove": 34463,
  "Ġsluts": 57595,
  "apple": 22377,
  "journal": 42518,
  "å¼·": 102391,
  "ĠVariables": 21419,
  "è¿ĺä¼ļ": 104342,
  "èį¥": 120046,
  "èĩªè§ī": 104932,
  "èģ±": 121706,
  "ĠDoesn": 48832,
  "pciones": 77368,
  "éĹª": 99869,
  "Ġrsa": 68570,
  ".exec": 15776,
  "INCLUDING": 18843,
  "Ġmoeten": 92565,
  "_CONSOLE": 89292,
  ".DAO": 92789,
  "ĠOver": 6065,
  ".jsx": 40940,
  "ResultSet": 33208,
  "Letter": 34264,
  "åľ°çĲĨä½įç½®": 111692,
  "uploader": 86790,
  "éªĩ": 116291,
  "å¾Į": 73382,
  "={(": 16817,
  "<Member": 97939,
  "ĠBitmap": 17533,
  "ickle": 25606,
  "æĿŁç¼ļ": 113706,
  "_DECL": 22732,
  "ĠLS": 29202,
  "Ġalways": 2677,
  "Ġcipher": 31088,
  "IMITIVE": 86457,
  "\\Type": 42497,
  "ĠAgree": 83203,
  "memcpy": 81084,
  "è¯ĸ": 119974,
  "roller": 1468,
  "åľĸ": 102701,
  "ĠBrewing": 43113,
  "å¤ļäºº": 102823,
  "Ġbeaut": 4912,
  "ä¸ĢåĿĹ": 104474,
  "åįŁ": 119562,
  "ĠMST": 84280,
  "xed": 51319,
  "Ġsane": 61100,
  "ĠPIO": 86521,
  "leur": 34977,
  "éĽŀ": 112527,
  "wind": 19154,
  ".GridView": 74656,
  "ĠTavern": 80300,
  "_pwm": 70985,
  "Ġcomprar": 53409,
  "UGC": 60902,
  "æľī": 18830,
  "ĠFol": 39455,
  "Ġrid": 9279,
  ".getLeft": 84618,
  ";\">": 12350,
  "Ġcaution": 27830,
  "-package": 44135,
  "_TASK": 26315,
  "ĠUns": 61043,
  "Ġxx": 20908,
  "èĪŃ": 122665,
  "ogne": 95341,
  "Ġhandles": 13469,
  "Ġdataset": 10337,
  "å°ıå¥³åŃ©": 112060,
  "France": 49000,
  ".Handled": 77388,
  "ĠTObject": 31711,
  "Ġconsiders": 31138,
  "Ġpromotes": 38890,
  "flation": 64149,
  "ĠModern": 18265,
  "exc": 39441,
  "Modules": 28201,
  "éĴ«": 120147,
  "ĠEnjoy": 22656,
  ".replaceAll": 46687,
  ".ToTable": 94720,
  "å¸¦ä¸Ĭ": 109914,
  "horia": 95629,
  "éĢĨè¡Į": 118587,
  "å¥½äºĭ": 107841,
  "Ġescrit": 57444,
  "Ġquale": 83484,
  "Ġopponents": 19386,
  "SAMPLE": 82725,
  "æ¤Ĩ": 122979,
  "æĿ¥åĪ°äºĨ": 107988,
  "Ġoptimum": 53667,
  "Ġenclave": 97712,
  "epochs": 46529,
  "kont": 39720,
  "itation": 7556,
  "å±ķçİ°äºĨ": 111358,
  "å¾ĹåĪĨ": 108305,
  "isicing": 55946,
  "æĪĲäº¤éĩı": 111290,
  "Secure": 49813,
  "Ġhurricanes": 89027,
  "è¸º": 121607,
  "Ġsoftball": 95268,
  "Ġstopped": 10497,
  "ĠPet": 11333,
  "_Struct": 72246,
  "(done": 34232,
  "acles": 18209,
  "_testing": 70962,
  "åľºä¸Ĭ": 109709,
  "Nonnull": 32561,
  "/assert": 71625,
  "åĬ³ç´¯": 118945,
  "uras": 19319,
  "ActionCode": 88941,
  "Ġjul": 40538,
  "è¢ª": 122718,
  "_operand": 69259,
  "æĦıè§ģåıįé¦Ī": 113986,
  "è±Ĩ": 99955,
  "éĩįä¸Ńä¹ĭéĩį": 115932,
  "ĠContinue": 15003,
  "çļĦåīįæıĲä¸ĭ": 108061,
  "èĳº": 120878,
  "lineEdit": 92547,
  ".favorite": 91464,
  "ä¹ĭå¾Į": 106398,
  "ierce": 88968,
  "_CHARSET": 95104,
  "TRAIN": 98258,
  "_high": 22680,
  ".getRuntime": 92615,
  "ĠDIE": 71406,
  "person": 8987,
  "ĠSnapdragon": 82055,
  "_secure": 73088,
  "åħ¶ä¸Ńæľī": 111118,
  "è½®": 99620,
  "WithTitle": 66043,
  "Details": 7799,
  "Ġaltru": 92492,
  "loquent": 20522,
  ".ctx": 30608,
  "Ġmedicines": 38553,
  "æ¼ī": 121509,
  "Nil": 19064,
  "Instrument": 56324,
  "æģĲæĢķ": 105481,
  "Action": 2512,
  "Ġsick": 14036,
  "Ġbud": 36708,
  "_CODE": 10020,
  "Ġderivation": 95254,
  "Ġprotect": 6016,
  "Ġkinds": 12829,
  "Ġintuitive": 41679,
  "Price": 6972,
  "DRV": 67882,
  "Ġreplacement": 13723,
  "ĠgetFile": 62442,
  "ISTR": 29503,
  "ç¡ħ": 102831,
  "cth": 91821,
  "Ġcerco": 70917,
  "è£¼": 123268,
  "(random": 25110,
  "èĳµ": 113439,
  ".BackColor": 12971,
  "year": 3157,
  "Really": 48785,
  "Ġvel": 9054,
  "ĠGetType": 66859,
  "-ignore": 43171,
  "ligne": 90030,
  "ĠELSE": 52926,
  ".interval": 48205,
  "Ġutilized": 33616,
  "çĶŁäº§è®¾å¤ĩ": 117434,
  "çĶ¨é¤Ĳ": 111554,
  "ä¸įè¶³ä»¥": 115645,
  "slides": 65821,
  ".setCurrent": 54952,
  "è²Įä¼¼": 114513,
  "Vol": 36361,
  ".bad": 31563,
  "è°¼": 123218,
  "Ġadmon": 81985,
  "éĺŁéķ¿": 106123,
  "ĠTRACK": 73502,
  "éĽ¨æ°´": 110375,
  "IW": 81296,
  "ĠFresh": 29160,
  "more": 6384,
  "Hash": 6370,
  "éħĿéħ¿": 117829,
  "DataType": 22653,
  "-dominated": 89623,
  "Ġjadx": 57543,
  "è®¡åħ¥": 117286,
  "ĠDark": 12258,
  "ä¹¦åĨĻ": 108201,
  "Ġgorgeous": 23511,
  "ĠHayward": 92205,
  "ĠHero": 16498,
  "æİĮæİ§": 110402,
  "ĠLia": 83657,
  "ĠImaging": 64506,
  ".layers": 21004,
  "Ġideology": 33549,
  "ĠOtherwise": 18214,
  "ä¸¾èµ·": 114209,
  "åķıé¡Į": 104832,
  "ĠWAN": 98802,
  "äłĢ": 150806,
  "ĠRodrig": 36385,
  "ĠIMPORTANT": 67140,
  "ä½ĵåĪ¶æĶ¹éĿ©": 109324,
  ".ends": 25932,
  "ĠImports": 66098,
  "grow": 66218,
  "-count": 26580,
  ".keyCode": 31575,
  "Ġspeak": 6468,
  "xffff": 20518,
  "Ġconsulta": 47562,
  "æĹłè®º": 100783,
  "unicorn": 92357,
  "ç¢±": 106939,
  "SERVER": 12915,
  "ettle": 47626,
  "ĠPACKET": 73205,
  "Ġfelon": 79914,
  "ĠExit": 18995,
  "ä»Ģä¹ĪæĦıæĢĿ": 110791,
  "ĠBUILD": 47697,
  "æ´ģ": 99776,
  "ĠFilters": 45012,
  "Ġcocci": 94909,
  "èľ®": 121416,
  "Objective": 78306,
  "Ġchoosing": 18774,
  "nore": 93066,
  "Ġorth": 29199,
  "Ġexposure": 14338,
  "ĠKens": 73023,
  "æł¡åĽŃ": 104262,
  "Ġfolk": 27936,
  "Mb": 87313,
  "Ġpartial": 7130,
  "Diagram": 92895,
  "ĠAway": 41481,
  "é©¾": 99646,
  "Ġstories": 7343,
  "çĲª": 106707,
  "ĠAsyncCallback": 91436,
  "Ġwelfare": 22634,
  "è²Į": 99995,
  "aware": 19541,
  "Ġrisult": 88112,
  "-SA": 92214,
  "{s": 84386,
  "Ġnag": 36528,
  "Ġkull": 142134,
  "çĻ½è¡£": 117491,
  "Ġphysiological": 52094,
  "Ġmonstr": 65504,
  ",,,": 60723,
  "Ren": 34625,
  "Steps": 33951,
  "iving": 2249,
  "season": 16798,
  "scriptions": 29966,
  "çĳľä¼½": 111630,
  "Aqu": 91213,
  "ĠsetStatus": 56304,
  "å·¥ä½ľæķĪçİĩ": 113882,
  "èīļ": 123636,
  ".NAME": 49065,
  "made": 26912,
  "Binary": 21338,
  "Hall": 71845,
  "nw": 61227,
  "/connection": 93406,
  "Ġwings": 26204,
  "amped": 32198,
  "è·¨å¢ĥçĶµåķĨ": 109227,
  "etics": 24279,
  "åı¬åĶ¤": 110641,
  "èĵŁ": 121131,
  "ĠSpecs": 79892,
  ".der": 75819,
  "Ġrst": 55515,
  "Ġduplicate": 22513,
  "çģ¯ç¬¼": 114154,
  "ç¡Ĵ": 113719,
  "ĠGeg": 98863,
  "éĥ½å·²ç»ı": 108445,
  "_bin": 21816,
  "Ġdim": 5103,
  ".ceil": 29646,
  "ighbor": 19247,
  "ĠgetTitle": 58832,
  "-secondary": 29383,
  "Ġprogrammes": 37637,
  "è¾ĥå°ĳ": 109186,
  "contracts": 63322,
  "Ġevents": 4357,
  "æī¾åĩº": 109363,
  "ippet": 21581,
  "ï§Ĺ": 149257,
  "cuador": 49262,
  "å§ŀ": 122547,
  "predictions": 91327,
  "åĺīå®¾": 105657,
  "ç®¡ç½ĳ": 110380,
  "ĠAssurance": 83782,
  "nullptr": 41132,
  "ĠBeach": 12721,
  "åħħçĶµæ¡©": 114275,
  "\\v": 72659,
  "orThunk": 42844,
  "Ġpatter": 91993,
  "Ġwenig": 69987,
  "/users": 19178,
  "ĠsetMessage": 66891,
  ".statistics": 91684,
  "å¸Ĥéķ¿": 102975,
  "autoreleasepool": 87422,
  "Ġinformatie": 97255,
  "Ġunderstood": 15985,
  "ĠPostal": 54217,
  "Ġkind": 3093,
  "piration": 28479,
  "-defense": 57698,
  "COD": 33791,
  "Ġcontrovers": 13365,
  "(freq": 65159,
  "let": 1149,
  "åįĥçĵ¦": 118530,
  "ĠUID": 37428,
  "ä»·æł¼": 97480,
  "Ġcult": 4511,
  "errMsg": 98871,
  "Ġeigen": 28724,
  "/mat": 84600,
  "owntown": 15508,
  "Ġemail": 2551,
  "-cond": 83376,
  "è¯Ķ": 119973,
  "Ġprow": 47558,
  "ĠVM": 17792,
  "-[": 40995,
  "hausen": 76147,
  "ĠMarch": 5470,
  "Ġbesides": 27758,
  "ApiClient": 56584,
  "èĩªå·±åĸľæ¬¢": 112498,
  "histoire": 89346,
  "ĠIntelliJ": 94082,
  "Ġfootage": 21852,
  "(Vec": 49923,
  "ĠSta": 59820,
  "Ġpins": 26944,
  "shirt": 48372,
  "ĠPIC": 60606,
  "Ġhac": 53695,
  ".styles": 57640,
  "Ġcmd": 5439,
  "Ġposture": 47278,
  ")','": 70073,
  "Ġsparkle": 95070,
  ".Est": 84972,
  "ĠPremiership": 96888,
  "è¢«è®¤ä¸º": 114532,
  "Mounted": 90789,
  "Ġfaint": 37578,
  "lap": 15958,
  "alarm": 56780,
  "å¹³å¸¸": 106533,
  "çļĦçŃĶæ¡Ī": 111230,
  "mom": 60774,
  "ughs": 31343,
  "çĿĢåĬĽæīĵéĢł": 117822,
  "Ġalkal": 65687,
  "/music": 77770,
  ".myapplication": 79989,
  "/register": 37837,
  "ĠUA": 45570,
  "_Run": 84158,
  "Ġdirects": 66046,
  "Living": 44505,
  "åĮ»çĸĹä¿ĿéĻ©": 112342,
  "æĹłçŁ¥": 116227,
  "ĠHood": 35343,
  ".await": 67776,
  "ĠNotifications": 52938,
  "Ġdeb": 4222,
  "ĠReply": 17841,
  "JE": 40329,
  "Ġsodom": 82637,
  "Ġhuis": 67609,
  "ĠXCTest": 41240,
  "æ¸¸æ³³": 107140,
  "ĠPreserve": 81306,
  "requent": 69691,
  "Ġham": 13515,
  "Ġderiv": 18763,
  "UIStoryboardSegue": 89450,
  "ĠRoulette": 79504,
  "ĠCarpenter": 67038,
  "_simps": 79572,
  "åĪ«è¯´": 110725,
  "-automatic": 94473,
  "åħļ": 99210,
  "HAS": 78230,
  "åĿĲ": 99901,
  "ç¤¾åĽ¢": 110182,
  "åıĺåĬ¨": 106443,
  "xy": 4130,
  "erture": 41847,
  "Ġoxygen": 23552,
  "åĩ¤åĩ°": 102729,
  "sta": 20491,
  "å§Ķåĳĺ": 101122,
  "eng": 826,
  "udies": 57687,
  "ĠDATA": 14112,
  "_review": 38661,
  "ĠBec": 31046,
  "Ġproduct": 1985,
  "åıĮæĸ¹": 104002,
  "buch": 72043,
  "_Tick": 73581,
  "ĠNavBar": 78666,
  "Ġwindshield": 73939,
  "SETTING": 48374,
  "haul": 43156,
  "ç½®äºİ": 113569,
  "illa": 6241,
  "æ©±æŁľ": 114242,
  "Ġmaintenant": 73599,
  "ĠSchwartz": 64785,
  "æĬķæłĩ": 101693,
  "ĠTennis": 57151,
  "ĠCavaliers": 71856,
  "paralle": 64761,
  "è¡į": 103403,
  "(DEFAULT": 43175,
  "Ġode": 72894,
  "ecess": 4005,
  "stantiate": 42251,
  ".top": 8772,
  "åĲ¯çĶ¨": 111456,
  "ĠMarxist": 68950,
  "ervations": 45821,
  "NavBar": 60413,
  "Bitcoin": 48287,
  "ĠSimulator": 52238,
  "(win": 36087,
  ".avatar": 36169,
  "Ġsanit": 19812,
  "ĠuseRouter": 93915,
  "Ġaddition": 5256,
  "&": 5,
  "Ġresponses": 14507,
  "çĦĺ": 120552,
  "éŀ²": 122005,
  "Ġembraces": 82387,
  "ä¸įå¿į": 114811,
  "Axes": 56426,
  "_wall": 50731,
  "åħĥ": 23305,
  ".ErrorMessage": 73628,
  ".springframework": 4029,
  ".good": 59569,
  "ries": 4019,
  ".readValue": 93773,
  "æŁłæª¬": 112530,
  "åįĩåĢ¼": 114347,
  "Ġnei": 55997,
  "Ġparaph": 62230,
  "å°±è¿Ļæł·": 106041,
  "è®¸åı¯è¯ģ": 104910,
  "-driving": 59711,
  "ego": 13243,
  "ĠROAD": 82193,
  "ĠAp": 5232,
  "Ġ(*)": 44048,
  "Ġinterrog": 36439,
  "Comparator": 38658,
  "ĠMicrosoft": 5100,
  "Ġflutter": 73783,
  ".EOF": 86492,
  "éĻĮ": 101583,
  "èİ·åıĸ": 45912,
  "æĬĹæ°§åĮĸ": 118283,
  "Ġexactly": 6896,
  "æ¸ħçĪ½": 112477,
  ".browser": 38611,
  ">\";": 31923,
  "ĠBallet": 86636,
  "agine": 23392,
  "/A": 10360,
  ".-": 12612,
  "å¢ŀåĬłåĢ¼": 113661,
  "hrs": 65262,
  ".googleapis": 19758,
  "bound": 10891,
  "Ġpunishing": 74886,
  "åĬŀåŃ¦": 105642,
  "æģ½": 120244,
  "truth": 58577,
  "Ġasses": 79040,
  "Ġmz": 95392,
  "VEST": 70202,
  "Ġprofessionals": 15387,
  ".swift": 13290,
  "ç¤¾ä¼ļåıĳå±ķ": 108256,
  "ĠTEST": 13602,
  "èº«ä½ĵåģ¥åº·": 108562,
  "åıĻ": 101009,
  "ĠradioButton": 75420,
  ".DataGridViewTextBoxColumn": 23228,
  "åĨľä¸ļç§ĳæĬĢ": 116847,
  "æ·±åĪ»çļĦ": 110312,
  "orian": 22090,
  "_BG": 62290,
  "ĠRG": 50388,
  "Ġrains": 61455,
  "ĠProbably": 37154,
  "IQUE": 39670,
  "_VOLUME": 60371,
  "/year": 84900,
  "ĠGraphic": 43951,
  "Ġplunged": 74703,
  "Ġpolicym": 61418,
  "æĹ¶æķĪ": 115585,
  "æıĨ": 120870,
  "/xml": 36524,
  "_backend": 40011,
  "Ġdegree": 8381,
  "OLA": 90021,
  "è®°èĢħäºĨè§£": 115878,
  "çļĦè¯Ŀ": 100363,
  ".train": 19651,
  ".NotNull": 42099,
  "Ġemergence": 48079,
  "Ġrij": 69345,
  "ĠJoshua": 39492,
  "Ġrainy": 62757,
  "File": 1703,
  "-mort": 89553,
  "ĠSick": 81311,
  "Ġsiz": 64896,
  "ayload": 6989,
  "_float": 17586,
  "ĠAppend": 29807,
  "Ġlinewidth": 47847,
  "Ġopp": 3995,
  "ĠLondon": 7148,
  "è¯®": 120254,
  "_ASS": 18676,
  "fra": 42289,
  "(seconds": 44608,
  "ĠGeoffrey": 88139,
  "<?=$": 37970,
  ".innerText": 35445,
  ".ncbi": 98816,
  "çıŃåŃĲ": 101308,
  "ĠAde": 62040,
  "Ġweekday": 46578,
  "çĲı": 120554,
  "ports": 3394,
  "ĠFTP": 47550,
  "uforia": 69754,
  "å®¶ä½ı": 112567,
  ")#": 43385,
  "Ġpopping": 49849,
  "ichten": 28698,
  "Ġpur": 3999,
  "æĹłä¸į": 112249,
  "èĩ´çĻĮ": 117654,
  "PATCH": 31165,
  "Ġvalidation": 10519,
  "Xd": 34176,
  "difficulty": 71864,
  "Ġexclusive": 13761,
  "çĶ¨èį¯": 107681,
  "bere": 61286,
  "å®ŀå®ŀåľ¨åľ¨": 111155,
  "PageSize": 45917,
  "olum": 1132,
  ".By": 48906,
  "_parser": 18517,
  "çİ¦": 119793,
  "æħĭåº¦": 117384,
  "ĠPirates": 52405,
  "èĴº": 121133,
  "Ġinval": 48044,
  "-vous": 44225,
  "åģļå¥½": 101906,
  "éħĴç²¾": 109199,
  "Ġdiamond": 22205,
  "findAll": 51389,
  "Ġvals": 28356,
  "è·µ": 100051,
  "ä¸īåįģ": 105134,
  ".currentTarget": 37010,
  "_TEXTURE": 17208,
  "}while": 84298,
  "CRET": 22536,
  "ç²¥": 106864,
  "Ġdesk": 18010,
  "Ġtq": 35885,
  "ErrMsg": 75449,
  "/image": 23349,
  "ĠWorse": 86804,
  "ĠHait": 42402,
  "åĪĽå»ºå·¥ä½ľ": 117495,
  "ungeons": 50017,
  "ç°½": 113230,
  "bird": 22592,
  "è¿ģç§»": 113274,
  "abal": 62794,
  "éªı": 108120,
  "Ġemphasized": 45628,
  "Beta": 64811,
  "_connected": 43276,
  "Ġtube": 13705,
  "-pr": 26650,
  "AWN": 99103,
  "åĿĳ": 104527,
  "ĠAssociate": 32368,
  "Projectile": 74817,
  "èĢķ": 100974,
  ".setParent": 86735,
  "::__": 18606,
  "å¹²ç»Ĩèĥŀ": 118032,
  "ĠScarlett": 95472,
  "ĠDisplays": 49606,
  "Ġbased": 3118,
  "ĠBloc": 71396,
  ".FlatStyle": 27809,
  ".Concat": 67599,
  "è¿ĽæŃ¥": 101300,
  "ĠMessageBox": 10299,
  "igraph": 53867,
  ".gridy": 71682,
  "Anne": 77939,
  "Ġearthqu": 29750,
  "ĠGrowing": 59680,
  "Ġmapa": 68110,
  "(ml": 90277,
  "(tv": 75624,
  "graph": 4439,
  "ĠCFG": 46825,
  "çĶµç½ĳ": 105102,
  "ĠCincinnati": 35139,
  "ained": 2627,
  "callback": 13494,
  "Ġfichier": 44320,
  ".columnHeader": 66618,
  "ĠJimmy": 27833,
  ".wx": 94668,
  "ASSES": 48594,
  "igail": 84206,
  "Ġspit": 55987,
  "ç»ĪçĶŁ": 117234,
  ".Getter": 64668,
  "Ġrapes": 95230,
  "Observers": 80297,
  "Ġmixes": 62426,
  "ĠDialogResult": 36510,
  ">Edit": 75177,
  "è§£èĦ±": 115616,
  "ament": 2838,
  "Ġcour": 2081,
  ".parallel": 71457,
  "frican": 47793,
  "ihat": 80877,
  "æŁĦ": 107570,
  "ĠJasmine": 81352,
  "å¼ĢèįĴæĹ¶æľŁ": 117288,
  ".getIndex": 75897,
  "_journal": 85075,
  "plash": 19493,
  "Ġcrossed": 27031,
  "ĠEnable": 18567,
  "antu": 91306,
  "Ġbombings": 73379,
  "Ġaspire": 83511,
  "ĠMalaysian": 65431,
  "Ġdemande": 61063,
  ".Phone": 48894,
  "æĬĹæĹ¥": 113538,
  "çĮĽçĦ¶": 115642,
  "Ġtolerate": 49034,
  "ocaust": 37926,
  "strain": 77626,
  "ocalyptic": 68648,
  "_eth": 57757,
  "_sf": 56182,
  "ĠUran": 79670,
  "Ġglyphicon": 21997,
  "æĮ¥æīĭ": 117057,
  ".manager": 32815,
  "ĠFarms": 67021,
  "å®µ": 111962,
  "Ġchants": 87487,
  "/documents": 97090,
  "abilidad": 54262,
  "æįķ": 100321,
  "Ġ('$": 59877,
  "Ġcontinues": 9539,
  "ä¸Ģå¿ĥ": 110549,
  "å¤§è·Į": 114521,
  "Ġindigenous": 38578,
  ".workflow": 72774,
  "ĠCooke": 98739,
  "iful": 4985,
  "ĠFire": 6647,
  "ĠfirstName": 21046,
  "å¤§ä¼ļ": 100770,
  ".vs": 94231,
  "ophile": 67446,
  "æĻ®éĢļ": 100714,
  "Ġlegalized": 76992,
  "çĺ¸": 119507,
  "Ġcarbohydrate": 66632,
  "Ġtransformer": 42578,
  "production": 22627,
  "_Point": 52838,
  "_Character": 84529,
  "Ġdram": 13548,
  "ĠUR": 34414,
  "ĠiPad": 22271,
  "Ġinstructional": 71245,
  "æĬĢè¡ĵ": 107502,
  "çº¢éħĴ": 113941,
  "å£½": 116349,
  "emb": 8858,
  "æ°¤": 120413,
  "Ġlending": 39551,
  "Ġjig": 94064,
  "ĠglGetUniformLocation": 92720,
  "ĠDup": 50283,
  "_HEALTH": 99028,
  "æ¶¨åģľ": 109437,
  ".Ref": 18369,
  "laughter": 51783,
  "Ġpressure": 7262,
  "attice": 31791,
  "Ġlinked": 10592,
  "(\"\"\"": 49245,
  "æ±´": 119754,
  "Ġterribly": 49036,
  "Ġachieving": 31045,
  "_AV": 29386,
  "Ġtanks": 25866,
  "Ġagli": 98682,
  "ä½ı": 99296,
  "Ġaccession": 83945,
  "poke": 48098,
  "FAST": 59206,
  "ĠOSP": 96539,
  "_MD": 46497,
  "ĠLebens": 65314,
  "Ġdiscrete": 43179,
  "çļĦæ¢¦æĥ³": 108955,
  "ĠEssen": 98675,
  "keys": 10563,
  "(nullable": 34885,
  "Ġglowing": 48492,
  "ids": 3365,
  "ç¥¨": 94444,
  "oons": 28539,
  "_MESSAGE": 14641,
  "_append": 26041,
  "å¹¸å¥½": 114716,
  "FileType": 71873,
  "è°ĥ": 47872,
  "prior": 64233,
  "ĠPortal": 33731,
  "_BR": 26543,
  ".offsetTop": 95298,
  "Ġusado": 97343,
  "Ġfranca": 34747,
  "Ġrunning": 4303,
  "Ġbz": 80167,
  "Ġgrape": 51152,
  "(rad": 84044,
  "ĠConsent": 92387,
  "çĶµåİĭ": 109353,
  "åı¯è§ģ": 101479,
  "ĠGermany": 9856,
  "Ġdoors": 14038,
  "Ġresonance": 56981,
  "yleft": 62648,
  "ĠArthur": 27586,
  ".cid": 82886,
  "ãĢ³": 147486,
  "ç»Ŀå¤§å¤ļæķ°": 108938,
  "-comment": 45666,
  "åįİå¤ı": 106740,
  "oodles": 97121,
  "å¾ĪæŃ£å¸¸": 117357,
  "Ġskate": 42778,
  "å½±éŁ³": 115608,
  "Ġrobert": 88893,
  "Ġspicy": 47251,
  "åĲ£": 119704,
  "èĻº": 120084,
  "ä¸ĢäºĽ": 101883,
  "ĠMarg": 23201,
  "utc": 28355,
  "ĠALOG": 79803,
  "ĠMainPage": 70076,
  "Ġkissing": 51046,
  "=@": 33678,
  "urved": 79527,
  "Ġsucking": 43525,
  "Ġenviar": 62778,
  "ĠTextInputType": 92551,
  "Ġmanipulation": 33686,
  ":add": 38488,
  "æĿĳéķĩ": 114028,
  "_squared": 54641,
  "_vi": 97319,
  "ĠRodrigo": 77768,
  "Ġnursing": 27356,
  "ĠTrees": 58884,
  "å¢ŀæĮģ": 113070,
  "Multiplier": 66873,
  "ĠTomb": 56172,
  "è®©åŃ©åŃĲ": 106848,
  "ĠRick": 22388,
  "Ġspeaking": 12094,
  "åĴĴ": 107619,
  "_assignment": 51891,
  "telefono": 51208,
  "classnames": 55113,
  ",retain": 95287,
  "ĠScandinavian": 84574,
  "æ´Ħ": 120225,
  "ToStr": 67557,
  "ilmington": 74534,
  "ATER": 19157,
  "dings": 24602,
  "äºĨä¸Ģç³»åĪĹ": 111119,
  "_excerpt": 66947,
  ".lwjgl": 98000,
  "('\"": 32756,
  "ĠKiev": 61625,
  "æ¨Ļ": 101590,
  "errupted": 80853,
  "ä¹Łä¸įä¼ļ": 104871,
  "çŁ¥è¯Ĩäº§æĿĥ": 104842,
  "æ°¨": 101810,
  ".money": 59909,
  "(Texture": 78921,
  "åĽ¢å§Ķ": 118436,
  "alchemy": 34905,
  "è±ªè½¦": 118993,
  "BSITE": 76846,
  "æ²®": 103857,
  "ĠDebt": 57554,
  "å·¥ç¨ĭé¡¹çĽ®": 110341,
  "dis": 4243,
  "(isolate": 82669,
  "quirer": 50792,
  "æ¸ħåįİ": 103269,
  "Hp": 58363,
  "inda": 17416,
  "çĶŁç´ł": 102602,
  "ĠCobra": 84475,
  "çĥĪ": 99865,
  "Ġindeed": 12824,
  "Ġpregnant": 20280,
  ".Config": 10753,
  "creat": 94739,
  "Ġhier": 12412,
  "Ġsurged": 83907,
  "lander": 34003,
  "Ġisolation": 30298,
  "adian": 10066,
  "å¯¦æĸ½": 117887,
  "ĠExam": 32310,
  "Ġcook": 4296,
  "äºĮæ°§åĮĸ": 114803,
  "DISABLE": 81148,
  "ĠKendall": 73076,
  ".pool": 38963,
  "Ġval": 1044,
  "ĠChief": 14344,
  "ĠTorres": 54407,
  "Ġbluff": 96288,
  "-fields": 79585,
  "_preview": 42383,
  "è°Ł": 121066,
  "ĠCold": 23185,
  "åĬŁå¾·": 113518,
  "ä¾µçķ¥": 114979,
  "çļĦåĬŁèĥ½": 106744,
  "è±¡": 46423,
  "[e": 23013,
  "ĠFecha": 60478,
  "otes": 6295,
  "cir": 57032,
  "Ġspree": 78628,
  "Andre": 83181,
  "<Vertex": 74822,
  "(e": 2026,
  "å®ŀè®Ń": 113008,
  "ĠHag": 66539,
  ".open": 5826,
  "Sign": 7264,
  "java": 10042,
  "=True": 3618,
  "åĮħè£¹": 108232,
  "sembled": 25905,
  "Ġcostumes": 44088,
  "åħļæł¡": 116939,
  "readcr": 12370,
  ".related": 47403,
  "Ġtransgender": 27208,
  "Ġofficials": 7359,
  "ĠInstitution": 42864,
  "aded": 14255,
  "å°ıé¢Ŀè´·æ¬¾": 118907,
  "QueryBuilder": 51400,
  "ĠPurple": 40389,
  "ĠExtensions": 55795,
  "è¨Ģ": 77144,
  "Ġminded": 60167,
  "ner": 1194,
  "èľİ": 123188,
  "æĻļæĬ¥": 107445,
  "ĠEgyptians": 81504,
  "leshooting": 50240,
  "ĠTruly": 87148,
  "åĩ½æķ°": 32804,
  ".picture": 59449,
  "ĠBroadcasting": 63460,
  "Knowing": 95521,
  "Ġp": 281,
  "Ġdred": 90362,
  "serious": 93327,
  "é¢Ĩå¯¼": 99728,
  "Ġconclusions": 30242,
  "Ġneither": 13866,
  "(IConfiguration": 95426,
  "DEM": 94306,
  "ĠPipeline": 40907,
  "Alloc": 25154,
  "/twitter": 82228,
  "Ġeru": 60254,
  "ĠJulius": 69245,
  ".prop": 18417,
  ".Xr": 81919,
  "ĠMines": 65782,
  "Persist": 61267,
  "èģªæĺİ": 105414,
  "CONN": 73567,
  "Ġ,'": 38339,
  "Tag": 5668,
  "Ġbait": 48060,
  ":init": 48952,
  "clear": 7422,
  "åħīçħ§": 115691,
  "(errno": 38427,
  "Ġ%=": 49132,
  "Ġmakeover": 84052,
  "kr": 9855,
  "Ġdominance": 43492,
  "Ġdismantle": 94058,
  "Ġpoo": 82710,
  "ĠFuck": 25090,
  "çĮľæµĭ": 109736,
  "æĶ¶åĪ°äºĨ": 111511,
  "ä¸ŃåĽ½åĪ¶éĢł": 114710,
  "ilians": 25625,
  "Error": 1454,
  ".JScrollPane": 62828,
  "Kin": 67127,
  "Ġostat": 95369,
  "GROUND": 31687,
  "_ANY": 34450,
  "(Keys": 57723,
  "Ġmonitors": 36477,
  "ĠIdle": 70300,
  "ãĢĨ": 144909,
  "project": 4987,
  "abus": 57541,
  "ĠTP": 29070,
  "åħ³åĪĩ": 114261,
  "/set": 47267,
  "-ac": 37598,
  "Ġcorrupt": 21917,
  "queueReusable": 37185,
  ",R": 23508,
  "instant": 85158,
  "æ´»è·ĥ": 105266,
  "Ġaliment": 37350,
  "Ġ$(": 4930,
  "Redirect": 17725,
  "Ġconnecting": 20913,
  "ĠRear": 45902,
  "Ġoriginals": 85590,
  "ĠPly": 53170,
  "Ġparallel": 15279,
  "æĤīå°¼": 117892,
  "ä¸ºå¤§å®¶": 104962,
  "æĢ»èµĦäº§": 114299,
  "_gray": 51331,
  "Ġtu": 9765,
  "ĠnewText": 94653,
  "ä¸Ńå¤®": 100679,
  "ĠListView": 26636,
  "Chunk": 28304,
  "ĠRestaurants": 58093,
  "ĠBS": 27618,
  "Ġstrife": 96612,
  "æ¿Ģåıĳ": 104970,
  "Ġconceive": 76051,
  "igraphy": 92070,
  "éĥ¤": 120171,
  "$_": 6401,
  "ĠMotorcycle": 69662,
  "Ġ}),": 31706,
  "Ġceil": 28481,
  "numbers": 37378,
  "Ġheute": 48614,
  "Ġconectar": 94754,
  "ĠĠĠĠĠĠĠĠĠĠĠĠĠĠĠĠĠĠĠĠĠĠĠĠĠĠĠĠĠĠĠĠĠĠĠĠĠĠĠĠĠĠ": 14265,
  "çĤ¹åĩ»": 72651,
  "æµ·æĭĶ": 107857,
  "ä¸Ģæ¬¡": 99796,
  "ä¾ĭè¡Į": 118868,
  "ises": 4909,
  "_Vector": 61377,
  "UIAlertView": 71468,
  "Ġamsterdam": 55939,
  "Ġkul": 74416,
  "Correct": 33092,
  "Doctor": 42724,
  "æ²Īéĺ³": 105612,
  "Ġhormone": 35808,
  "[A": 22519,
  "æ±īåŃĲ": 115670,
  "straction": 42602,
  "TE": 2446,
  "Ġpelos": 82839,
  "Ġfunctional": 15629,
  "çĿ£å¯¼": 107125,
  "æıĲç¤º": 45139,
  "è¡Įæ¥Ń": 113581,
  ".GetMapping": 63739,
  "gar": 12164,
  "Ġtopo": 72519,
  ".wp": 72406,
  "Ġbil": 20316,
  "Ġrestroom": 88809,
  "Gs": 81152,
  "Lie": 76491,
  "ĠPrintWriter": 48011,
  "çļĦæĹ¥åŃĲéĩĮ": 117725,
  "oi": 6728,
  "Authorize": 37483,
  "ĠSERIAL": 70718,
  "ĠWish": 37647,
  "Registry": 15603,
  "åı¤åŁİ": 107897,
  "Ġberk": 96583,
  "éĤ»éĩĮ": 117703,
  "Ġintelig": 89645,
  ".reg": 7031,
  "ĠwithString": 94974,
  "xlabel": 49715,
  "ĠDH": 32787,
  "Ġd": 294,
  "cherche": 29510,
  "çĨ±": 105104,
  "Ġfragrance": 55127,
  "Ġconsultancy": 73279,
  "Ġsortable": 56775,
  "ĠmoveTo": 94781,
  "Ġflaw": 25700,
  "ä¸ŃåįĪ": 105747,
  "deo": 94514,
  "ĠPou": 89023,
  "_agents": 76347,
  "_put": 15557,
  "ĠArtem": 78266,
  "Ġindie": 43478,
  "ç»ıæµİæķĪçĽĬ": 106572,
  "ĠRiv": 50668,
  "mic": 21220,
  "disciplinary": 70100,
  "(rand": 37595,
  "Ġrab": 30574,
  "States": 23256,
  "Ġ>&": 36498,
  "Ġvagina": 38788,
  "ĠDuel": 57194,
  "Imp": 25216,
  "Ġescorte": 50070,
  "_y": 4178,
  "Ġexplicit": 11464,
  "REMOVE": 79559,
  "åĲįå½ķ": 114230,
  "(call": 32691,
  "committee": 56785,
  ".Tween": 74249,
  "exec": 11748,
  "Ġsalesman": 78447,
  "mo": 6355,
  "æĥ¯": 100239,
  "Ġfst": 48434,
  "Ġmemset": 17800,
  "ĠFS": 24289,
  ".sf": 41539,
  "ä¸ļåĨħäººå£«": 107455,
  "åīĬ": 101778,
  "IVE": 6537,
  ".Rec": 20610,
  "Ġarbitrarily": 85657,
  "-origin": 66803,
  "å¼¯": 101418,
  "Ġnpm": 46422,
  "æł¹": 99408,
  "-entity": 93588,
  ".userAgent": 60678,
  "lessons": 72312,
  "_permalink": 44854,
  "CL": 3140,
  "=None": 5856,
  "æ¢¾": 122782,
  "ï¥ĳ": 151124,
  "Attr": 13371,
  "_RETURN": 21909,
  "åľ¨è¿ĩåİ»": 110457,
  "/swagger": 80930,
  "ĠSeah": 42169,
  "***": 12210,
  "åĪ¸åķĨ": 108020,
  "Ġpozosta": 139666,
  "$pdf": 34210,
  "ĠConsoleColor": 58834,
  "(all": 20388,
  "\\Security": 57392,
  "Ġindependents": 95922,
  "MENU": 44129,
  "æĵ¤": 121851,
  "Ġviele": 41983,
  "ä¹ŁåĲĮæł·": 115006,
  "éģ½": 121747,
  "icky": 18964,
  "ĠKont": 36866,
  "bai": 50407,
  "ĠOUR": 44913,
  "Ġunsere": 44367,
  "Ġdumpster": 27450,
  "çĶ»åĥı": 116542,
  "é¾ĻéĹ¨": 114342,
  "groupon": 69914,
  "åĽ¾æĸĩ": 113525,
  "Ġheirs": 90301,
  "Won": 75836,
  "ĠPictures": 28385,
  ".cg": 51595,
  "Ġstatues": 57902,
  ".byId": 93781,
  "Ġsax": 63008,
  "lei": 62785,
  "Tri": 21884,
  "BeforeEach": 87275,
  "ĠUserData": 71294,
  "Technical": 62226,
  "getPosition": 50408,
  "aryawan": 75627,
  "ajo": 18734,
  "ĠDuo": 73212,
  "ĠFlyers": 73734,
  "{*": 97806,
  "Ġjug": 22394,
  "Suit": 62898,
  "_increment": 51482,
  "Ġaunt": 50066,
  "èĻ¢": 121644,
  "([[": 27119,
  ".MustCompile": 98626,
  "(samples": 68258,
  "æĸ½èĤ¥": 116625,
  "Ġplaisir": 79310,
  "ĠJennings": 70190,
  "agent": 8092,
  "ĠRath": 85455,
  "_qty": 34858,
  "Ġlegislature": 38756,
  "ideographic": 94007,
  "Ġcra": 45041,
  ".pageX": 73166,
  "ç©Ł": 123629,
  "Ġreife": 46161,
  "Ġrent": 8016,
  "Ġdissolved": 55667,
  "æ³ľ": 122353,
  "Ġplagued": 65302,
  "èĻļæĭŁ": 106225,
  "æĸĩèīº": 105084,
  "æ¶²ä½ĵ": 109181,
  "ĠGill": 32726,
  "Ġkter": 99128,
  "uptools": 51281,
  "åĵĪçĻ»": 116797,
  "Ġtrabalho": 54639,
  "Ġcountry": 3146,
  "Ġbishop": 53206,
  "ĠWIN": 22064,
  "æİ¢è®¿": 116201,
  "ĠCollider": 73821,
  "ninger": 87421,
  "ĠGateway": 39378,
  "enguin": 45872,
  "Ġmulticultural": 74316,
  "episode": 39291,
  "ledged": 92624,
  "_AM": 25022,
  "èŁĴ": 119266,
  "èİĴ": 120033,
  "ĠCONTR": 11570,
  "_merged": 90702,
  ".prefix": 38543,
  "ideon": 99142,
  "gage": 14943,
  "Ġcustomers": 6310,
  "unding": 37189,
  "å®ģæĦ¿": 116015,
  "Ġdelayed": 22706,
  "(ln": 94925,
  "_ev": 43713,
  "Ġmagnitude": 25621,
  "Ġcommas": 76602,
  "Ġswap": 14291,
  "ĠIdaho": 39587,
  "æĵħèĩª": 110355,
  "å½©èī²": 110350,
  "Ġsaat": 51365,
  "_anim": 58076,
  "-field": 19130,
  "ĠSuper": 7297,
  "ĠSAP": 36221,
  "\"in": 54401,
  "ificados": 90762,
  "Ġprogrammers": 54846,
  "åįł": 99571,
  "ĠSurround": 98960,
  "å¦ĥ": 106456,
  "Nach": 75919,
  "Ġvents": 80207,
  "coes": 79850,
  ".notNull": 80319,
  "ĠsavedInstanceState": 14724,
  "è¯ļä¿¡": 104647,
  "ccess": 1322,
  "Composer": 90067,
  "ç²¾åº¦": 111387,
  "Ġisolate": 42123,
  "Ġlut": 62822,
  "izzy": 90491,
  "Ġfacial": 27800,
  "Ġwieder": 26252,
  "adder": 20808,
  ".birth": 83982,
  "Ġplt": 6516,
  "Ġpu": 18256,
  "Ġdei": 21805,
  "ç¡®åĪĩ": 115105,
  "èıľåįķ": 112166,
  "oky": 69881,
  "æĶ»": 99546,
  "_death": 78294,
  "irus": 16972,
  "ĠML": 19614,
  "Intialized": 81736,
  "ĠGovernment": 10212,
  "Ġhotter": 78905,
  "ĠLabs": 40640,
  "Ġmakes": 3643,
  "/(": 11884,
  "ĠĠĠĠĠĠĠĠĠĠĠĠĠĠĠĠĠĠĠĠĠĠĠĠĠĠĠĠĠĠĠĠĠĠĠĠĠĠĠĠĠĠĠĠĠĠĠĠĠĠĠĠĠĠĠĠĠĠĠĠĠĠĠĠĠĠĠĠĠĠĠĠĠĠĠĠĠ": 58591,
  "figure": 17781,
  "(world": 34297,
  "WN": 36919,
  "-run": 22973,
  "Ġbezpo": 138350,
  "å¿ĥæĦı": 113961,
  "Ġcarved": 48167,
  "Ġincident": 10455,
  "æĹ¶éĹ´åĴĮ": 108018,
  "BOSE": 33550,
  "Ġproposed": 10981,
  "éĥ¿": 120813,
  "ĠWrest": 44937,
  "Ġpanels": 21285,
  "-block": 9425,
  "Ġhonorary": 98019,
  "(settings": 23369,
  ".fileName": 56225,
  "Ġretired": 21583,
  "ĠGym": 45531,
  "å¹²æī°": 107696,
  "Ġresistor": 77636,
  "Ġtrolling": 89510,
  "-standing": 55603,
  "TX": 22867,
  "Ġcasinos": 33371,
  "Ġstripes": 54688,
  "ĠLiber": 94297,
  ".flink": 71056,
  "Ġgenerating": 23163,
  "åµ²": 123189,
  "Ġavalia": 139270,
  "ASH": 9537,
  "Ġformulation": 54886,
  ".util": 1971,
  ".is": 2079,
  "ĠHUGE": 72656,
  "ä¸»åĬ¨æĢ§": 117072,
  "_eq": 10714,
  "åºŁæ°´": 110628,
  "ĠIPS": 63157,
  "Deleting": 60475,
  "Ġredefine": 83275,
  "Benchmark": 84971,
  "ĠMatcher": 60632,
  "Ġfig": 4144,
  "fake": 30570,
  "(mp": 44635,
  ")))": 7705,
  "(None": 26717,
  "Constant": 15472,
  "istics": 5589,
  "æĺ¯æĮĩ": 104442,
  "Ġresident": 18967,
  "mium": 50218,
  "_insn": 79799,
  "åľ°ä¸ĭå®¤": 119005,
  "/part": 48981,
  "ĠPetr": 95776,
  "_RCC": 63011,
  "();": 2129,
  "ĠPanic": 83740,
  ".opens": 42515,
  "Ġ\"','": 39425,
  "prints": 25738,
  "_mac": 22802,
  "Ġboring": 27759,
  "Ġmga": 76068,
  "aji": 41788,
  "(mx": 68081,
  "nested": 59271,
  "ç»Īæŀģ": 109596,
  "&W": 91336,
  "ĠInternal": 15412,
  "ĠBrenda": 89034,
  "DITION": 9988,
  "ĠHezbollah": 61894,
  "ç§«": 120418,
  "å¢ŀåĬł": 100649,
  "<Employee": 57965,
  "ickerView": 76256,
  "cker": 15160,
  "Ġdiffered": 87975,
  "/X": 32979,
  "çłĴ": 120079,
  "lements": 90455,
  ":nth": 37964,
  "Ġparticipate": 15759,
  "subs": 64798,
  "eta": 1915,
  "å®ĺåı¸": 118268,
  "Ġshines": 64780,
  "æĹłåħ³": 107173,
  "Traditional": 84682,
  "_RAM": 62393,
  "APPLICATION": 72092,
  "ĠAff": 9748,
  "gages": 55044,
  "ä¸ĢèĤ¡": 105498,
  "åīįèĢħ": 110176,
  "Ġpixels": 15751,
  "èĻĳ": 100042,
  "hots": 34413,
  "_place": 34548,
  "(ob": 49595,
  "Ġbursts": 65701,
  "Ġfigures": 12396,
  ".TextAlignment": 64495,
  "Ġproviding": 8241,
  "/ubuntu": 79926,
  "_validate": 42681,
  "çĭ®åŃĲ": 109273,
  "Ġwondering": 20293,
  "przed": 128198,
  "èĭ±æīį": 117393,
  "EPS": 45177,
  "Associate": 95540,
  "å°ıåºĹ": 114933,
  "èĴİ": 122967,
  "Ġschwar": 81828,
  "å¥Ĺ": 99619,
  "Ġcatch": 2287,
  "_w": 1670,
  "thrown": 86445,
  "PPP": 97252,
  "çªĸ": 116276,
  "resar": 91198,
  "iert": 17029,
  "ĠMontana": 36005,
  "ĠCay": 52783,
  ".visitMethod": 70360,
  "emies": 11041,
  ".getJSONArray": 84367,
  "å¥½åĲĹ": 110201,
  "å¤§èĴľ": 115436,
  "iking": 19233,
  "çģ°": 100815,
  "Ġdensely": 96517,
  "Ġsitu": 9908,
  "classpath": 79814,
  "çİĽ": 101382,
  "Ġ.....": 67129,
  "ĠMarl": 57667,
  "Ġsubstances": 32055,
  "çĥŁçģ«": 118482,
  "æ°ĳéĸĵ": 116506,
  "Ġcycling": 32062,
  "Forgot": 70372,
  "good": 18536,
  "CAST": 34163,
  "_settings": 10853,
  "èĴĹ": 121139,
  "_SRV": 95990,
  "<Post": 68213,
  "ĠparseInt": 12891,
  "å¾®åĪĽ": 117652,
  "(angle": 29633,
  "enumer": 39501,
  "mgr": 48292,
  "Ġlicences": 91984,
  "celain": 59142,
  "_ENDIAN": 57769,
  "Congratulations": 51838,
  "é¦ĸåıĳ": 107221,
  "ĠOrdinary": 97911,
  "_xs": 80646,
  ".elem": 64802,
  "Ġgluc": 29117,
  "Ġ((*": 36456,
  "Ġmarker": 11134,
  "allel": 7957,
  "(Console": 33645,
  "-quarter": 57314,
  "svp": 80606,
  "Ġentirety": 47917,
  "Ġadm": 14591,
  "blob": 35112,
  "Ġsand": 9278,
  "estruction": 68702,
  "unny": 27297,
  "Ġsweating": 80266,
  "etCode": 89260,
  "åı¯èĥ½åŃĺåľ¨": 116116,
  "ĠLevitra": 69148,
  "=ax": 71663,
  "ĠDDS": 64972,
  "Ġrout": 8242,
  "ynamic": 5040,
  "åĨľæĪ·": 105861,
  "æ°ĳæĹıæĸĩåĮĸ": 118519,
  ".AddField": 87444,
  "éĥĹ": 120169,
  "ĠSerialized": 91472,
  "<TKey": 62213,
  ".isOn": 98384,
  "ä¿Ŀæ¹¿": 112724,
  "]={": 36336,
  "threat": 96129,
  "Ġadopts": 85957,
  "Ġpurs": 9836,
  "ĠCitizens": 39896,
  "Ġpants": 24549,
  ".wikipedia": 33366,
  "Ġchocolate": 17931,
  "----------": 15340,
  "uture": 2976,
  "_triggered": 78678,
  "<dd": 97996,
  "_cut": 41317,
  "_Rel": 88922,
  "çŃīæĥħåĨµ": 109923,
  "Ġfollower": 48207,
  "æŀģåħ·": 109632,
  "FORM": 10818,
  "Ġillustrated": 35662,
  "ĠLifetime": 64352,
  "ifar": 92927,
  "Hong": 85709,
  "ä¸īæ¬¡": 107420,
  "/font": 25123,
  "_l": 907,
  "ometrics": 91791,
  "BUS": 40211,
  "Bins": 86862,
  "ĠDebate": 82788,
  "_Equals": 86567,
  "LOCK": 8044,
  "Ġgratitude": 45035,
  "Ġunlaw": 38857,
  "æ£µ": 101828,
  "ĠWolves": 63479,
  "Ġcopies": 10993,
  "IMUM": 40025,
  "-password": 33069,
  "_CONFIGURATION": 70752,
  "_collision": 70375,
  "(['/": 44147,
  ".uk": 15194,
  "Xi": 70630,
  "_png": 61746,
  "-parent": 46436,
  "Ġeager": 23541,
  "ĠAIS": 94100,
  "/project": 40118,
  ".getCode": 44565,
  "-number": 25854,
  "æ°Ļ": 119716,
  ".rpc": 55177,
  "Ġwors": 46193,
  "ĠRihanna": 95427,
  "ĠIpsum": 61362,
  ".intValue": 58374,
  "ĠArabic": 34117,
  "(userName": 55079,
  "Ġkaps": 135699,
  "ECTOR": 35411,
  "iscrim": 41610,
  "Ġestud": 57463,
  "åºĵåŃĺ": 105055,
  "Ġproxies": 59365,
  "-moving": 85472,
  "uesto": 31491,
  ".quantity": 34292,
  "ADV": 90842,
  "æĢĢ": 99701,
  "ï©Į": 148465,
  ".Cho": 89057,
  "_PAIR": 65765,
  "yyyy": 14767,
  "Real": 12768,
  "Buzz": 59473,
  "å¾Ĺåĩº": 107522,
  "reshape": 16137,
  "Ġjoking": 57034,
  "Ġ`": 1565,
  "è´£ç¼ĸ": 110658,
  "Ġbasil": 67086,
  "HttpGet": 29774,
  "éķ¿å¤§": 102829,
  "Ġvictory": 12560,
  "\")==": 43664,
  "Undefined": 30571,
  "/groups": 77685,
  "æĭ¿åĪ°äºĨ": 113796,
  ",Z": 50832,
  "_logits": 59555,
  "æĪĲåĵģ": 107865,
  "Kh": 46788,
  "anchors": 70499,
  "=@\"": 94806,
  ".pack": 20807,
  "Ġsoda": 38862,
  "åĲ¾": 106046,
  ".registry": 55568,
  "haust": 15074,
  "çĲĨè«ĸ": 118669,
  "æĨİ": 119066,
  "ĠArial": 52771,
  "ĠAnonymous": 30437,
  "=>": 2179,
  "åĸī": 101818,
  "Ġfilho": 91521,
  "ĠGst": 80320,
  "toMatch": 43548,
  "æīĵæĭ¼": 118925,
  "ghest": 57242,
  "æ¬²": 101188,
  "ĠanimateWithDuration": 81456,
  "åĮ¦": 119796,
  "'clock": 62410,
  "Ġaquatic": 71391,
  "(\"---": 74083,
  "ordinator": 17442,
  "å¸ħåĵ¥": 117637,
  "æłĳèĦĤ": 111587,
  "ĠBaptist": 42648,
  ".Take": 83072,
  "_CLIP": 96353,
  "åĽŀæļĸ": 115720,
  "Ġrode": 40661,
  "Ġclause": 21647,
  "ĠSpinner": 47545,
  "ĠSusan": 29933,
  "ivent": 80441,
  "Ġquar": 36865,
  "Administration": 95343,
  "èĬ¹": 117539,
  "å§ĭç»Ī": 101217,
  "éĤĭ": 122002,
  "_SCOPE": 61725,
  "Ġdorsal": 95046,
  "Ġtyp": 3582,
  "intage": 16153,
  "ĠDESC": 16089,
  "Ġroom": 3054,
  "åĮĹæĸĹ": 113167,
  "_query": 5738,
  "Ġbanc": 68307,
  "-lines": 83363,
  "$num": 69671,
  "-ne": 39978,
  "äºĭè¿¹": 110198,
  "export": 1533,
  "ĠAttend": 78773,
  "ĠTurkey": 17009,
  "uniq": 54398,
  "Miami": 84150,
  "EMPLARY": 30388,
  "ĠZeit": 28831,
  "_driver": 20602,
  "ĠReviews": 19276,
  "ä½ıæĪ¿åħ¬ç§¯": 117252,
  "_ste": 65937,
  "Ġsciences": 35688,
  "Ġgriev": 49913,
  "åīįæĸ¹": 108348,
  "Ġtired": 19227,
  "Ġhalfway": 41336,
  "Picture": 24669,
  "è»į": 105343,
  "å»ºçŃĳ": 99893,
  "Ġmitochondrial": 70961,
  "UX": 13401,
  "ĠJill": 47211,
  "_flutter": 68089,
  "Ġpersu": 23685,
  "æ¹ĵ": 123090,
  "æīįåı¯ä»¥": 109284,
  "ĠMegan": 54529,
  "Ġhopeful": 37550,
  "hetics": 48366,
  "Ġnarcotics": 91052,
  "_visited": 96729,
  "\\Db": 72194,
  "Ġsubtract": 32256,
  ".El": 50673,
  "Ġsame": 1852,
  "Ġpla": 39752,
  "ä¸ĵéĹ¨": 102093,
  "ss": 778,
  "(ab": 56085,
  "æĹ¶éĹ´": 20450,
  "ĠHaiti": 55190,
  "-envelope": 63525,
  "Ġcabins": 88301,
  "public": 888,
  "avia": 34002,
  "----------------------------------------------------------------": 3513,
  "åĵªä¸ª": 104673,
  "polate": 45429,
  "(text": 7235,
  "ĠReally": 28208,
  "aren": 9151,
  ".QLabel": 86441,
  "CLS": 87716,
  "äºļå¤ª": 109994,
  "ĠIncident": 68735,
  "pz": 66565,
  "_decrypt": 80764,
  "(dt": 24697,
  "åĿĩ": 99472,
  "('-',": 65033,
  "éħ¢": 120897,
  "Ġswingerclub": 45854,
  "Ġ'('": 37880,
  "ĠConfeder": 38044,
  "Ġ?>\"": 9543,
  "Ġcharitable": 47701,
  "esthes": 53020,
  "Christian": 40942,
  "HttpRequest": 26362,
  "æŃ£åĵģ": 116470,
  "Ġts": 10591,
  "ĠBusty": 85823,
  "Ġsadd": 57172,
  "edata": 72885,
  "æ»ĳ": 100243,
  "Ġsola": 95089,
  "Ġpads": 35995,
  "æµ·åŁŁ": 110888,
  "å¹´çĶ±çĽĽ": 117968,
  "Boom": 94234,
  "Ġctxt": 59162,
  ">().": 10483,
  "ĠWildlife": 41549,
  "Ġdeleted": 11062,
  "lication": 1693,
  "uala": 70120,
  "-Israel": 70990,
  "å½ĵæĻļ": 112351,
  "-tip": 83229,
  "orrow": 7768,
  "NASDAQ": 87511,
  ".OS": 57054,
  "Ġasks": 17064,
  "=\\\"\"": 41445,
  "(that": 41091,
  "(_('": 71167,
  "stre": 66423,
  "ç¼©çŁŃ": 107606,
  "ĠOrig": 45498,
  "ign": 622,
  "IRON": 53094,
  "Ġoutras": 73702,
  "maker": 25766,
  "ĠYao": 89930,
  "Ġsorter": 90452,
  "æįĲæ¬¾": 108557,
  "ĠParts": 26303,
  "éĿ¬": 122956,
  "omer": 25359,
  "Ġinvaded": 63665,
  "Segue": 30992,
  "Ġresort": 21788,
  "åŁ¹è®ŃæľºæŀĦ": 110287,
  "inton": 7306,
  "ĠHom": 13222,
  "Spaces": 71324,
  "ĠTwin": 34947,
  "Ġnotebook": 37166,
  "ç²²": 121172,
  "ĠHugh": 29106,
  "ĠDal": 28110,
  "ĠColonial": 72748,
  "Ġativ": 68332,
  "Ġsupra": 66555,
  "aoke": 68505,
  "Ġaccelerating": 68641,
  "_closed": 44697,
  "loading": 10628,
  "Ġapologies": 72173,
  "onder": 14184,
  "lien": 85036,
  "Ġsollte": 50926,
  "BeginInit": 20376,
  "(mapStateToProps": 40250,
  "éŁ³ä¹Ĳä¼ļ": 115001,
  "å¸ĸåŃĲ": 110932,
  "mony": 64427,
  "(flow": 74637,
  "Ġillustrating": 92912,
  "Ġdequeue": 83873,
  "'),('": 67476,
  "NSData": 52007,
  "æ½®æ¹¿": 114112,
  "/banner": 84676,
  ".propTypes": 29495,
  "redd": 32774,
  "/books": 71263,
  "Ġnadzie": 142241,
  "[value": 44474,
  "ĠHayden": 76185,
  "_php": 78547,
  "Ġposting": 17004,
  "Ġnerd": 72187,
  "@section": 13917,
  "SSERT": 7372,
  "åĪģ": 116321,
  "Ġoffices": 19126,
  "ĠDegree": 37082,
  "=\"__": 78527,
  ".exam": 94117,
  "_color": 6714,
  "FAILURE": 90252,
  "Ġragazze": 47599,
  "_dropout": 74605,
  "å³°ä¼ļ": 106541,
  "Ġby": 553,
  "ĠClay": 31401,
  "è¢Ħ": 119364,
  "Viol": 49717,
  "æĺ¯ä»Ģä¹Ī": 102021,
  "Dal": 75628,
  "data": 691,
  "Ġowl": 52269,
  "'": 6,
  "ĠMainAxisAlignment": 33214,
  ".MiddleRight": 74334,
  "Ġsecrets": 23594,
  "\"indices": 86931,
  "<Date": 98879,
  "BigDecimal": 76422,
  "åģıå¥½": 113721,
  "ominated": 49515,
  "ĠMagn": 20300,
  "Scheduler": 38878,
  "ĠFold": 60473,
  "ç¨İåĬ¡æĢ»å±Ģ": 117424,
  "Mocks": 72577,
  "Ġshops": 19456,
  "notin": 83780,
  ".glide": 60106,
  "Popover": 71363,
  "jQuery": 28004,
  "ston": 7720,
  ".from": 6387,
  "(correct": 87964,
  "çĲ¯": 120848,
  "ç§¦çļĩ": 117191,
  "ĠAutor": 56872,
  "With": 2354,
  "ĠColomb": 30802,
  "Ġsystems": 5942,
  "Ġgeographical": 52901,
  ".Tile": 55683,
  "Ġturret": 64386,
  ".getWriter": 58386,
  "endency": 21213,
  "ĠPDT": 45457,
  "(Sender": 33413,
  "luent": 56067,
  "ĠKen": 14259,
  "ĠDAYS": 82831,
  "Ġrecher": 87717,
  "ĠRencontre": 44585,
  "Ġarreglo": 80581,
  "è¯´": 36587,
  "ĠVALID": 43291,
  "agon": 6113,
  "ä¸įåłª": 107566,
  "ĠSevent": 77218,
  ".Virtual": 95979,
  "è¿ľç¦»": 107143,
  "ç²¿": 121494,
  "chool": 2135,
  "ä¸įå¤ª": 102342,
  "ĠSell": 42063,
  "Ġnonzero": 72232,
  "å¾ªçİ¯ç»ıæµİ": 118494,
  "Ġdownload": 4139,
  "Ġ$(\"#": 5945,
  "åķľ": 120678,
  "Ġpromotions": 35971,
  "(context": 5378,
  "ĠWriter": 29404,
  "Ġdoub": 7655,
  "Ġpresses": 52963,
  "_transaction": 28884,
  "å¾Ľ": 122847,
  "Ġ!!!": 32870,
  ":http": 69459,
  "åıĺæĽ´": 105308,
  "Ġ\"')": 67334,
  "quoise": 58670,
  "é¸½": 112582,
  "LEFT": 22397,
  "Ġischem": 97008,
  "æĭĵå±ķ": 104206,
  "pure": 51733,
  "çĺħ": 123238,
  "_PROGRESS": 54446,
  "åħŃä¸ªæľĪ": 118899,
  "æľķ": 112576,
  "\\Post": 80180,
  "ĠWeed": 93309,
  "Ġrelationship": 5025,
  "_room": 25003,
  "çī¢è®°": 103489,
  "ĠMCP": 79148,
  "å½¢å®¹": 103196,
  "strap": 5092,
  "éĢīçĶ¨": 106423,
  "Ġwire": 9067,
  "åı¯è¡Į": 111696,
  "ç¦§": 116740,
  ">-": 38643,
  "Ġeiusmod": 79122,
  "å®£ä¼łæ´»åĬ¨": 115856,
  "ĠCongressman": 70383,
  "åª½": 101804,
  "Ġcet": 40967,
  "Ġnaturally": 17712,
  "ĠFormat": 15042,
  "rage": 47368,
  "ï¤ĩ": 149293,
  "è´£ä»»æĦŁ": 109062,
  ".netflix": 72835,
  "ĠTinder": 65356,
  "prestashop": 91292,
  ";m": 67236,
  "Ġstill": 2058,
  "ĠTrend": 30653,
  "Ġsurvives": 82317,
  "åºĶåĬĽ": 115650,
  "Ġobjeto": 35543,
  "ĠAnat": 95564,
  "Ġviolent": 16401,
  "ĠSexy": 28279,
  "Expression": 9595,
  "Linked": 22070,
  "Ġreopening": 93400,
  "CEE": 42577,
  "ibi": 39393,
  "Ġwomb": 72837,
  "Ġvrou": 22451,
  "ieu": 25173,
  "Ġconcentrating": 75287,
  "ĠCommandLine": 78218,
  "ĠWade": 42882,
  "Ġlt": 25175,
  "_usage": 31507,
  "Ġservicio": 46157,
  "çľŁå®ŀçļĦ": 107573,
  "éĺĻ": 119082,
  "(dr": 30958,
  "ç»·": 117711,
  "elaide": 44093,
  "ĠEXEC": 62247,
  "ĠSAX": 74226,
  "æľ¬äºĭ": 110478,
  "Ġsexy": 10886,
  "{return": 54678,
  "åĭŁéĽĨ": 103365,
  "è¿«": 99994,
  "è¨Ħ": 122508,
  "Ġvnode": 68721,
  "ä¸¥éĩį": 101120,
  "Band": 33744,
  "ĠHaus": 47375,
  "æķĳçģ¾": 106849,
  "<a": 9312,
  "_sink": 51567,
  "Ġflashed": 69839,
  ")(_": 72785,
  "åŃħ": 123756,
  "_std": 15656,
  "aeper": 73665,
  ".addView": 57088,
  "Ġthriving": 52314,
  "çľ¼åīį": 102515,
  "ertation": 75304,
  "_comment": 17638,
  "ĠLaura": 29828,
  "UMAN": 67565,
  "Ġdoes": 1558,
  "(userId": 24476,
  "umping": 54332,
  "Ġrevisions": 53762,
  "ĠisOpen": 44681,
  "ranges": 66562,
  "hq": 81899,
  "neau": 82253,
  "Ġ//<": 59181,
  "Quad": 43474,
  "_Response": 65873,
  "Ġcause": 5240,
  "ĠMandela": 87330,
  ".Progress": 41305,
  "able": 480,
  "çļĵ": 110667,
  "å¸¸æĢģ": 101746,
  "EEK": 32262,
  "iais": 56467,
  "åĮį": 120186,
  "éĥ½åºĶè¯¥": 114740,
  "tributes": 3604,
  "(recipe": 71721,
  "æŀ§": 119837,
  "è¯¸å¤ļ": 102745,
  "Ġblooms": 91789,
  "maktad": 126390,
  "Ġsim": 1643,
  "inged": 56558,
  "-outline": 29641,
  "å¸Ĥå§Ķå¸¸å§Ķ": 113419,
  "Ġelevate": 68630,
  "Elect": 29331,
  ".setTo": 86859,
  "lastname": 29206,
  "Ġknowingly": 67013,
  "éĤ£éĩĮ": 102302,
  "ilda": 55161,
  "Ġcalming": 77629,
  ".handleChange": 35709,
  "Pool": 10551,
  "rogate": 48373,
  "osexual": 48200,
  "åĵªæĢķ": 103014,
  "ç½ĳç»ľæ¸¸æĪı": 107094,
  "Ġguid": 9643,
  "Od": 66308,
  "_INSERT": 47924,
  "Ġrepar": 75926,
  "ä»£è¨Ģ": 103579,
  "(repo": 50608,
  "Mod": 4459,
  "Ġsheet": 10834,
  "_DATA": 7896,
  "sey": 8506,
  "salary": 51610,
  "ï¨Ĭ": 151638,
  "Ġfuzzy": 52733,
  "_experience": 91142,
  "hands": 88012,
  "ĠMessage": 4856,
  "Ġaligned": 26118,
  "embed": 12250,
  "[:-": 26049,
  "èĪĽ": 119634,
  "_keyboard": 58797,
  "èĬ±éĴ±": 108032,
  "ĠluaL": 72731,
  "Ġjaki": 139537,
  "æ¶¼": 118178,
  ".providers": 87179,
  "ĠTiny": 47974,
  "åįļæĸĩ": 115658,
  ".coeff": 86462,
  "Ġpillars": 63882,
  "ĠMuch": 23309,
  "loo": 47133,
  "?)": 10170,
  "VIRTUAL": 94283,
  "Ġdevelops": 38571,
  "cede": 94874,
  "ĠRossi": 76069,
  "userRepository": 85741,
  "Ġmonitor": 8718,
  "Ġreporting": 12827,
  "è¿ĳ": 59258,
  "(gameObject": 51012,
  "æĶ¾å¿ĥ": 104633,
  "_ACT": 15923,
  "ĠGarmin": 88169,
  "éĢĴç»Ļ": 117713,
  ".Information": 49239,
  "Notify": 28962,
  "å¤ĩèĢĥ": 112749,
  "_Right": 73275,
  "aber": 43139,
  "political": 74685,
  "Ġencountering": 91272,
  "iji": 34873,
  "Han": 73125,
  "ĠĠĠĠĠĠĠĠĠĠĠĠĠĠĠ": 394,
  "Ġratified": 96565,
  "acd": 94112,
  "_assets": 53299,
  "edere": 85019,
  "ĠStealth": 73467,
  ".\"','\".$": 84491,
  "Ġdec": 1622,
  "upply": 83923,
  ":'',": 96403,
  "_EXPECT": 68208,
  "ĠRace": 23659,
  "åį³åı¯": 104180,
  ".rdf": 99013,
  "avin": 34616,
  "sitemap": 37963,
  "å¢ŀåĢ¼": 101720,
  "stein": 12429,
  "ĠBaz": 91711,
  "æĢĥ": 119758,
  "Ġforgiveness": 52050,
  "Ġborr": 96552,
  "ango": 5170,
  "åĩºå·®": 112841,
  "_',": 58013,
  "æķ´æ´ģ": 113005,
  "posal": 24155,
  "ĠStrait": 82063,
  "ä¹Łä¸įçŁ¥éģĵ": 107066,
  "\\)": 57758,
  "Ġnightly": 74760,
  "ience": 1835,
  "ĠPCA": 60929,
  "then": 3391,
  "Ġnec": 19053,
  "ä¸ŃåĽ½åı¤ä»£": 115490,
  ".rollback": 58011,
  "rgan": 8443,
  "Increasing": 80682,
  "Ġprov": 2543,
  "ĠMadison": 29915,
  "éĢłè¡Ģ": 118109,
  "æŁĬ": 122434,
  "æĶ¯ä»ĺå®Ŀ": 107851,
  "amentos": 36779,
  "Ġmelts": 98091,
  "æ£Ģå¯Ł": 100615,
  "ĠButton": 6601,
  "enson": 33137,
  "ĠChung": 87325,
  "_lon": 57688,
  "Ġguar": 9352,
  "æĬĹåĩ»çĸ«æĥħ": 116821,
  "ĠCheer": 92631,
  "Ġfragmented": 86095,
  "Mix": 58083,
  "åıĺå¹»": 117627,
  "ĠZombies": 88837,
  "å¦Ń": 122373,
  "Carl": 76164,
  "åĦĢ": 115139,
  ".Collectors": 55456,
  "-ca": 50777,
  "ä¾ª": 119910,
  "Ġparan": 47582,
  "åį¡è½¦": 111902,
  "band": 7053,
  "Ġdisposit": 57451,
  "ĠRoyale": 86199,
  "ĠCurrently": 24150,
  "ĠSociology": 96057,
  "aly": 5774,
  "among": 76305,
  "_PE": 45784,
  "IBC": 86140,
  "ĠGina": 76212,
  "enor": 98731,
  "];": 5265,
  "Ġendless": 25678,
  "ĠFederal": 12137,
  "aways": 39590,
  "Ġclickable": 85563,
  "oeff": 20719,
  "Ace": 78695,
  "æİĴæĸ¥": 115189,
  "ercial": 7991,
  "ĠSuite": 20977,
  "ĠVol": 10882,
  ".co": 6830,
  "Lifetime": 74579,
  "ĠBard": 63204,
  "Ġmenus": 34154,
  "ritel": 58962,
  "_hour": 32292,
  "ĠAustin": 19260,
  "ĠDriving": 52253,
  "Ġfiz": 78211,
  "[m": 12065,
  "ĠNguyen": 63161,
  "å¤Ħ": 44290,
  "éĵĨ": 120402,
  "æ¶Īè´¹èĢħ": 101084,
  "Ġegreg": 82064,
  "Scaled": 94201,
  "æľįé¥°": 106863,
  "avis": 22354,
  "Lisa": 72749,
  "ĠsetContentView": 21109,
  "åĨ³å®ļäºĨ": 109604,
  "Boston": 64332,
  "NODE": 40686,
  "ĠCircularProgress": 78197,
  "å·´è¥¿": 106106,
  "Ġbreakdown": 29985,
  "Ġinternals": 91025,
  "æ»«": 121305,
  "Ġfabric": 13055,
  ".hidden": 22709,
  "_TOOL": 57188,
  "ĠMeal": 56388,
  "(operator": 79091,
  "KB": 29862,
  "ĠDisorders": 72033,
  "occan": 84011,
  "éĹ¨çªĹ": 109495,
  "Ġfaculty": 21564,
  "RuntimeObject": 61062,
  "function": 1688,
  ".z": 3938,
  "å·¦åı³": 101081,
  "Ġanalyzes": 85181,
  ".ping": 98247,
  "å¥³å£«": 104308,
  "Menus": 77944,
  "Ġ/^[": 75336,
  "ĠAdministr": 32851,
  "Ġcaptains": 89884,
  "ĠSlo": 25603,
  "-word": 37328,
  "itant": 50944,
  "VAS": 62280,
  "xmlns": 74155,
  ".Area": 81435,
  "STRU": 42297,
  "-url": 25443,
  "Ġdresser": 95537,
  "Ġ=[": 67610,
  "æĮĩåĩº": 103988,
  "ĠLeads": 81528,
  "FLT": 79855,
  "Vk": 96079,
  "ä¹Ĳ": 99350,
  "Ġbamb": 75993,
  "Ġvaccinated": 69458,
  ".ic": 27822,
  "-INF": 71470,
  "Ġclearer": 48379,
  "ĠPRODUCTS": 87290,
  ".boolean": 57534,
  "åĬ±å¿Ĺ": 109880,
  "Ġtimelines": 87144,
  "ĠDirector": 10560,
  "ĠCHILD": 72520,
  "Ġveniam": 87970,
  "ĠNON": 20575,
  "IPAddress": 87976,
  ".enum": 70183,
  "æ°´çĶµ": 108246,
  "_detalle": 95471,
  "**,": 97219,
  ".t": 734,
  "Ġunwitting": 94019,
  "getParameter": 62649,
  "SetUp": 79831,
  "Ġmycket": 79761,
  "Ġadaptation": 33085,
  "Ġpolitical": 4948,
  "outes": 5495,
  "æĶ¿åĬ¡": 102921,
  "*(-": 34299,
  "Ġyo": 29496,
  "Ġansch": 93644,
  "çİ¯": 86312,
  "Ġmente": 87062,
  "çĭŃçªĦ": 114494,
  "Ġexpedition": 50164,
  "Ġpush": 4484,
  "Displays": 97688,
  "è§Ħæł¼": 106453,
  "Ġpurch": 4902,
  "ĠShopify": 95025,
  "itz": 11042,
  "Ts": 52793,
  "relative": 20432,
  "æĻļéĹ´": 118126,
  "éĥ§": 120125,
  "[res": 94390,
  "_rc": 30299,
  "Ġagenda": 18402,
  "ĠEssays": 55614,
  "FieldName": 51241,
  "Ġailments": 81807,
  "Ġconced": 37730,
  "Ġsmall": 2613,
  "metrics": 43262,
  ".YES": 84402,
  ".Rad": 74390,
  "çķ¢æ¥Ń": 117292,
  "ĠdigitalWrite": 64797,
  "åı£åĳ³": 107102,
  "Ġfortn": 83211,
  "emodel": 95648,
  "Ġcannons": 96914,
  "Commerce": 33408,
  "CompanyName": 62539,
  "Ġsensation": 36292,
  "çİĭåºľ": 114075,
  ".spawn": 59296,
  "å¸Ĥæ°ĳ": 102047,
  "çĻ¾åĲĪ": 114276,
  "å¢ŀè®¾": 116062,
  "_cipher": 76692,
  "æŃ¤åĪ»": 106210,
  "_EXPRESSION": 98345,
  "Ġphoenix": 89715,
  "WHO": 77747,
  "æĬĢ": 82201,
  ".reloadData": 55362,
  "ĠFront": 14902,
  ".Executor": 94500,
  ".INPUT": 81814,
  "Ġvertices": 17228,
  "æĿĦ": 122207,
  "åľ°": 29490,
  "propri": 70521,
  "èŀĤ": 121423,
  "-school": 34689,
  "ĠFem": 34195,
  "Ġroofing": 65425,
  "ĠYoga": 37573,
  "=\"//": 44166,
  "_IMAGE": 19121,
  ",readonly": 91909,
  "_lazy": 49646,
  "ï¼ļ%": 93795,
  "å·¥ä¸ļä¼ģä¸ļ": 109983,
  "ĠMobile": 13411,
  "å¸Ŀçİĭ": 114670,
  "èĪŁå±±": 113409,
  "(light": 73798,
  "Ġobstacle": 32187,
  "Ġceramic": 42024,
  "Ġtwists": 61890,
  "Stream": 3027,
  "crew": 38617,
  "Ġendereco": 89153,
  "NON": 29563,
  "ĠKill": 26835,
  "èĤ¡æĿĥ": 101236,
  "CBC": 69972,
  "ĠBank": 8547,
  "Ġmise": 56359,
  "Ġclipped": 73059,
  "Ġloosely": 62457,
  "ERCHANT": 7551,
  "Texas": 50225,
  "Ġwatts": 71022,
  "ĠTall": 41102,
  ".NULL": 90312,
  "yo": 16032,
  "å¹¶ä¸İ": 110133,
  "æ±Ĥå©ļ": 116618,
  "Ingredients": 45747,
  ".Extensions": 20526,
  ".tokens": 59549,
  "Ġinfra": 48176,
  "_texts": 79646,
  "ĠTelephone": 56930,
  "Ġstrapped": 90024,
  "ĠFitz": 36678,
  "åĲīæŀĹçľģ": 110904,
  "_UTILS": 87967,
  "ç¥ŀèī²": 112053,
  "è¾©æĬ¤": 114051,
  "ĠYOU": 14985,
  "èĬ¡": 119672,
  "ç¥ł": 111082,
  "Ġconnects": 33061,
  "Ġkamu": 85190,
  "Ġinstantaneous": 95119,
  "åŃĹ": 18600,
  "ItemId": 57939,
  "æľªç»ıæİĪæĿĥ": 117721,
  "_strlen": 44288,
  "Ġrend": 17191,
  "(sel": 63453,
  "ĠEVP": 72758,
  "Ġindefinitely": 55234,
  "Ġans": 8099,
  "Ġdisabling": 60484,
  "Ġdownturn": 75406,
  "HOST": 28687,
  "Ġnab": 72691,
  "çĮģ": 120458,
  "Ġhesitant": 70460,
  "Ġsapi": 81195,
  "ĠResize": 63343,
  "æĦİ": 121062,
  "ĠAirport": 20691,
  "elled": 15201,
  "Ġbreeds": 57145,
  "Ġavoir": 38829,
  "_leaf": 38909,
  "\\Template": 79780,
  "_ptrs": 79533,
  "åįĹéĢļ": 108771,
  "Keeper": 77233,
  "ĠLocate": 95210,
  "ĠMIPS": 98662,
  "ableView": 7938,
  "MOVE": 29116,
  "Ġ`.": 74090,
  "(userID": 77423,
  "Ġstatements": 12239,
  "%D": 54643,
  "å°ıé¾Ļ": 103667,
  ".configuration": 31453,
  "åħļç»Ħç»ĩ": 104265,
  "Ġshelf": 27645,
  "Ġdez": 70768,
  "OGRAPH": 90849,
  "buttonShape": 84054,
  "appid": 58342,
  "Ġ[];": 39371,
  "(fl": 49747,
  "_LOCATION": 30202,
  "(note": 44051,
  "bbox": 58456,
  "ĠVinyl": 53534,
  "ĠClimate": 30536,
  "QM": 88878,
  "ĠOCT": 66177,
  "Lv": 73757,
  "Mario": 78734,
  "Ġsignal": 8286,
  "_answers": 61610,
  "_GenericClass": 35974,
  "ĠRadi": 34869,
  "åĬģ": 121464,
  "_cmds": 89472,
  "_MATH": 85944,
  "å®ŀæĸ½": 100355,
  "ĠAside": 56094,
  "åĨ²æ´Ĺ": 113283,
  "ĠNDP": 53650,
  "fecha": 19808,
  "Ġhaystack": 88447,
  "Ġocup": 74666,
  "over": 1975,
  "ky": 7891,
  "åľª": 119588,
  "äº¤ä»£": 111195,
  "æµ¼": 122705,
  "Ġaddon": 47997,
  "central": 51811,
  "ughters": 26505,
  "seealso": 50762,
  "ĠInstructions": 38297,
  ".restaurant": 87049,
  "å¾Īå¥½åľ°": 113678,
  "Ġlugar": 33900,
  "constraint": 48057,
  "ç¾¡": 103105,
  "<b": 33177,
  "Ġequipos": 91852,
  "posta": 38531,
  "states": 32069,
  "ä¼łæĦŁ": 107778,
  "soft": 3510,
  "_contacts": 64174,
  "Ġ?\",": 42313,
  ".spotify": 76453,
  "Ġrevital": 78855,
  "watch": 14321,
  "umno": 48347,
  "ibration": 18350,
  "_FREQ": 48602,
  "stitutions": 92678,
  "Ġdisrespectful": 98522,
  "åį´": 99786,
  "OMBRE": 62011,
  "EDI": 23114,
  "åı¸ä»¤": 110152,
  "è°ĥçļ®": 118744,
  "scient": 55347,
  "æŁĲç§į": 102988,
  "Ġelements": 5424,
  "ate": 349,
  "æ¼ł": 101735,
  "Ġraped": 39377,
  "Mind": 69638,
  "Ġmischief": 93946,
  "èĬ³": 102261,
  "-loaded": 78070,
  "StartTime": 40203,
  "ä¹Łæĺ¯å¾Ī": 114443,
  "-center": 6883,
  "Ġchance": 6012,
  "Ġamat": 42133,
  "ĠgetEmail": 67408,
  "ĠBroadway": 36676,
  "_shipping": 53553,
  "ials": 10309,
  "ĠVelvet": 73027,
  "Ġretained": 34263,
  "ĠMean": 16327,
  "Ġlightweight": 29144,
  "Coding": 77513,
  "notif": 85046,
  "tm": 13730,
  "éĽĨæĪĲçĶµè·¯": 113045,
  "-uppercase": 59192,
  "Ġbpm": 97724,
  "ĠRubber": 52306,
  "Ġmasking": 78076,
  "angle": 4044,
  "Ġimpart": 69672,
  "æŃ¤äºº": 112738,
  "(wallet": 95586,
  ">Main": 39580,
  "ç½ĳç»ľç§ĳæĬĢ": 117187,
  "Ġkunnen": 48436,
  "ron": 2248,
  "æ¯ıæľĪ": 105676,
  "essen": 38809,
  "ĠSent": 23361,
  "ĠChavez": 76241,
  "bec": 16692,
  "è½¦åĨħ": 110101,
  "hte": 55499,
  "Ġpetitions": 74454,
  "Ġframes": 14087,
  "dim": 12927,
  "å»·": 100981,
  "Dave": 55730,
  "å¿Ļ": 100078,
  "ĠCorner": 38248,
  "Ġ#:": 46198,
  "responsive": 51297,
  "ĠSHARE": 53670,
  "_WALL": 93435,
  "(undefined": 43759,
  "Ġhvor": 50719,
  "Ġonwards": 59425,
  "ARING": 91023,
  "ĠRenewable": 92338,
  "apest": 27624,
  "$current": 73922,
  "Ġshadow": 12455,
  "_TE": 36222,
  "_IB": 79263,
  "[D": 64920,
  "HAV": 72239,
  "EXT": 5722,
  "OPLE": 56989,
  "Ġsehen": 53835,
  "@": 31,
  ".di": 30180,
  ".Use": 9046,
  "Ġfinite": 34226,
  "Path": 1820,
  "Ġquake": 87370,
  "Ġcambio": 57311,
  "æĹłç¼ĺ": 114805,
  "æ¡¯": 122783,
  "çļĦä½ľçĶ¨": 104149,
  "åıĳæĮ¥äºĨ": 111035,
  "ĠAdvice": 54720,
  "Ġbound": 6822,
  "è§ģè¿ĩ": 102877,
  "èİ·èĥľ": 113482,
  "åĴĤ": 119858,
  "éĢłåģĩ": 112895,
  "ĠPause": 49656,
  "Listeners": 31570,
  "Ġchlor": 36733,
  "æ¯ķç«Ł": 104163,
  "Ġfixture": 12507,
  "æĦļ": 103324,
  "ï¤ķ": 149807,
  "ĠLinkedHashMap": 64333,
  "Ġeconom": 11467,
  "ĠEnemy": 30751,
  "Ġoutnumber": 84592,
  "Ġinflammatory": 46188,
  "/body": 61111,
  "Ġvenom": 73708,
  "Ġacclaim": 96863,
  "-images": 50991,
  ".database": 15062,
  "trusted": 83837,
  "NTAX": 78221,
  "éĥ¯": 120492,
  "æ¸ħæľĿ": 112463,
  "><!--": 13301,
  "InnerText": 79864,
  "çĦĲ": 120771,
  "_embed": 24007,
  "Ġbuurt": 59017,
  "åĩĢèµĦäº§": 111381,
  "ĠHel": 15806,
  "omas": 22267,
  "ç¾İå¥½çĶŁæ´»": 109982,
  "ĠBre": 11427,
  "-spinner": 70110,
  "CloseOperation": 55159,
  "æĹ¢æĺ¯": 107571,
  "ĠForbidden": 66440,
  ".%": 22445,
  "ĠNF": 44727,
  "BTTag": 81681,
  "Ġpolarity": 75690,
  "_surface": 31030,
  "æ±ŁåĮº": 114274,
  "ĠVehicle": 24707,
  "å¾Īå¤ļäºĭæĥħ": 118535,
  "Tier": 70684,
  "agents": 54875,
  "fuel": 63375,
  "ĠTaxi": 78275,
  "hibited": 92517,
  ".Gradient": 82684,
  "draulic": 32742,
  "çħ§é¡§": 118658,
  "=[": 5818,
  "ĠBin": 29344,
  "é¢Ĩå¯¼äºº": 107672,
  "mist": 78924,
  "ombies": 35694,
  "Seek": 39350,
  "ĠHttpServlet": 46219,
  "typeorm": 80059,
  "ĠDESIGN": 67243,
  "æį®è¯´": 106619,
  "è´§æŀ¶": 116454,
  "atal": 4212,
  "ĠRecru": 82640,
  "ĠMaterialApp": 82548,
  "å¯¹": 32664,
  "PLICIT": 83094,
  "éľĩ": 99974,
  "ajor": 3035,
  "èł¹": 122113,
  "ATT": 21614,
  "agens": 38796,
  "è½³": 120090,
  "inosaur": 88147,
  "èĭ¥æľī": 109950,
  "ĠBord": 97885,
  "ç§¸ç§Ĩ": 112907,
  ".DataVisualization": 88972,
  "ĠAuditor": 61392,
  "èļģ": 103372,
  "_EXTENSIONS": 97058,
  "ĠHeath": 47462,
  "_PUR": 79006,
  "mw": 44128,
  ".NOT": 40420,
  "ransition": 84954,
  "_frontend": 93833,
  "brig": 82032,
  "çĸĹ": 99527,
  "å¤ºå¾Ĺ": 112831,
  "Netflix": 80466,
  "_EQUAL": 18182,
  "ming": 5311,
  "è¡İ": 122495,
  "Ġsop": 70204,
  "Ġattack": 3359,
  "ifter": 37700,
  "æıĲåīį": 104154,
  "Ġeconomic": 6955,
  "éĢīä¸¾": 106265,
  "Ġthinker": 97536,
  "ĠYears": 22315,
  "Ġfrost": 44734,
  "Jennifer": 71426,
  "æī¹": 99358,
  "eventId": 90356,
  ".Service": 13860,
  "åħ§": 100456,
  "setLabel": 88553,
  "åĿĩä»·": 109515,
  "Ġaxis": 8024,
  "quiring": 70094,
  "ĠMattis": 86354,
  "indows": 1491,
  "Ġviel": 36077,
  "uire": 51650,
  "ĠHouses": 57659,
  "Ġupro": 96832,
  "ĠWorksheets": 76179,
  "çŁ¥éģĵ": 99392,
  "Ġvra": 33823,
  "ĠIonicPage": 93168,
  "ä¸įèĥ½åĨį": 112268,
  "startTime": 40906,
  "è¿ĩç¡¬": 111723,
  "ĠHawks": 56612,
  "æľĢç¾İçļĦ": 113679,
  "(Response": 47979,
  "é¿İ": 122790,
  "Ġballs": 20332,
  "ĠEST": 25877,
  "_PLACE": 81924,
  "æĿ¿åĿĹ": 104382,
  "touch": 22020,
  "Import": 11511,
  "Connection": 4526,
  "Ġanon": 74812,
  "ĠIncluded": 45964,
  "ĠReceived": 38417,
  "Ġalas": 88098,
  "Ġfinances": 39282,
  "æ¼ĸ": 123394,
  "(hand": 63211,
  "æĺİæĺ¾çļĦ": 106050,
  "Ġblocks": 10010,
  "ĠRome": 21718,
  "éĥ¨": 32948,
  "çŀ³": 111807,
  "æģĤ": 120242,
  "bara": 24095,
  "cycl": 97484,
  "Ġfr": 1422,
  "Ġxamarin": 95479,
  "isplay": 2316,
  ")\">": 69457,
  ";padding": 35129,
  "aviolet": 84211,
  "äºŀ": 106172,
  "æ·±æ·±çļĦ": 112474,
  "Ġnationwide": 27954,
  "Ġemailed": 48514,
  "æºµ": 123258,
  "(By": 13287,
  "(cid": 57350,
  "ActivityIndicatorView": 89293,
  "`](": 84702,
  "åİĨåı²": 100022,
  "ĠRiot": 64706,
  "(EC": 86062,
  "\":\"\"": 62366,
  "Quiz": 53886,
  "æĻ¾": 114158,
  "Sessions": 59062,
  "Ġrhet": 28386,
  "ĠGuinea": 47803,
  "ĠcurrentDate": 59813,
  "Ġcadena": 54992,
  "_FieldOffsetTable": 88396,
  "ĠTCL": 65231,
  "Ġparl": 43214,
  "cdr": 64170,
  "æ¡Į": 100299,
  "Link": 3939,
  "state": 2454,
  "')": 863,
  "Ġstrtol": 33624,
  "Ġgent": 15886,
  "åŀĪ": 122326,
  "Ion": 45480,
  "_RAD": 90473,
  "ĠCasc": 95006,
  "Ġpamph": 74831,
  "/release": 88648,
  "åıĳå±ķ": 99185,
  "Ġimu": 92861,
  "Ġlegitim": 48197,
  "Ġallegations": 18367,
  "Online": 19598,
  ".notifyDataSetChanged": 56861,
  "ç¶ĵçĩŁ": 110199,
  "Ġtoday": 3351,
  "KeyUp": 80754,
  "Ġswal": 49354,
  "éĽ£": 102516,
  "ĠGinny": 93154,
  "ĠGLOBAL": 41287,
  "cbc": 80766,
  "Ġweekends": 37002,
  "ĠSignals": 82499,
  "Ġpotrze": 88350,
  ".fml": 64808,
  "Ġaccount": 2692,
  ".getHeight": 31188,
  "çľĭä¸įåĪ°": 108057,
  "åº¶": 116785,
  "ĠZag": 88618,
  "Ġgravel": 41523,
  "MinMax": 92304,
  "ĠIHttpActionResult": 91457,
  "æĸ°çīĪ": 112979,
  "ĠRead": 4457,
  "Ġeinzel": 94788,
  "çīĪæĿĥæīĢæľī": 105671,
  "Ġforgiven": 72595,
  "_SYNC": 39189,
  "heets": 20306,
  "ĠRegisters": 54774,
  "ponse": 1025,
  "ä¸Ģä¸ªå°ı": 107861,
  "ĠItalian": 14811,
  "Ġfixed": 8356,
  "H": 39,
  "Ġpois": 57783,
  "ä¾Ľæļĸ": 113059,
  "charted": 90818,
  "Fonts": 55369,
  "(cli": 70249,
  "ĠLeh": 62558,
  "åı¯ä»¥å¸®åĬ©": 111728,
  "fc": 8316,
  "etermine": 24308,
  "ĠClasses": 33869,
  "Ġcu": 6871,
  "ĠAlign": 49472,
  "Ġ'-'": 20672,
  "Ġcampaigned": 86196,
  "Ġresponding": 29338,
  "ĠExhibition": 66933,
  "Products": 17746,
  "Ġ*</": 80461,
  "Late": 61457,
  "éĽ¶ç¢İ": 118717,
  "(sprite": 60488,
  "options": 2875,
  "ĠVoices": 82326,
  "Ġransom": 57586,
  "Ġpath": 1815,
  "ä¿Ŀåį«": 111473,
  "çķĮéĻĲ": 114345,
  "-br": 30117,
  "ĠHuffman": 88497,
  "Ġrecharge": 46823,
  "ently": 4402,
  "_structure": 38283,
  "softmax": 77499,
  "ĠSurely": 64188,
  "Ġacess": 84970,
  "agli": 79056,
  "Registrar": 70252,
  "bos": 78448,
  ".Dao": 95973,
  "æ¸Ľå°ĳ": 117939,
  "(skip": 82074,
  "Ġenumerator": 74631,
  "ĠSenators": 53718,
  "undefined": 9614,
  "(Temp": 75387,
  ".IsFalse": 69327,
  "Ġalk": 57898,
  ".LookAndFeel": 93782,
  "Ġfabulous": 34531,
  "Ġasian": 35625,
  ",get": 94107,
  "å³¥": 118114,
  "è¿Ĥ": 119304,
  "/single": 96562,
  "ivered": 43056,
  "utch": 14061,
  "etting": 51089,
  "æľ¬æĬ¥è®°èĢħ": 111900,
  "INNER": 58124,
  "Ġretrospective": 78829,
  "Ġalien": 19594,
  "Ġ\"{}": 35503,
  "Ġhomo": 54413,
  "_turn": 37274,
  "_epochs": 44127,
  "ĠAgricultural": 59034,
  "delay": 22263,
  "uant": 27574,
  "çľĭäºĨä¸Ģçľ¼": 115476,
  "HSV": 98930,
  "-European": 87635,
  "ografia": 49801,
  "setBackground": 90525,
  "ĠDou": 17007,
  "é©¾é©¶": 100507,
  "asure": 3970,
  "idi": 12278,
  "ĠRahmen": 89507,
  "ĠVARCHAR": 37589,
  "åīįçº¿": 114715,
  "getCurrent": 44454,
  "åĳĽ": 119157,
  "riteln": 51097,
  "Resistance": 88077,
  "trying": 84034,
  "//************************************************************************": 65080,
  "ĠReporting": 46693,
  "Ġbastard": 73577,
  "Vertex": 8320,
  "è®¦": 119576,
  "Ġrobotic": 58001,
  "èħĺ": 123056,
  "jc": 62987,
  "apeutics": 87786,
  "ĠRice": 29516,
  "Down": 4454,
  "è®ĵæĪĳ": 113601,
  "ĠIgn": 33781,
  "asons": 98849,
  "Ġparcel": 29309,
  "ĠSteak": 84243,
  "(\",\",": 42732,
  "è¾Ń": 119264,
  "ĠShoppingCart": 90907,
  "Ġpraised": 36375,
  "employed": 35142,
  "icensed": 7296,
  "=\"<?": 4252,
  "_dispatch": 42991,
  "exampleInputEmail": 82001,
  "Nom": 36312,
  "æµª": 99964,
  "Ġmythical": 83119,
  "oxel": 52391,
  "ĠHOME": 40567,
  "Ġkil": 15045,
  "Ġneuronal": 78302,
  "ĠBam": 55007,
  "Match": 8331,
  "ĠCLASS": 27939,
  "_reduction": 74289,
  "ABS": 57479,
  "LoginForm": 85686,
  "quisites": 48250,
  "èĿ®": 121613,
  "_PT": 65061,
  "ĠHERE": 19249,
  "BracketAccess": 93552,
  "ĠCompression": 66161,
  "ervlet": 4560,
  "(groupId": 98385,
  ".rstrip": 59563,
  "()>": 21620,
  "dh": 30621,
  "reload": 38982,
  "el": 301,
  "è´ŃæĪ¿": 102971,
  "ĠoutputPath": 95017,
  "ĠLifecycle": 74392,
  "ĠDemocr": 6251,
  "ĠFRE": 62606,
  "utenberg": 44433,
  "quiries": 31900,
  "Ġmentioned": 9733,
  "ç¥Ģ": 103651,
  "(sl": 55691,
  "ĠBarrel": 63971,
  "Ġsupremacy": 64403,
  "UA": 17782,
  "ĠCh": 910,
  "\\TestCase": 58859,
  "åİī": 100895,
  "remarks": 14447,
  "ĠMelbourne": 26437,
  "erten": 50958,
  "Ġds": 11472,
  "ĠTOOL": 92813,
  ".querySelectorAll": 28444,
  "getChild": 68350,
  "Ġplein": 83771,
  "Node": 1955,
  "ilinear": 70933,
  "Ġmerupakan": 76983,
  "æ§İ": 121151,
  "BA": 7064,
  "ç¡¼": 121162,
  "Grace": 86543,
  "centage": 16133,
  "å¹¶æľª": 105624,
  "èĬĤå¥ı": 105288,
  "Ġsigns": 11929,
  "_Parse": 77337,
  ".Is": 4506,
  "ä½ľäºĨ": 106972,
  "}`,": 28350,
  "_DECLARE": 48415,
  "ĠSPD": 62724,
  "THON": 41499,
  "è¿ĺéľĢ": 113290,
  "ä¼łè¾ĵ": 107468,
  "ĠDOWN": 27494,
  ".DotNetBar": 42308,
  "/*------------------------------------------------": 73062,
  "ĠSHOW": 38481,
  "IRQ": 61315,
  "accur": 35921,
  "é¾ħ": 121170,
  ".q": 11354,
  "'];?>\"": 67339,
  "Ġswitching": 27765,
  "ĠmainAxisAlignment": 33692,
  "æĪĳæīį": 111189,
  "olate": 33066,
  "IDDEN": 38289,
  "Ġappraisal": 78292,
  "ĠORDER": 15520,
  "ObjectType": 49530,
  "ĠHolden": 86385,
  "åľ¨åľ°ä¸Ĭ": 108975,
  "Ġ%\"": 68868,
  "è½±": 120088,
  "è½¯éĽħé»ĳ": 74531,
  "Ġterror": 8648,
  "_SAMPL": 85144,
  "Ġtriang": 76405,
  "é¢¨": 101369,
  "Immediately": 95693,
  "ä¸ĢéĹ´": 109968,
  "å¾ľ": 120734,
  "Ġhello": 23811,
  "cerer": 68881,
  "ĠStay": 28737,
  "è§īæĤŁ": 118835,
  "Ġcrippled": 97952,
  "å¿ĥçĲĨ": 100438,
  "Ġpurchase": 7627,
  "controls": 28517,
  ".getM": 66378,
  ".acquire": 69627,
  "_out": 6068,
  "UserCode": 92853,
  "Ġgest": 12743,
  "ento": 17537,
  "Rich": 27177,
  "ĠDS": 20578,
  "æİ¨åĭķ": 115503,
  "Ġsentiments": 57114,
  "ĠElo": 99069,
  ":p": 44389,
  "nesia": 97475,
  "æĲĮ": 123145,
  "fl": 1489,
  "ĠpageTitle": 87221,
  "Ġ@_": 64677,
  "Ġagreements": 19473,
  "ä¸ªäº¤æĺĵæĹ¥": 115603,
  "-au": 81997,
  "(cljs": 68827,
  "judge": 92361,
  "Ġwhales": 56774,
  "(primary": 73259,
  "Ġabandoned": 22978,
  "mul": 24160,
  "ĠBath": 19161,
  "ewise": 24350,
  "èĬ°": 122195,
  ".Geometry": 62862,
  "_filters": 22481,
  ".abstract": 82390,
  "åįĩæ¸©": 114882,
  "Ġnm": 25723,
  "Pending": 32027,
  "ĠSETUP": 90857,
  "ä¼ĺè´¨": 101172,
  "Ġsign": 1841,
  ".dll": 22200,
  "æĥĽ": 122892,
  "iei": 75999,
  "åĲį": 13072,
  "buffers": 60433,
  "Ġsclerosis": 90257,
  "avern": 33718,
  "eros": 6264,
  "ĠVAT": 47592,
  "èĨ¦": 121797,
  "ĠPetersburg": 53948,
  "å½ĵåīįä½įç½®": 108839,
  "ĠBlockPos": 79064,
  "é³ĺ": 123721,
  "Ġconvinc": 35861,
  "Ġwhitespace": 36372,
  "_bi": 66814,
  "ETwitter": 53753,
  "éĿĴçĿĲ": 107013,
  "ĠSav": 20079,
  "ĠNSLocalizedString": 60272,
  "Ġlighting": 17716,
  "æ¶Ł": 120497,
  "_Clear": 57744,
  "_CAP": 21879,
  "Ġ+\"": 28184,
  "éħ°": 119048,
  "Runs": 73920,
  "_chk": 64673,
  "Ġbootstrap": 26925,
  "Ġtea": 15243,
  "é£Ĳ": 122507,
  "Ġrepercussions": 80809,
  "_INITIALIZER": 90214,
  "Ġpolyline": 92241,
  "çļ®èĤ¤": 102010,
  "ĠeventType": 58551,
  "Ġdps": 94029,
  "ä¸¥åİīæīĵåĩ»": 116809,
  "é¼į": 122061,
  "ĠtemplateUrl": 13031,
  "è¥¿èĹı": 105169,
  "rido": 69549,
  "kir": 67931,
  "Ġ-------------------------------------------------------------------------": 90915,
  "ä¸¥èĤĥ": 106625,
  "_Error": 28651,
  "tiles": 60882,
  "å¯ºéĻ¢": 118116,
  "Owners": 57762,
  "frared": 81382,
  "_Set": 14812,
  "ĠNose": 92123,
  "Ġioctl": 64460,
  "Ġblogs": 25659,
  "_secondary": 77759,
  "çĶŁæ¶¯": 103132,
  "Ġinforming": 61925,
  "åħ¬æĬ¥": 117611,
  "è®ĵä»ĸ": 116808,
  "PEAR": 81255,
  "Ġdeposit": 16539,
  "Ġexcluding": 43778,
  "pdb": 84202,
  "ĠSAFE": 65869,
  "ĠAlter": 42851,
  "ĠGreenville": 92554,
  "ä¸Ģè¶Ł": 111270,
  "eddar": 77616,
  "ĠWidgets": 77176,
  "ç±¼": 120214,
  "Ġville": 38873,
  "ĠprincipalColumn": 58801,
  "Ġsteadfast": 84287,
  "å¤Ļ": 119629,
  "()+\"": 25589,
  "ĠCache": 19479,
  "UNS": 88673,
  "Ġwatches": 31760,
  "Ġdoch": 40157,
  "ĠMuslims": 19503,
  "æĭĨè¿ģ": 107461,
  "Ġtelevis": 89965,
  "äº§éĩı": 104825,
  "connection": 7742,
  "Ġweld": 32766,
  "OrUpdate": 56059,
  "ĠDates": 51624,
  "ä¼łéĢĴ": 104793,
  "ATEGORY": 25087,
  "Lu": 49202,
  "[a": 15481,
  "kad": 93275,
  "Ġbehold": 56115,
  "ĠInnovative": 97569,
  "connecting": 90811,
  "è¿Īåĩº": 114341,
  "ĠtypeId": 89747,
  "Ġthematic": 94768,
  "ĠWebcam": 46573,
  "peed": 4508,
  "Ġvoir": 45031,
  "ĠCGPoint": 26353,
  "ighest": 7504,
  ".token": 14416,
  "ĠENV": 32791,
  "Ġux": 89803,
  "æ¦®": 111175,
  "'].\"'": 58901,
  "efeller": 80612,
  "compression": 83192,
  "ffi": 53799,
  "Ġentert": 22887,
  "NSNumber": 34929,
  "\\Resource": 74245,
  "avatars": 74814,
  "çī¡": 103329,
  "br": 1323,
  "Activate": 31242,
  "ApplicationContext": 19736,
  "ãĢ½": 147275,
  "ç»ĦæĪĲéĥ¨åĪĨ": 106889,
  "åĳĬè¨´": 107836,
  "ĠWochen": 69713,
  "ĠJMenuItem": 73260,
  "åħ³çĪ±": 106913,
  "Ġmusique": 88569,
  "ä½Ļä¸ĩåħĥ": 109392,
  "ensible": 36764,
  "ĠLite": 40865,
  "ĠMountains": 40014,
  "/forms": 25424,
  "youtu": 54860,
  "Ġconstitute": 34156,
  "Lots": 80555,
  "JI": 45064,
  "Dealer": 93909,
  "onga": 93924,
  "roz": 63989,
  "ĠSilicone": 98800,
  "Ġmice": 23627,
  "trees": 90412,
  "ĠOnc": 76754,
  "_FN": 60122,
  "-Clause": 62915,
  "(CH": 82934,
  "Ġgenau": 68876,
  "ĠEXPRESS": 16427,
  "çĻ½": 99243,
  "Spark": 67483,
  "è¯¾": 99504,
  "Ġcoz": 84820,
  "æħĳ": 101859,
  "Ġsincerity": 99126,
  "_open": 11311,
  "è¯¥é¡¹çĽ®": 106378,
  "Ġepith": 63679,
  "å®Įå·¥": 109507,
  "Ġbribery": 92037,
  "_SHA": 38096,
  "(coll": 85629,
  "Ġtiene": 23332,
  "ĠSale": 13315,
  "ĠmouseClicked": 85739,
  "/non": 91130,
  ".resp": 90249,
  "ĠFVector": 70284,
  "_security": 48726,
  "åºŀå¤§çļĦ": 109404,
  "Ġmultic": 91420,
  "yper": 39252,
  "-signed": 92553,
  "éĹ¨è¯Ĭ": 108590,
  "Ġaft": 59701,
  "å¯¼åĲĳ": 102929,
  "_scr": 59728,
  ".\"_": 68966,
  ".TEXT": 41672,
  "æĸĩåŃ¸": 118852,
  "('": 492,
  "åįĹæĺĮ": 105996,
  "å½ĵå¹´": 104207,
  "ĠButterfly": 77720,
  "Ġairports": 45063,
  "ç»ĻåŃ©åŃĲ": 108098,
  "Once": 12522,
  "Ġridden": 92227,
  "ĠLee": 12066,
  ">Last": 95376,
  ".TAG": 58765,
  "æİ¥åıĹ": 100669,
  "Ġchill": 36301,
  "è¿Ļåĩłå¤©": 111470,
  "Ġoutage": 88129,
  "frica": 29880,
  "ĠSpain": 17689,
  ".signup": 81976,
  "æ³ļ": 122521,
  "Ġhva": 82766,
  "Ġimaginative": 76261,
  ".definition": 77840,
  "åĭĩäºİ": 109034,
  "ĠCin": 28911,
  "éł»": 103880,
  "æ´µ": 120232,
  "å¤ĸå¥Ĺ": 111861,
  "(language": 60740,
  ".attack": 61611,
  "Consult": 59755,
  "Ġextents": 91489,
  "jt": 57205,
  "Ġexpands": 51856,
  "Ġvolley": 55573,
  "Ġparchment": 86104,
  "Ġsweaty": 97421,
  "ĠPrayer": 54960,
  "bdd": 50442,
  "Ġtaxpayer": 38173,
  "Ġtowels": 52884,
  "ench": 19762,
  "ĠHazel": 75379,
  "Ġdeclared": 14275,
  "ĠCharleston": 52293,
  "è¯±å¯¼": 118343,
  "ertoire": 61604,
  "oders": 52498,
  "smooth": 56866,
  "ĠDonne": 69983,
  "slope": 96512,
  "ç®¡çĲĨæ¨¡å¼ı": 110672,
  "('(": 69963,
  "Everything": 34964,
  "ĠuseDispatch": 39894,
  "-definition": 89050,
  "Ġconfront": 16877,
  "wal": 26397,
  "Emma": 89074,
  "Prior": 49471,
  "layan": 128045,
  "','-": 67268,
  "èĸĩ": 105978,
  "ç¼ķ": 111141,
  "ä¸Ģä¸ªæĸ°çļĦ": 110581,
  "ĠNairobi": 96525,
  "å¥ĵ": 122447,
  ".OrdinalIgnoreCase": 69649,
  "azzo": 39673,
  "ĠJim": 11387,
  "Ġroman": 47776,
  "Ġassaulting": 78226,
  "éĹªè¿ĩ": 118251,
  "agy": 81670,
  "åĪ°åºķæĺ¯": 106432,
  "government": 86763,
  "èµŀåĲĮ": 112459,
  "Ġplaza": 71998,
  "ĠTag": 12353,
  "åĽ½åĨħ": 100156,
  "ĠFinancing": 92548,
  "C": 34,
  "Ġvida": 24949,
  "ĠJoin": 16471,
  "è¢Ĥ": 120250,
  "ç¨Ĺ": 121234,
  "é©±": 101422,
  "SOFTWARE": 76733,
  "Ġdrowning": 73437,
  "Ġpaving": 81468,
  "eldo": 83455,
  "Ġmarin": 89115,
  ".CSS": 82584,
  "=False": 5608,
  "_Vert": 80810,
  "Ġachieves": 82591,
  "Ġaccess": 2615,
  "imates": 47471,
  "intr": 58788,
  "ĠNicht": 86417,
  "Ġliar": 72624,
  ".idea": 95072,
  "(protocol": 84356,
  "flu": 26164,
  "åĴĸåķ¡": 104602,
  "ĠPitch": 45576,
  "çľģä»½": 107997,
  "_creator": 68532,
  ".StringUtils": 48965,
  "Stage": 19398,
  "_dur": 82289,
  "ingo": 27908,
  "Ġ'/'": 14853,
  "Ġmigrants": 30987,
  "cca": 24441,
  "èıľ": 99800,
  "Ġserver": 3538,
  "imore": 21382,
  "Feat": 98824,
  "å¥ĩçī¹": 114047,
  "Ġxe": 82790,
  "å¹¶æĹł": 110811,
  "Ġdar": 15269,
  "æĹ©é¤ĲåĬłçĽŁ": 109540,
  "Ġinnovative": 18199,
  "Ġtutorials": 43812,
  "/manage": 81117,
  "æĺ¯ä¸Ģä»¶": 107477,
  "ï¼Ĵ": 24918,
  "Telefone": 85813,
  "é«ĺå³°è®ºåĿĽ": 114287,
  "{name": 47006,
  "åħ¬æ°ĳ": 105618,
  "å¯¼è¯»": 112930,
  "ral": 3461,
  "Ġcarc": 74466,
  "(gen": 36884,
  "getId": 15612,
  ".activity": 13770,
  "}\\\\": 85539,
  "ĠStockholm": 52082,
  "avid": 15212,
  "ĠWallace": 38856,
  "_met": 44517,
  "Ġnipple": 87880,
  "Ġffi": 76956,
  ".getServer": 81951,
  "åºĦåĽŃ": 114402,
  ".radio": 73288,
  ".setImageBitmap": 94977,
  "Ġsubsequ": 13085,
  "åĩºä¼Ĺ": 117006,
  "Ġdeparted": 55596,
  "Ġshells": 42954,
  "é¡ºä¸°": 115921,
  "Ġ\"@/": 73735,
  "ĠClarkson": 93194,
  "æ¹İ": 121045,
  ".process": 16988,
  "ĠAnyone": 32534,
  "message": 1994,
  "_CONTAINER": 50689,
  "reso": 49764,
  "Ġextremely": 9016,
  "!!!!": 17085,
  "Ġpredicate": 24283,
  "å±¼": 122159,
  "è°·çĪ±åĩĮ": 116087,
  "åĵªç§į": 113195,
  "Ġconverge": 79767,
  "ĠInvasion": 94404,
  "Ġler": 75020,
  "rellas": 72923,
  "_TRI": 41283,
  "=req": 84016,
  "ĠNe": 4182,
  "ACT": 6823,
  "Ġfos": 48390,
  "ĠPK": 24826,
  "ĠKills": 60853,
  "ç¸ł": 121714,
  ".setBackgroundColor": 60137,
  "Drv": 87847,
  "ĠGover": 93884,
  "Ġbuilders": 48086,
  "regunta": 86273,
  "Yes": 9454,
  "Ġragazzo": 92998,
  "ĠWAIT": 54390,
  "äº®çľ¼": 117586,
  "_week": 31277,
  "moth": 67404,
  "Ġsides": 11067,
  ".assertNull": 91072,
  "åĪĨéĲĺ": 113420,
  "ategor": 7593,
  "_by": 3710,
  "akers": 8312,
  "èĥĮéĿ¢": 116522,
  "Ġvac": 9283,
  "arging": 74716,
  "_rgb": 37407,
  "stdint": 31435,
  "èĤĿ": 101364,
  "ä¼İ": 119617,
  ".temperature": 74366,
  "ongo": 6363,
  "èį¸": 120307,
  "å½Ĵå±ŀ": 115892,
  "unks": 15296,
  "èĬĤèĥ½": 101487,
  "ĠBAL": 69145,
  "çĦ¶": 60894,
  "Ġbond": 10815,
  "Ġmoy": 51038,
  "èīħ": 123216,
  "ĠTwenty": 43856,
  "ĠOwen": 46709,
  "ĠgetS": 73683,
  "ĠWu": 36130,
  "åĲĦ": 99200,
  "AGIC": 30864,
  "Ġsexe": 15974,
  "çŃī": 49567,
  "aaa": 32646,
  "Ġbinds": 57485,
  "ĠAdidas": 69889,
  "çŁŃæļĤ": 108658,
  "åĨ²éĶĭ": 114204,
  "\":[-": 63028,
  "åıĮè¾¹": 116658,
  "Ġsignificant": 5089,
  "(Edit": 70377,
  "Ġmatchmaking": 61987,
  "Ġmeeting": 6438,
  "åħ·æľī": 100629,
  "Ġwys": 54547,
  "è¾ĵäºĨ": 114646,
  ".nc": 31958,
  "ights": 2796,
  "ĠTeuchos": 85089,
  "vertime": 80238,
  "(baseUrl": 93191,
  "\"'": 20584,
  "(foo": 71880,
  "Ġhosts": 18432,
  "ç½į": 123766,
  "Cad": 93338,
  "kn": 19095,
  ".direct": 38930,
  "(ra": 82034,
  "apers": 9532,
  "Ġfiring": 22830,
  "ANGLE": 37571,
  "ĠMinnesota": 18925,
  "Pdf": 67596,
  "ĠStokes": 97520,
  "æľ¬ç½ĳ": 102620,
  "Ġinhab": 25252,
  "ercises": 47715,
  "Ġmosques": 86559,
  "ç»ŁæĪĺ": 119003,
  "Ġoffend": 83986,
  "æĪĳä¼ļ": 105351,
  "æ§ĥ": 123367,
  "(asset": 50718,
  "ĠALSO": 49821,
  "ç¡ĸ": 120622,
  "Ġl": 326,
  "ä½ĵå½©": 118037,
  "Ġbirths": 65232,
  "ĠMadd": 43537,
  ".ActionListener": 30964,
  "æĪĳä¸įæĺ¯": 111020,
  "Ġkost": 62411,
  "dden": 10792,
  "æĹ©æĹ©": 112181,
  "_issue": 53340,
  "ĠPUSH": 70509,
  "åŃĹæ®µ": 44931,
  "Ġheroine": 80087,
  "Ġgrandmother": 38184,
  "Ġsanity": 46842,
  "å·¥ç¨ĭå»ºè®¾": 107627,
  "VB": 36874,
  "Ġcarpet": 27854,
  "åĮª": 109642,
  "Ġpencils": 96338,
  "å´ĩé«ĺ": 115120,
  "æľĭ": 99574,
  "Ġdaylight": 52021,
  "Ġ\"+": 6630,
  "Ġwirk": 50368,
  "ĠString": 923,
  ".ModelAdmin": 68119,
  "head": 1983,
  "ENTA": 72321,
  "ã°Ģ": 123715,
  ".getSystemService": 68720,
  "\"_": 35089,
  "çīĩåĪ»": 111502,
  "Ġbeaten": 30294,
  "-instagram": 90397,
  "éŃļ": 108371,
  "åģľçķĻåľ¨": 112151,
  "Ġintolerance": 74331,
  "access": 5211,
  "ĠSomebody": 93092,
  "Ġgenerado": 79634,
  "Ġjitter": 84392,
  "ĠLaure": 32667,
  "heroes": 53476,
  "ĠUltimately": 54006,
  "credits": 55769,
  "Ġgim": 83258,
  "èĥĹ": 120181,
  "æĦŁæŁĵ": 101304,
  ".Cap": 78963,
  "sqrt": 26888,
  "Ġrepresentatives": 23130,
  ".softmax": 75172,
  "-site": 28554,
  "Refresh": 14567,
  "Nut": 78470,
  "_ROUND": 78519,
  "ĠFre": 7577,
  "ĠBew": 37210,
  "ĠUruguay": 72290,
  "çłŁ": 120350,
  "(time": 9730,
  "abouts": 63299,
  "æĶ¯æŁ±": 109793,
  "ĠMISSING": 98779,
  ".TestCase": 31363,
  ".execute": 7769,
  ".Abs": 33255,
  "Visibility": 11432,
  "Ġdescriptors": 47517,
  "oppable": 77539,
  "Ġrevolt": 64835,
  "ĠPAGE": 25040,
  "çļĦæŃ¥ä¼Ĳ": 112552,
  "Ġexacerbated": 91441,
  "åĩĽ": 116822,
  "pch": 70348,
  "æ¥¼çĽĺ": 105582,
  "Ġextracting": 59408,
  "ori": 13601,
  "Ġpersonalised": 84248,
  "/type": 49611,
  "ĠDimensions": 32023,
  "æĸĩåĪĽ": 109121,
  "iedad": 39029,
  "èµŀ": 99709,
  "Ġrecur": 63548,
  "ĠMourinho": 65318,
  "wick": 21188,
  "AAAA": 25699,
  "mina": 75435,
  "Ġsingapore": 95762,
  "Ġmales": 24037,
  "VisualStyleBackColor": 13715,
  "æĭ¿åĩºæĿ¥": 113121,
  "ALS": 46737,
  "INCLUDED": 90747,
  "ç¶²åıĭ": 114466,
  "ĠTex": 31468,
  "ĠRohingya": 96751,
  "æļ´æ¶¨": 116031,
  "PELL": 22374,
  "{{$": 29283,
  "å±±åİ¿": 110071,
  "Ġadvertis": 19220,
  "(vc": 80698,
  ".RequestMethod": 68940,
  "asctime": 77077,
  "tro": 32442,
  "Ġconsolidated": 59291,
  "éĽ»è¦ĸ": 114214,
  "Ġrag": 20475,
  "Ġevacuated": 62258,
  "ACC": 29442,
  "Ġblurred": 72400,
  "Ġdistilled": 88767,
  "å°ºå¯¸": 105356,
  "Ġlvl": 46129,
  "Ġpossessions": 52535,
  "ĠTHAN": 90006,
  "ĠNew": 1532,
  "(enum": 64545,
  "éĻ¤å°ĺ": 113903,
  "roulette": 98148,
  "åĩĢåľŁ": 117425,
  "-upload": 47169,
  "éķ¿ä¸īè§Ĵ": 107587,
  "amaged": 91820,
  "leaflet": 81707,
  "-dismissible": 77633,
  "/t": 5523,
  "Ont": 66303,
  ".createSequentialGroup": 23416,
  "Ġsolves": 67477,
  "ĠRotation": 47528,
  "flows": 38140,
  "ListGroup": 81434,
  "ĠPerform": 25001,
  "ĠGrab": 36194,
  "Ġadvance": 11912,
  "elters": 46783,
  "ĠGuards": 69285,
  "venient": 47139,
  "finder": 33339,
  "Ġspy": 21236,
  "Ġadel": 71969,
  "/ic": 76398,
  "*n": 23986,
  "enerating": 93107,
  "'].'\"": 65990,
  "Ġbreakthrough": 41345,
  "æĬµåĪ¶": 114569,
  "ĠAREA": 69632,
  "åĭĸ": 120647,
  "éĤ®è½®": 116997,
  "ĠIC": 19288,
  "/location": 91505,
  "èĢĻ": 119367,
  "è°¢è°¢": 102570,
  "Locations": 43037,
  "è§£çŃĶ": 106185,
  "Printing": 38528,
  "èıľåĵģ": 115915,
  "Ġteach": 4538,
  "Being": 33142,
  "network": 17511,
  "Ġremnants": 72340,
  "Ġquestionnaire": 47864,
  "Ġconfer": 48743,
  "ĠHybrid": 49627,
  "ä¸Ģæľ¬": 105663,
  "ĠSpi": 19751,
  "Ġstati": 95877,
  "åŃ¦ä¸ļ": 110157,
  "ScrollPane": 26122,
  "åĪĳäºĭè´£ä»»": 117782,
  "ĠJourney": 42580,
  "Faces": 71940,
  "ropy": 17764,
  "Ġsequence": 8500,
  "stopped": 89863,
  "Water": 28253,
  "dd": 631,
  "-sk": 45307,
  "äºĶå®ĺ": 117785,
  "_corpus": 94226,
  "Ġassortment": 55295,
  "Will": 9945,
  "ĠManchester": 19361,
  "æ·±åĮĸæĶ¹éĿ©": 112680,
  "Ġinspector": 44725,
  "ĠMrs": 17618,
  "ĠElon": 68539,
  "ĠDrop": 15733,
  "(gs": 83394,
  "installer": 63216,
  "èŀº": 101697,
  "Ġremoval": 16652,
  "/pm": 97989,
  "çĮĽ": 100525,
  "work": 1778,
  "å¼ĢåĬŀ": 110037,
  "Ġretard": 75972,
  "Ġcourtesy": 26013,
  "ieved": 30977,
  "PublicKey": 61822,
  "ä¸įå¦¨": 107303,
  "Ġcrafting": 44067,
  "æ¸¼": 123095,
  "Ġscanners": 94046,
  "Ġ\"[\"": 50681,
  "Ġreasoning": 32711,
  "edef": 4219,
  "çŃīå¤ļä¸ª": 108211,
  "åĬĽæ±Ĥ": 110750,
  "ĠAlonso": 74067,
  "urope": 4084,
  "icolor": 73809,
  "KC": 64638,
  "_formatted": 86610,
  "ĠCauses": 73005,
  "=r": 31120,
  "gend": 57064,
  "ï¼ģãĢį": 75764,
  "InputElement": 50804,
  "WC": 25459,
  "Ġroll": 6502,
  "tru": 65253,
  "æŃ£å¼ıåĲ¯åĬ¨": 112372,
  "ĠChili": 81415,
  "éĥ½ä¼ļæľī": 110864,
  "MO": 10531,
  "ĠGK": 97409,
  "ĠJonathan": 23269,
  "Ġworn": 23704,
  "è¿ĺæľīå¾Īå¤ļ": 109016,
  "ĠAnother": 13293,
  "_scale": 16727,
  "èĸħ": 121725,
  "ĠDynasty": 73395,
  "Ġcog": 61566,
  "Hom": 49642,
  "Ġstrive": 36006,
  "Ġenumeration": 51578,
  "Certificate": 33202,
  ".activ": 57490,
  ".parameter": 54848,
  "å®ŀçİ°äºĨ": 104415,
  "ĠTB": 30080,
  "çĪ±å¥ĩ": 116548,
  "Ġcharge": 6757,
  "Ġobservers": 36543,
  "éªĵ": 120833,
  "Ġexhaust": 17502,
  "Ġappalling": 84805,
  "_configs": 59150,
  "GER": 8738,
  "endir": 66473,
  "ï¦Ķ": 151135,
  "çł°": 117783,
  "Signing": 93358,
  "Plot": 25605,
  "æĵģæľī": 110849,
  "Ġsubgroup": 80115,
  "oundary": 72466,
  "unders": 31009,
  "çĸŁ": 119337,
  "Ġmatchup": 44837,
  "_Type": 13729,
  "cano": 68277,
  "è½¬åıĺä¸º": 115949,
  "Ġservants": 41732,
  "ĠKara": 78350,
  "ĠByteString": 95302,
  "è¨±": 100955,
  "Ġlabel": 2383,
  "assemble": 69108,
  "æīĢä»¥è¯´": 109304,
  "ĠComparative": 96180,
  "Ġæ·»åĬł": 82339,
  "-N": 11250,
  "issa": 21429,
  "-phone": 50480,
  "Ġstabilization": 82838,
  "ĠUsuarios": 94993,
  "WriteBarrier": 38754,
  "_GPS": 97123,
  "Ġ//.": 63029,
  "-week": 29509,
  "Ġtraditions": 30906,
  "Ġ').": 49884,
  "-thumb": 66196,
  "Persistent": 53194,
  "(close": 68890,
  "äºĨä¸Ģä¼ļåĦ¿": 116668,
  "(activity": 30212,
  "arth": 46501,
  "'\"": 14913,
  ".memo": 77791,
  "Ġobra": 61734,
  "ĠCBD": 22059,
  "æŁ¯": 105264,
  "çİ»": 102139,
  "Ġtake": 1896,
  ".percent": 62277,
  "quierda": 86381,
  "iquid": 31989,
  "\"(": 29209,
  "acre": 28474,
  "Ġdeserialize": 35240,
  "æĮģç»Ńæİ¨è¿Ľ": 117623,
  "è¶ħé«ĺ": 112168,
  "Ġsealing": 65834,
  "_ANDROID": 73238,
  "Ġgra": 27599,
  ".unwrap": 55395,
  "agree": 68100,
  "Ġelections": 15991,
  "inky": 38034,
  "Svc": 92766,
  "Ġdwar": 70043,
  "çľŁçļĦ": 100672,
  "Ġprotections": 36324,
  "Padding": 21616,
  "åĲĮæł·": 101165,
  "é²º": 123566,
  "å®¶éķ¿": 101976,
  "é«ĺæ¸©": 105650,
  "Ġnaming": 34948,
  "èį®": 120053,
  "afd": 92139,
  "Ġko": 15236,
  "ä¸ĢåĪĩéĥ½": 107967,
  "ç»ıåķĨ": 116482,
  "è¡ħ": 103701,
  "eman": 15977,
  "alion": 49741,
  "ĠDivider": 47457,
  "'in": 51052,
  "ĠEllie": 88261,
  "ĠMk": 52848,
  "_ret": 21695,
  "çĦ¯": 121039,
  "æĲŃéħį": 104402,
  "NFL": 87101,
  "ĠGNUNET": 99099,
  "Ġintermitt": 59669,
  "Ġjenis": 93251,
  "amaha": 85213,
  "Ġsimd": 92257,
  "Ġreason": 2874,
  "Ġcame": 3697,
  ".getDrawable": 86137,
  "ever": 2054,
  ".cp": 66260,
  "Ġcontempt": 45354,
  "æĢĬ": 122356,
  "Ġimmigration": 15093,
  "_ro": 26608,
  "Ġcouple": 5625,
  "ĠDarling": 94539,
  "Ġshar": 25626,
  "Justice": 69686,
  "Ġowned": 12938,
  "ĠLocke": 81922,
  "Ġincub": 48627,
  "Ġdeaf": 46742,
  "blings": 97463,
  "Ġejaculation": 98202,
  "iginal": 11040,
  "ĠLaboratory": 31084,
  "ccc": 37054,
  ".label": 2909,
  "ĠAstr": 38516,
  "æĿķ": 122205,
  "-note": 67238,
  "ĠFDA": 29373,
  "Ġexh": 56659,
  "éĶĮ": 103354,
  ":)])": 95804,
  "_utils": 17309,
  "Ġacts": 14056,
  "ĠHoll": 24504,
  "LEC": 84130,
  "ĠLIS": 99026,
  "Ġarab": 51312,
  "return": 689,
  "éĻĶ": 119991,
  "Ġconflicts": 25800,
  "è¡·": 101806,
  "_Out": 36675,
  "é»ĳ": 56652,
  "-placeholder": 69098,
  "zbollah": 58504,
  "Ġprincipales": 81412,
  "Ser": 31745,
  "Ġgens": 46004,
  ".patient": 61599,
  "Ġadverse": 30859,
  "#:": 48082,
  "åħħåĪĨèĤ¯å®ļ": 115557,
  "Ġeconomically": 46279,
  "free": 10593,
  "å¾ħéģĩ": 105669,
  "However": 11209,
  "}${": 31192,
  "View": 851,
  "ĠCummings": 87371,
  "Ġconsist": 6685,
  "ModelIndex": 40364,
  "ä¼łåªĴ": 102655,
  "aux": 11981,
  "DIST": 79440,
  "ĠCONT": 16120,
  "Ġbroadcaster": 59883,
  "UGH": 37812,
  "ĠKaplan": 80137,
  "å¹³æĸ¹åħ¬éĩĮ": 107231,
  "iance": 5284,
  "_DOM": 30230,
  "æĭĽå¾ħ": 114713,
  "ashes": 14051,
  "_LOWER": 90132,
  "swers": 9409,
  "Ġdozen": 20403,
  ",ch": 69997,
  "ĠWon": 42449,
  "IDO": 70974,
  "éķŃ": 121986,
  "è¿Ļäºĭ": 110367,
  "å¸Ĥå§Ķ": 102490,
  "Ġexecutions": 68146,
  "tau": 29143,
  "regulated": 80622,
  "ĠWalton": 70409,
  "çħĭ": 123249,
  ".getHost": 99083,
  "Ġmedal": 36612,
  "éĩįçĤ¹å·¥ä½ľ": 114119,
  ".Maybe": 98212,
  "ĠWords": 27630,
  "ä¼¤": 99616,
  "åĢĴæĺ¯": 105968,
  "éģŃéģĩ": 104928,
  "TG": 76787,
  "(Message": 29359,
  "Ġhem": 17280,
  "_WAKE": 76221,
  "éĽĨåľĺ": 112971,
  "_bootstrap": 88424,
  "åķ«": 122800,
  "çª¨": 121514,
  "è·»èº«": 116222,
  "ĠDrink": 47473,
  "èĬ¥": 118441,
  "INUE": 48771,
  "äºĨä¸Ģåľº": 112096,
  "ĠAlg": 81199,
  "Ġark": 55217,
  "Ġnic": 17327,
  "ĠSeries": 11131,
  "é¢Ħ": 98841,
  "<?>": 19542,
  "Ġbeautiful": 6233,
  "ĠMam": 47769,
  "æ±°": 101682,
  "Transient": 48183,
  ".\",": 10465,
  "Struct": 9422,
  "éĢīæĭ©äºĨ": 106049,
  "undef": 16135,
  "æĺ¯ä¸ª": 104104,
  "_case": 19096,
  "çį¸": 118086,
  "Ġgdk": 89939,
  "insky": 51441,
  "Ġhandler": 7013,
  "OD": 2069,
  "ç½ĳçº¦": 113924,
  "Ġquests": 49177,
  "oooo": 25761,
  "åŃ¦åĳĺ": 104874,
  "annotation": 24674,
  "çŃĶå¤į": 110463,
  "ä¹ĭç¾İ": 109961,
  "ASE": 4066,
  "ĠCot": 67725,
  "ĠCHANNEL": 58756,
  ",),": 59564,
  "Ġpetitioner": 83403,
  "ĠAdapterView": 70497,
  "ç¬¬ä¸īä»£": 117064,
  "aptcha": 25431,
  "å¤©çĦ¶æ°Ķ": 105909,
  "ï¿¤": 147958,
  "modelo": 78451,
  "\"fmt": 21871,
  "mana": 47476,
  "emin": 25684,
  "Ġfully": 7225,
  "ewriter": 72480,
  "Bomb": 91726,
  "Ġschnell": 58052,
  ".VisualBasic": 62399,
  "ĠShib": 95337,
  "_allow": 55731,
  "ä¸įè¯¥": 109841,
  "ĠBedford": 72668,
  "VICES": 20273,
  "_enter": 37480,
  "åħ¢": 119467,
  "SID": 36499,
  "ï¼īï¼Į": 48272,
  "ä¸ľçĽŁ": 110441,
  "ĠWrath": 89515,
  "_qual": 64391,
  "çĻ½é©¬": 115866,
  "è´¹çİĩ": 116406,
  "_parms": 98935,
  "åĽ½æ°ĳç»ıæµİ": 110996,
  "ie": 645,
  "ĠVinci": 96766,
  "ĠRaf": 39577,
  "æ¬§": 99831,
  "Ġshoes": 15294,
  "ĠgetAll": 23955,
  "Ġaids": 51697,
  "ç½´": 121432,
  "_ENCOD": 53269,
  "èĩªçĦ¶æĺ¯": 111725,
  "åĲ¸æĶ¶": 104460,
  "issions": 16528,
  "Violation": 74971,
  "Ġefficiencies": 91026,
  "charm": 98409,
  "å¼ķåĬĽ": 117794,
  "æ¡¡": 120324,
  "æĮģä»ĵ": 114255,
  "Ġnightmares": 74262,
  "Ġ=>": 589,
  "Ġsele": 27319,
  "Ġfreder": 84076,
  "ĠMarc": 18880,
  "director": 69795,
  "(u": 8154,
  "ĠMediterranean": 37685,
  "-transparent": 74218,
  "_cap": 16388,
  "/article": 38181,
  ".heading": 68358,
  "xxxxxxxx": 44102,
  "éĿ¢ä¸´çĿĢ": 109187,
  "Ġbegin": 3161,
  "ĠNike": 33144,
  "ĠUITextView": 88199,
  "-shared": 94908,
  "Ġweave": 67508,
  ".ContentType": 62710,
  "ĠPS": 11405,
  "æ¶Īå¤±äºĨ": 113757,
  "Ġaluminium": 54893,
  "Ġperf": 21784,
  "Ġsimplex": 91651,
  "Ġamis": 86792,
  "Ġparms": 58477,
  "Ġalready": 2669,
  "UniqueId": 72498,
  "æĺ¯æĪĳä»¬": 105075,
  "r": 81,
  "MenuStrip": 50445,
  "ToSelector": 60081,
  "whelming": 93079,
  "prise": 9671,
  "Ġaggressively": 48039,
  "ĠLow": 12041,
  "_trade": 52162,
  "ataka": 60124,
  "BERS": 44116,
  "åĽ½ç½ĳ": 113136,
  "ĠPyObject": 15891,
  "Ġdeadliest": 98369,
  "Ġpartes": 80182,
  "orang": 84168,
  "Ġontvangst": 50290,
  "dump": 27660,
  "ĠOliver": 30246,
  "ĠVita": 54624,
  "-kit": 91476,
  "'):": 34939,
  "ĠUtf": 43432,
  "æĪĺäºī": 104304,
  "inds": 8673,
  "ĠJohn": 3757,
  "(serializers": 57968,
  "gett": 76445,
  "aines": 32803,
  "liament": 12403,
  "Ġarrive": 17331,
  ")\\": 10699,
  "Ġtempl": 67530,
  "(out": 9828,
  "ERC": 27434,
  "students": 37218,
  "è¿Ļå®¶åħ¬åı¸": 116531,
  "Mbps": 86142,
  "_UNDER": 92614,
  "ĠSuff": 59263,
  "Ġdoctor": 10668,
  "Est": 13782,
  "_inches": 73258,
  "éº¹": 123422,
  "Ġpsyched": 60733,
  "/software": 78727,
  "ç¾İæľ¯é¦Ĩ": 112921,
  "::~": 14252,
  "{}": 6257,
  "Ġfrm": 28354,
  "Ġadec": 86718,
  "ĠRed": 3731,
  "ĠJam": 20016,
  "Bot": 23502,
  "Ġsenses": 37107,
  "æ¸ħæĺİ": 110602,
  "Tex": 22710,
  "Ġtitle": 2265,
  "Ġjag": 26742,
  "arena": 30527,
  "æĪĳè¿ĺæĺ¯": 109230,
  "Fe": 6123,
  "ĠNurses": 95236,
  "Ġclr": 62127,
  "ĠCrusher": 16200,
  "ĠThey": 2379,
  "(Base": 22225,
  "éģĴ": 121037,
  "-layout": 37803,
  "iculty": 25990,
  "å¶ħ": 123135,
  "èīºæľ¯": 100377,
  ".Ap": 22829,
  "æľīè®¸å¤ļ": 107273,
  "éķĿ": 121779,
  "åº§è°Īä¼ļä¸Ĭ": 118177,
  "ĠMeng": 60054,
  "Aff": 25841,
  "çŃīæ´»åĬ¨": 110561,
  "ĠTues": 82683,
  "Ġbetween": 1948,
  "èģĶçĽŁ": 104237,
  "ician": 12452,
  "empor": 52371,
  "ä½įäºİ": 103987,
  "ĠTextEditingController": 45998,
  "ĠBeautifulSoup": 35910,
  "_JOIN": 69317,
  "Ġsek": 43834,
  "terdam": 50129,
  "_SUB": 17282,
  "(isset": 11328,
  "_bb": 50255,
  ".createElement": 9732,
  "ĠFrancisco": 12879,
  "èĩ´åĬĽäºİ": 104717,
  "/fa": 87562,
  "-company": 91033,
  "æŃ²": 106660,
  "_regularizer": 79059,
  "_g": 1889,
  "å¸¸å¹´": 109308,
  "ĠcenterX": 89801,
  "æĻºæħ§": 101934,
  "å¹´è½»äºº": 102411,
  "å°ıå§Ĳå§Ĳ": 117253,
  "Ġattaching": 71808,
  "Ġvariants": 26012,
  "Ġweaknesses": 43567,
  "æĸ°åĨłçĸ«æĥħ": 116386,
  "construction": 47197,
  ".concat": 15256,
  "åĽŀäºĭ": 103326,
  "å¼ģ": 119582,
  "éĨħ": 121580,
  "Device": 6985,
  "girls": 60196,
  "processed": 34022,
  "?$": 46311,
  "Ġnotifier": 73169,
  ")(": 2376,
  "å¼ºè°ĥ": 104046,
  "iques": 8303,
  "Ġtools": 7375,
  "çľŁæŃ£çļĦ": 104483,
  "éĿ¢èĨľ": 109618,
  "Ġrecomend": 70394,
  "/layouts": 89117,
  "asonic": 42275,
  "åĪºå®¢": 118680,
  "æĬķèµĦé¢Ŀ": 116012,
  "æİ¼": 120584,
  "_presence": 56403,
  ".bd": 97234,
  "ä»¬": 79478,
  "ç¾İèĤ¡": 111417,
  "é«ĺåħ´": 102483,
  "ĠReceive": 37422,
  "ĠAssignment": 34427,
  "Ġpz": 97102,
  "Histogram": 77210,
  "èĪŀè¹Ī": 105808,
  "åĲįè¯į": 113046,
  "Union": 32658,
  "Ġclicking": 18458,
  "Recent": 25140,
  "åľ°æ®µ": 112537,
  "atrix": 2555,
  "aptops": 40973,
  "ĠDominic": 67034,
  "Empresa": 55366,
  "foreground": 34919,
  "Ġeuler": 90970,
  "ĠOPS": 82855,
  "-row": 19545,
  "gone": 45596,
  "_renderer": 52345,
  "?": 30,
  "Semantic": 97931,
  "ĠParents": 42926,
  "ç´Ķ": 115802,
  "ĠNaz": 28774,
  "ĠTHEME": 86655,
  "=torch": 66257,
  "éĶŁ": 121223,
  "ated": 657,
  "Ġproces": 28294,
  ".innerHeight": 54076,
  "PUR": 95445,
  "reement": 17150,
  ".neighbors": 83882,
  "ĠCORE": 50183,
  "(root": 9206,
  "Ġ[{": 18466,
  "ellular": 53130,
  "Ġbeginnings": 66382,
  "Ġheroes": 22907,
  "åİĺç±³": 105887,
  "...]": 61399,
  "-fetch": 80040,
  "Ġstockings": 75605,
  "Pressed": 12775,
  "pin": 13273,
  "/Users": 97821,
  "å¸®å¿Ļ": 106128,
  "ĠOW": 28869,
  ".lat": 28631,
  ".YELLOW": 94651,
  "èģĤ": 110550,
  "ĠEMC": 73704,
  "ĠKnoxville": 94902,
  "_epsilon": 98983,
  "ĠCON": 3418,
  "ĠReality": 43774,
  "beiter": 72964,
  "RIPT": 27210,
  "Ġunreliable": 66029,
  "Ġdojo": 84859,
  ">a": 43875,
  "/ip": 54919,
  "Ġflick": 28347,
  "Ġrho": 31381,
  "cluir": 44721,
  ".More": 92768,
  "ĠObama": 7105,
  "Ġselfies": 85297,
  "ĠAircraft": 58845,
  "ĠLn": 97819,
  "_EP": 52194,
  "ĠFTC": 78260,
  "é©¾çħ§": 118810,
  "owan": 80231,
  "Ġalliances": 69700,
  "ention": 2939,
  "å¹¿": 80942,
  "_stage": 35238,
  "TL": 13470,
  "(Duration": 64114,
  "Ġ['#": 90084,
  "BAD": 53572,
  "æĬ±ä½ı": 118396,
  "issue": 11159,
  "ManagedObject": 41055,
  "Colon": 88665,
  "Ġbuffet": 60786,
  "/md": 74823,
  "MX": 29423,
  "Ġpleasantly": 81274,
  "çİ¡": 119789,
  "ç»ĨåĮĸ": 103340,
  ".Popen": 65540,
  "ĠbtnCancel": 87756,
  "ĠVille": 89130,
  "Ġdemol": 35161,
  "roots": 37165,
  "Ġclas": 56120,
  "ĠGiul": 62551,
  "Ġresidual": 32147,
  "Ġwrath": 63291,
  "èĬĬ": 119593,
  "Ġnie": 11316,
  "modal": 5667,
  "Ġdisposed": 25574,
  "è¿½éļı": 117665,
  "Ġillustration": 39034,
  "æ»ķ": 113473,
  "èµ¢å¾Ĺ": 102796,
  "Ġbodily": 47031,
  "ç»ıè¿ĩå¤ļå¹´": 116676,
  "Ġtheatrical": 65233,
  "Que": 25776,
  "Ġ'%$": 81388,
  "Ġplaceholder": 5878,
  "Ġstarttime": 92395,
  "è¿ĻéĩĮçļĦ": 106370,
  "Ġdividends": 55264,
  "Paul": 25300,
  "æ»Ĩ": 123255,
  "Ġvmin": 88263,
  "_DIP": 41524,
  "=[\"": 27965,
  "ĠtextSize": 77400,
  "_HTTP": 34954,
  "Ġcessation": 82360,
  "Ġcontact": 3645,
  "Flow": 18878,
  "Pressure": 68269,
  "ĠJSON": 4718,
  "Ġasking": 10161,
  "Ġoptimizing": 73042,
  "\">//": 72006,
  "returns": 4216,
  "é¢ĨåħĪåľ°ä½į": 116554,
  "ustrial": 46379,
  "è¯·è¾ĵåħ¥": 47955,
  "dm": 13849,
  "room": 2966,
  "/services": 22258,
  "inform": 40440,
  "åľ¨": 18493,
  "andest": 90856,
  "-caption": 58317,
  "_deleted": 39418,
  "é¨Ļ": 119051,
  "ANTED": 49468,
  "irez": 59736,
  "ĠAmsterdam": 37741,
  "=admin": 95890,
  "ĠLoose": 86002,
  "_IMP": 97415,
  "Ġdispute": 25033,
  "ĠTZ": 87105,
  "éģĬæĪ²": 110256,
  "_shutdown": 54804,
  "(pdf": 85180,
  ".AD": 91872,
  "_Word": 96544,
  "Ġscreens": 15310,
  "èıľé¸Ł": 114546,
  "åĽ½åľŁ": 103318,
  "Ġtesters": 89719,
  "Ġdeflate": 92689,
  "_SAMPLE": 41439,
  "è¡Ħ": 120443,
  "è¶ĬæĿ¥è¶Ĭå¤ļ": 104343,
  "å¼ĢæĪ·": 105892,
  "permit": 39681,
  "Ġsew": 22352,
  ".runner": 41228,
  "blocked": 61348,
  "_SP": 17747,
  "handled": 38821,
  "Disney": 71665,
  "_sql": 18063,
  "Mor": 41678,
  "å¯Ĥ": 101749,
  "Ġglobal": 3644,
  "çª³": 121683,
  "Ġnarr": 13408,
  "Ġgeometric": 52484,
  "_tip": 48014,
  "Ġpredecessor": 39174,
  "ä¸įç®¡ä½ł": 115860,
  "ä¸»æµģ": 105276,
  "Ġfruity": 91932,
  "ĠQA": 65908,
  "ĠTranslator": 76191,
  "rc": 1287,
  "_JSON": 25356,
  "quina": 53406,
  "åģıåĲĳ": 115673,
  "Ġzahl": 88628,
  "åľ¨æĪĳåĽ½": 109705,
  "åºĵéĩĮ": 115223,
  "åŁł": 103750,
  "è¯¡å¼Ĥ": 115613,
  "Ġdeformation": 90521,
  "addons": 77270,
  "axis": 7184,
  "Ġclergy": 62484,
  "DialogContent": 80329,
  "_queryset": 66638,
  "ĠImpro": 21961,
  "é¢ĳç¹ģ": 106689,
  "åĮĹçº¦": 114691,
  "Ġ//(": 67022,
  "Ġbiased": 47661,
  "Matcher": 37554,
  "hc": 38052,
  "berg": 7725,
  "animation": 23050,
  "èĴĭä»ĭçŁ³": 115395,
  "HONE": 70281,
  "Ġsupervisors": 72951,
  "irror": 28812,
  "Ġmasse": 57517,
  "_NV": 49631,
  ".spin": 90471,
  "Ġmie": 29065,
  "datatype": 62409,
  "lig": 7708,
  ".navCtrl": 82500,
  "Ġdepicting": 59694,
  "rowad": 82287,
  "=fopen": 74087,
  "Ġveces": 56329,
  "Ġmaken": 54056,
  "Ġoper": 1997,
  "ĠLatest": 28157,
  "ĠTopic": 32911,
  "èĩ´åĬĽ": 102368,
  "å¡«": 68756,
  "Ġexpansive": 60738,
  "renched": 53971,
  "å°ıä¼Ļ": 103621,
  "Ġshutter": 47956,
  "éķ¿æķĪ": 103312,
  "UES": 11308,
  "Ġhackers": 40367,
  "('/')[": 94773,
  "æĹ¥ãĢħ": 137777,
  "Ġliberation": 54533,
  "(GUI": 95159,
  "astro": 22975,
  "Ġutiliser": 74044,
  "ĠStringType": 93635,
  "èģĮä¸ļæķĻèĤ²": 110092,
  "ä½Ĩä»į": 115873,
  "us": 355,
  "_Not": 60816,
  "ipment": 5402,
  "å«Ń": 123416,
  "ĠRegulations": 48257,
  "éľĢè¦ģ": 85106,
  "Near": 51962,
  "Ġvibrant": 32976,
  ".type": 4852,
  "_PTR": 20657,
  "åŁ¹åħ»": 101112,
  "GORITH": 66889,
  "Ġhele": 54095,
  "ĠBrig": 37789,
  "ĠAbb": 25973,
  "Ġdisable": 11156,
  "viewController": 95412,
  "ĠInform": 30601,
  "Ġsupreme": 43122,
  "amt": 35225,
  "merican": 15717,
  "Ġvillages": 32789,
  "è¿Ļä¹Łæĺ¯": 104624,
  "bw": 39824,
  "Ġsectarian": 78780,
  "Ġstalled": 67841,
  "PopupMenu": 99071,
  "ĠLenovo": 63699,
  "Ġartisan": 66119,
  "Ġconceptual": 43801,
  "Ġcongressman": 73488,
  "=\"-": 23948,
  "éľĩæĴ¼": 107390,
  "(texture": 54050,
  "=node": 79158,
  "(Product": 44504,
  ".WaitFor": 99153,
  "cat": 4616,
  "Ġsweetness": 63450,
  "ĠROC": 97826,
  "æĦĨ": 121243,
  "Ġmainstream": 20729,
  "Ġpigment": 76578,
  "_DEF": 21736,
  "Ġaudiences": 29894,
  "/\\": 34319,
  "Ġfreelancer": 92668,
  "<<<<": 35684,
  "Ġneighbors": 18709,
  "loops": 82451,
  "å°±å¤ŁäºĨ": 118488,
  "ĠCognitive": 72135,
  "Ġcompassionate": 59861,
  "ä¼ģæ¥Ń": 105272,
  "/shared": 25948,
  "Ġdiscour": 33193,
  "åĳĢ": 104256,
  "å´Ł": 122816,
  "Ġzig": 85812,
  "Ġbeads": 54208,
  "ĠALTER": 75397,
  "=msg": 97378,
  "é³ģ": 123644,
  "Ġthrilling": 56299,
  "Ġbowling": 58196,
  "_property": 16638,
  "Invest": 33876,
  "components": 5149,
  "åĥļ": 113680,
  "Ġgeil": 62022,
  "reg": 1580,
  "Ġbarren": 93988,
  "åĨĻéģĵ": 112774,
  "ä¸Ģæ±½": 110775,
  "Ġ''": 3355,
  ".codigo": 68255,
  "])/": 39193,
  "Rot": 36936,
  "_PLAYER": 36554,
  "é£ŀæī¬": 115449,
  "Ġremover": 76248,
  "/remove": 74930,
  ".ip": 23171,
  "ĠShields": 74797,
  "çįł": 121655,
  "_as": 11898,
  "Ġyouth": 12537,
  "æĬ¹": 101537,
  "My": 5050,
  "Ġadvantages": 22146,
  "Ġschizophren": 50181,
  "EventData": 65874,
  "Ġ\"]\"": 87596,
  "etched": 36780,
  "ĠEf": 94089,
  "ĠCounts": 85659,
  "Pour": 42178,
  "Ġobserved": 13166,
  "anka": 26671,
  "onical": 22391,
  "Ġlost": 5558,
  "-radio": 62693,
  ".SET": 41267,
  "Ġcamper": 91053,
  "ĠDependencies": 80490,
  "dealer": 78235,
  "æľ¯": 99216,
  "Ġinstalling": 26632,
  "dbus": 78986,
  "æª¢æŁ¥": 113574,
  "éĢļå¸¸æĺ¯": 112452,
  "ĠThumbnail": 87792,
  "ĠRescue": 44403,
  "(jsonObject": 71930,
  "DEN": 91510,
  "ĠMana": 49338,
  "osten": 14012,
  "Ġalb": 81598,
  "TOP": 25378,
  "ç¤ºèĮĥ": 101179,
  ".Closed": 95163,
  "notEmpty": 89517,
  "eral": 3253,
  "Ġdrilling": 38562,
  "å©Ĩå©Ĩ": 107602,
  "æĴ·": 121551,
  "å±İ": 113845,
  "_PAYLOAD": 79493,
  "ĠBD": 39310,
  "æ®ĩ": 120086,
  ".mockito": 29631,
  "alysis": 9092,
  "ritt": 54913,
  "Term": 17249,
  "ective": 95878,
  "-Token": 89022,
  "èĵ¬": 101761,
  "Li": 45421,
  "-hole": 86593,
  "èĢĮä¸Ķè¿ĺ": 107470,
  "ç¯ļ": 123555,
  "æ±¹": 119323,
  "Ġstm": 55258,
  "%-": 42973,
  "Ġharmon": 17774,
  "foto": 42138,
  "ngle": 66230,
  "è¤Ĥ": 119464,
  "ĠinitialValue": 60062,
  "ç¨į": 93266,
  ")initWith": 39278,
  "å¸Ĥäººå¤§": 116181,
  "æĢı": 119962,
  "Ġacquire": 21256,
  "ĠMEM": 24478,
  "-enter": 48215,
  ".XtraReports": 36516,
  "Ġpolling": 30644,
  "vergence": 80748,
  "-existent": 59828,
  "azel": 68326,
  "Ġreasoned": 92369,
  "abor": 4324,
  "Ġnivel": 42345,
  "Ġousted": 97455,
  "ĠInterested": 76262,
  "Employ": 36032,
  "ĠConvers": 55396,
  "_sample": 17491,
  "bal": 13313,
  "ĠStack": 14284,
  "ĠĠĠĠĠĠĠĠĠĠĠĠĠĠĠĠĠĠĠĠĠĠ": 5180,
  "çļĦåŁºæľ¬": 105166,
  "ĠsetSelected": 45263,
  "Ġmotivate": 61325,
  ".groupby": 53682,
  "Ġdies": 8725,
  "eg": 791,
  "è°Ĵ": 120805,
  "Reduce": 50325,
  "Ġcone": 22161,
  "Ġdads": 88761,
  "jak": 62402,
  "å§Ķå±Ī": 110471,
  "ç§¤": 113978,
  "Ġstead": 16845,
  "Ġcabo": 88384,
  "Ġglazed": 92186,
  "æĪį": 119603,
  "ĠHAVE": 18590,
  "2": 17,
  "Ġingest": 88272,
  "LinkedList": 33915,
  "å¿ĥçĽ®ä¸Ń": 110509,
  "tps": 96031,
  "å®¶å±ħ": 102192,
  "(dm": 85677,
  "Saturday": 33674,
  "Ġcols": 17000,
  "Ġminiature": 56763,
  "å¡¥": 123139,
  "çĢļ": 118758,
  "ĠSurrey": 66964,
  "åı¯ä»¥éĢīæĭ©": 108325,
  "åĲĦåįķä½į": 110246,
  "æĪĲè´¥": 118730,
  "decor": 32093,
  "ç¢³éħ¸": 117178,
  "eld": 783,
  "Ġinvolving": 15860,
  "Ġguint": 51726,
  "Such": 20706,
  "conf": 6135,
  "_Channel": 68858,
  "éĶħçĤī": 108409,
  "ĠPerl": 44432,
  "ogenerated": 58605,
  "Ġcramped": 98732,
  "ĠQStringLiteral": 70697,
  "æĭ¿èµ·": 108599,
  "æī§æĶ¿": 109072,
  "eway": 24723,
  "èµŀæī¬": 118253,
  "ä¸ĢåľĪ": 109107,
  "Mil": 59232,
  "_project": 16352,
  "ĠAqua": 71407,
  "Ġfound": 1730,
  "åĲ§": 100003,
  "Ġarea": 3082,
  "Ġmanually": 20083,
  "éħ£": 119252,
  "ĠExposure": 70766,
  "<State": 62201,
  "='\".$": 24658,
  "è·¯äºº": 111183,
  "Ġforefront": 51201,
  "æĳģ": 121108,
  "èģĶåĲĪåĽ½": 105707,
  "åŁºç¤İ": 112952,
  "Ġposition": 2309,
  "(events": 50496,
  "EMY": 63442,
  "(amount": 33989,
  "Ġnarrator": 64171,
  "ĠLeo": 36748,
  "'=>'": 6897,
  "******": 6824,
  "_icon": 15648,
  "æ´Ĺæ¾¡": 109582,
  ".RED": 40982,
  "<s>": 128245,
  "Ġproblematic": 34933,
  "ĠPb": 97354,
  "Ġmarsh": 31996,
  "ç´§è¿«": 112667,
  "åŃµåĮĸ": 103072,
  "-spec": 57794,
  "]**": 78341,
  "Files": 10809,
  "åı¦æľī": 108427,
  "å°ıè¯´": 104032,
  "æ³¨å°Ħ": 107833,
  "ĠGal": 10620,
  "Ġbestowed": 94729,
  "Ġgenerator": 13823,
  "umd": 60245,
  "éĶĨ": 120959,
  ">]": 53529,
  "(bundle": 54201,
  "-move": 95694,
  "éļ¹": 122331,
  "åģļä»Ģä¹Ī": 106428,
  "egan": 15756,
  "ĠDXGI": 74500,
  "Ġeducational": 16229,
  "éĢĿ": 101649,
  "è¾ĵåħ¥": 31196,
  "Ġcannabinoids": 92886,
  "-description": 42830,
  "Ġ\"),": 59312,
  "_redis": 87542,
  "_INFORMATION": 53124,
  ".Update": 16689,
  "ĠTBD": 72264,
  "Ġenums": 70717,
  "Ġcountert": 60110,
  ".boost": 85058,
  "Ġasynchronous": 39007,
  ".cy": 56686,
  "ĠGranite": 64494,
  "cream": 46000,
  "Ġraw": 7112,
  "ĠHerbal": 86872,
  "Ġrefere": 38908,
  "(Cl": 43644,
  "å°¬": 102732,
  "ç¿Ļ": 123022,
  "Ġconstants": 18021,
  "Ġinnovate": 90964,
  "è¿Ľè´§": 117124,
  "ĠDEV": 50895,
  "ĠSubstance": 94287,
  "Ġconducts": 73098,
  "HasForeignKey": 74313,
  "Verts": 88793,
  "Ġcalc": 10035,
  "Ġfunctor": 74712,
  "Ġoccurred": 10017,
  "Ġarsenal": 56931,
  "Ġmethyl": 78474,
  "('~": 96025,
  "Ġhurting": 47289,
  "ĠJean": 19685,
  "å¥ı": 101477,
  "requested": 67105,
  "ĠCopp": 80999,
  "Ġconceived": 49078,
  "%\\": 69616,
  "Foreground": 25982,
  "floating": 82510,
  "Ġdisgust": 67062,
  "responseObject": 86006,
  ".setLayoutManager": 67633,
  "Ġconnectors": 57070,
  "\"=>$": 31682,
  "/socket": 55480,
  "ĠIU": 80625,
  "Ġprefetch": 90477,
  "æ·Ĩ": 103890,
  "ounters": 92002,
  "aktu": 50654,
  "\\data": 65955,
  "çĿ¿": 107198,
  "south": 66484,
  "Ġgrim": 43417,
  "ĠIniti": 31397,
  "-type": 10604,
  "/high": 58135,
  "pro": 776,
  "éĢĻæ¬¡": 112331,
  "Ġprem": 6811,
  "astic": 5064,
  "èĢµ": 122287,
  "Ġnational": 5313,
  "ĠSandy": 38385,
  "Ġpedestal": 91655,
  "Ġprisons": 48329,
  "Ġmessages": 6605,
  "CallCheck": 71196,
  "-tax": 57044,
  "Ġcoming": 5001,
  "_am": 22880,
  "<Scalar": 78505,
  "Ġpigeon": 92544,
  "ĠElseIf": 62223,
  "Ġaccelerometer": 96748,
  "Ġlicense": 5723,
  "ĠEmployees": 43641,
  ".running": 57617,
  "Ġmaman": 93431,
  "Ġlineage": 63909,
  ".addAll": 27078,
  "çī§": 100534,
  "instead": 64837,
  "Ġprelim": 29613,
  "AndView": 24266,
  "Ġcreations": 52762,
  "[block": 82913,
  "ĠProperty": 8655,
  "å·¥ä½ľä½ľé£İ": 115959,
  "_barang": 54601,
  "å°ıåĦ¿": 113126,
  "Ġallows": 6147,
  "ä¸įå½ĵ": 108486,
  "ow": 363,
  "ĠSTREAM": 69811,
  "åļĦ": 121752,
  "åģļæ¢¦": 113819,
  "ĠBoat": 44232,
  "ButtonText": 54603,
  "Ġisr": 93562,
  "-yellow": 72912,
  "ĠPul": 34862,
  "Ionic": 96140,
  "èļ¨": 120374,
  "earchBar": 92336,
  "Ġcounsel": 16080,
  "Ġexperiment": 9342,
  ")e": 51921,
  "_loss": 11193,
  "ç«¯æŃ£": 118301,
  "FTWARE": 8247,
  "%^": 45899,
  "å¤ļè¾¾": 114361,
  "ĠEra": 47588,
  "explained": 80850,
  "äº§åľ°": 110369,
  "ĠSetUp": 92101,
  "phalt": 35174,
  "INAL": 29446,
  "_Detail": 94762,
  "ĠPAS": 59917,
  "=Y": 91994,
  "icot": 86437,
  "è¯µ": 103624,
  "ONA": 94987,
  "ĠLem": 47406,
  ")m": 46607,
  "ĠTwig": 41631,
  "ospels": 97998,
  "Caption": 32123,
  "Ġpolar": 24660,
  "éĢļè½¦": 103428,
  "ĠKag": 75991,
  "Initialized": 22495,
  "Ġproduced": 8947,
  "éĢŁåº¦": 101149,
  "æ·±å¤Ħ": 108563,
  "Ġrespecting": 68415,
  "å°±è¦ģ": 104134,
  "æŃ¤ä¸¾": 114365,
  "Ġleadership": 11438,
  "éĶĻè¯¯": 32100,
  "IES": 5369,
  "_ENGINE": 62177,
  "ĠTRADE": 96861,
  "lassen": 70489,
  "vised": 25379,
  "è°İ": 103488,
  "æ¼Ń": 121297,
  "Ġmorality": 44551,
  "éĢĢåĩº": 76921,
  "INY": 64953,
  "æ°´åŁŁ": 114067,
  "åħ³äºİæĪĳä»¬": 110952,
  "aying": 17270,
  "Ġmech": 83496,
  "Ġpairing": 47713,
  ":<?": 89471,
  "Ġtable": 1965,
  "Ġpiping": 76479,
  "è½»è½»åľ°": 115791,
  "ä¸Ģéĥ¨åĪĨ": 104954,
  "ĠPropTypes": 9602,
  "outside": 66990,
  "ĠColleg": 56565,
  "(elements": 54646,
  "æĺİçĻ½äºĨ": 108449,
  "èĤ¥èĥĸ": 110134,
  "_take": 73261,
  "Room": 14003,
  "åľ¨å¤ĸ": 107435,
  "æ°ĳå±ħ": 117312,
  "new": 931,
  "ĠPSI": 88178,
  "Ġadvancements": 82687,
  "=context": 70694,
  "ĠSections": 59037,
  "å·¡éĢ»": 111384,
  "image": 1805,
  "italize": 34313,
  ".Path": 17474,
  "å®ĮåĸĦ": 100677,
  "å¾ĺå¾Ĭ": 114937,
  "ä¹łè¿ĳå¹³": 100852,
  "ReturnType": 84362,
  "Random": 13999,
  "Ġposi": 80893,
  "GetType": 58064,
  "è¿ª": 100222,
  "MSG": 19575,
  "Ġtotaling": 81123,
  "aming": 6469,
  ".OnClickListener": 15447,
  "Ġjumlah": 85140,
  "findViewById": 25782,
  "ĠAttribute": 16752,
  "Ġbecoming": 10454,
  "Evento": 95925,
  "å±ķåĩº": 110083,
  "é¸«": 120359,
  "Ġvezes": 76693,
  "NSURLSession": 80538,
  "Seq": 20183,
  "Ġutter": 21532,
  "ĠMany": 8999,
  "Feb": 40591,
  "ĠFACT": 58543,
  "ĠStandard": 11766,
  "Ġtasting": 46400,
  ".cmd": 25724,
  "ĠOffice": 8246,
  "GBT": 21235,
  ":type": 46445,
  "'re": 2299,
  "Ġbonuses": 32221,
  "ĠAnimation": 20752,
  "\\Test": 53766,
  "_LINUX": 74025,
  "æ´»åĬ¨çİ°åľº": 114668,
  "ĠSergeant": 64544,
  "èı²å°Ķ": 116236,
  "Degree": 58767,
  "Ġvillains": 60710,
  "Ġshows": 4933,
  "Ġune": 6185,
  "Ġpain": 6646,
  "å©Ĩ": 100562,
  "crafted": 79794,
  "ĠEle": 25949,
  "éķ±": 123685,
  ".fs": 41355,
  "ĠPriorityQueue": 84102,
  "ĠFileManager": 79288,
  ".failed": 62568,
  "-fluid": 17422,
  "arseille": 61160,
  "ĠactiveClassName": 98122,
  "ĠDispose": 16469,
  "Ġio": 6399,
  "åĲĪçĲĨ": 100745,
  "_wrap": 38550,
  "èİ³": 120308,
  "_ht": 49086,
  "èĲĥ": 119171,
  "Ġjohn": 39642,
  "å£ģçĶ»": 116595,
  "Ġprimeiro": 56081,
  "_sum": 10160,
  "_EXEC": 38235,
  "Canon": 94333,
  "ĠMaven": 98575,
  "came": 6014,
  "çĽ¸": 48921,
  "èĥ½æĬĬ": 112269,
  "Ġcreated": 3465,
  "$arr": 44039,
  "åĵĻ": 120130,
  "æīĽ": 108278,
  "ç´¢å°¼": 114055,
  "Ġclassrooms": 57116,
  "Ġaficion": 93805,
  "åĳĹ": 111382,
  "Ġmillis": 57092,
  "é¸µ": 119387,
  "(\"${": 39647,
  "ĠNunes": 85112,
  "Ġex": 505,
  "éĩįåĲ¯": 114843,
  "Ġfrem": 61122,
  "Ġcauliflower": 95870,
  "_thread": 10814,
  ".bi": 52502,
  "Ġnj": 36085,
  "dddd": 64100,
  "\",[": 83498,
  "_BS": 92962,
  "(li": 54496,
  "Ġforwarding": 62104,
  "<WebElement": 79385,
  "Ġmongodb": 77464,
  "ĠBarth": 88664,
  "vents": 47664,
  "illis": 56212,
  "Ġinfuri": 84125,
  "-env": 67462,
  "-special": 92248,
  "äĵ«": 122768,
  "ĠGary": 23826,
  ".FileWriter": 88694,
  "ĠMyBase": 60133,
  "åĺ¶": 117084,
  "ĠExodus": 87842,
  ".marker": 64967,
  "åľĨ": 100213,
  "Delta": 20277,
  "ĠInfragistics": 54902,
  "èĭ¦èĭ¦": 117969,
  "è¿Ļåı¥è¯Ŀ": 106599,
  "Ġapparent": 9981,
  "ĠSanford": 94041,
  ".page": 10460,
  "produk": 88812,
  "assuming": 65363,
  "å¥¸": 103266,
  "heit": 22385,
  "Ġfim": 52087,
  "(API": 48953,
  "ugh": 7443,
  "itime": 38504,
  "åħµ": 99807,
  "ĠTE": 18289,
  "Ġdx": 13822,
  "ä¸Ńæĸ¹": 107562,
  ".NonNull": 39625,
  "(cls": 20398,
  "èħĲèļĢ": 109985,
  "ĠElijah": 82592,
  "æ²ĵ": 119888,
  "Lee": 53988,
  "ĠNSDictionary": 28896,
  "adj": 24739,
  "Ġniveau": 51952,
  "Producto": 39227,
  ".choice": 29265,
  "åĽ¤": 117621,
  "(I": 8972,
  "æµ·åĨĽ": 106700,
  "Ġtraveler": 62765,
  ".preference": 76047,
  "ĠĠĠĠĠĠĠĠĠĠĠĠĠĠĠĠĠĠĠĠĠĠĠĠĠĠĠĠĠĠĠĠĠĠĠĠĠĠĠĠĠĠĠĠĠĠĠĠĠĠĠĠĠĠĠĠĠĠĠĠĠ": 31979,
  "Ġdipl": 16918,
  "-builder": 71814,
  "Ġmediums": 97812,
  "Ġintentional": 46864,
  "ĠGamb": 66789,
  "pek": 87176,
  "æĬµæĬĹåĬĽ": 118247,
  "ammen": 36772,
  "Ġnitrogen": 46403,
  "-du": 97205,
  "åĿª": 101597,
  "ĠUrban": 28322,
  "Ġiff": 51108,
  "Ġwarrant": 7091,
  "NotEmpty": 27416,
  "uglify": 86532,
  "Clock": 26104,
  "Ġvor": 13906,
  ".arr": 41085,
  "ĠHDF": 80240,
  "Ġnests": 95121,
  "å¤«": 99818,
  "----------------": 771,
  "æľ´å®ŀ": 116518,
  "ĠBukkit": 94672,
  "sto": 33052,
  "ĠWARNING": 26479,
  ".org": 2659,
  ".am": 13590,
  "Ġconsistently": 20699,
  "Ġpropagation": 53643,
  "(room": 35850,
  "sic": 51777,
  ".val": 10835,
  "/ad": 44460,
  "Ġshoots": 43627,
  "qs": 26358,
  "getList": 74689,
  "(Socket": 73066,
  "_fee": 34305,
  "è¯´å®ŀ": 111729,
  "åħ³å¿ĥ": 104329,
  "ouncing": 36757,
  "é¢ĺä¸»": 109842,
  "ĠTroy": 43399,
  "ĠGetEnumerator": 46479,
  "ĠSing": 10833,
  "ĠpageNo": 84882,
  "é»ĺå¥ĳ": 114866,
  "æĢ»éĥ¨": 104816,
  "éĻ½": 107675,
  "chapter": 40226,
  "Ġjou": 26970,
  "å°ıç»ĦèµĽ": 113295,
  "_Array": 47229,
  "Ġoverflowing": 93215,
  "olumn": 1286,
  "Ġ{{$": 30108,
  "éŀħ": 121368,
  "reinterpret": 52521,
  "-develop": 47961,
  "-network": 56732,
  "å¹¿éĺĶçļĦ": 109795,
  "Ġposs": 2229,
  "éĵį": 120408,
  "åįĥå¹´": 106705,
  "åı¦ä¸Ģç§į": 109851,
  "éģĭçĶ¨": 114183,
  "Ġobjs": 52937,
  "åĵªè£¡": 116998,
  "Ġrecib": 45269,
  "ĠGX": 62052,
  "_toolbar": 65695,
  "ispiel": 68057,
  "ĠTokenType": 56582,
  ".unshift": 51161,
  "Ġbanda": 96111,
  "ulls": 70423,
  "Ġaliases": 40386,
  ".IsActive": 85622,
  "åģļäºº": 109223,
  "Ġbm": 34868,
  "ennie": 98028,
  "estre": 72775,
  "\"path": 70688,
  "ĠBritt": 63017,
  "çĻ¾åº¦": 104376,
  "__)": 19141,
  "å¼Ģå·¥": 102692,
  "Ġreliance": 53080,
  "_hooks": 73113,
  "è§ģè¯ģ": 103021,
  "clair": 48172,
  "å¨ģæµ·": 110582,
  "/templates": 38941,
  "Ġsuperheroes": 90718,
  "åł¼": 122939,
  "Outer": 51322,
  "Ġsurprisingly": 28292,
  "Ġfarmer": 36400,
  ".startsWith": 26603,
  "è¯ĹæŃĮ": 107604,
  "ĠKK": 96432,
  "ressed": 14378,
  "ĠFormation": 71366,
  "PERTY": 15916,
  "æĹłè®ºæĺ¯": 102215,
  "ĠABI": 63214,
  "ĠDucks": 67782,
  "ä¿Ŀè´¹": 115520,
  "è·³": 100421,
  "Ġshook": 34914,
  "ĠCharlotte": 28373,
  "åĴ±ä»¬": 104335,
  "é¢¡": 121844,
  "Ġdiss": 13772,
  "Ġrash": 56242,
  "ĠIng": 24871,
  "\\Desktop": 91296,
  "Ġaesthetics": 66223,
  "addChild": 44852,
  "fortawesome": 56663,
  ".datas": 34471,
  "éĿ¢ç§¯": 100210,
  ".Invariant": 43032,
  "deployment": 82213,
  "èĶ»": 121376,
  "obar": 31393,
  "Cities": 76613,
  ".ToolStripMenuItem": 22261,
  "ĠPsycho": 69176,
  "Ġausterity": 60530,
  "Ġexporter": 57378,
  "ĠfindOne": 78530,
  "opies": 75541,
  "_cards": 41357,
  "Ġwriters": 16093,
  "ichte": 37347,
  "ĠMemo": 56201,
  "OUCH": 93480,
  "Ġutrecht": 95073,
  "ĠKushner": 61331,
  "è±®": 123530,
  "ç¼©åĩı": 116003,
  "è¿·æĥĳ": 117786,
  "roduction": 16741,
  "é¸¢": 119853,
  "ĠRegistro": 83637,
  "AIT": 18587,
  "ĠMac": 7401,
  "ĠFRIEND": 79343,
  "æĿ¥çľĭçľĭ": 101695,
  "hea": 39933,
  "ĠMarian": 95419,
  "onas": 55301,
  "(opt": 24539,
  "oblin": 47061,
  "Ġfal": 25484,
  "Ġexploded": 43813,
  "ä»ª": 99966,
  "ĠflexDirection": 29397,
  "æĦį": 123276,
  "ContextMenu": 56587,
  "_UC": 80314,
  "Ġexits": 42086,
  "çĥŃçº¿": 105534,
  "Ġorganization": 7321,
  "orig": 4670,
  "AVA": 35610,
  "_time": 3009,
  "ĠPOSITION": 73723,
  "_ES": 30275,
  "äºĮæīĭ": 101714,
  "jejer": 56932,
  "é«ĺç´łè´¨": 112149,
  "çĿ¡": 100425,
  "ĠAvengers": 43097,
  "Decision": 74846,
  "ĠBelly": 96585,
  "-road": 65715,
  "nage": 67055,
  "æ·±": 99194,
  "URRENCY": 57292,
  "Ġhowever": 4764,
  "ĠkB": 84435,
  "izio": 44982,
  "ĠGLint": 48165,
  "Ġkostenlose": 48522,
  "ĠCAPITAL": 77287,
  "Ġgemeins": 74354,
  "Ġdowntown": 18907,
  "å®īçĦ¶": 118192,
  "Ġear": 2430,
  "Dump": 51056,
  "æķĻåŃ¸": 114639,
  "]=$": 67551,
  "Ġdehydration": 98757,
  "éķ£": 121896,
  "#endif": 2663,
  "éĩĿ": 103594,
  "èĬ¨": 119596,
  "æµĪ": 122522,
  "æİĴåĩº": 109870,
  "éĶķ": 120966,
  ".GetItem": 92359,
  "Ġshemale": 33627,
  "precated": 19889,
  "æĸ°åŀĭ": 102169,
  "icts": 29995,
  "ç®¡éģĵ": 104577,
  "ĠTerminator": 97361,
  "_GRE": 72739,
  "å¹²éĥ¨": 100196,
  "Ġprac": 60886,
  "æľ¬åľŁ": 105210,
  "Ġappointments": 36156,
  "ĠViewChild": 68507,
  "Sorry": 19152,
  "çĥŃè¡Ģ": 103181,
  "Ġinspections": 56974,
  "ensive": 4025,
  "ĠTrip": 26754,
  "(hObject": 36170,
  "ĠLinda": 38062,
  "åİ¢": 103376,
  "Ġhomosexuality": 52351,
  "åĽĽå¤§": 104978,
  "Ġcpp": 46824,
  "[property": 76596,
  "administration": 90590,
  "Ġclase": 46380,
  "Kevin": 47681,
  "StackNavigator": 85317,
  "åĲĮæ¯Ķ": 101354,
  "ĠFunction": 5712,
  "/problem": 79997,
  "Ġiy": 50414,
  "èĩªæĿ¥æ°´": 112209,
  "ĠEuros": 85466,
  "ĠSUPPORT": 50736,
  "ĠThus": 14301,
  "Ġsynchronization": 57912,
  "Ġignorance": 40560,
  "ĠToll": 85294,
  "iggers": 21385,
  "istra": 74963,
  ".Vert": 36395,
  "ignon": 61699,
  ":text": 34952,
  "åºĹåĬłçĽŁ": 118333,
  "jerne": 75347,
  "aten": 13518,
  "ĠOPER": 41376,
  "çİ°ä»£": 100390,
  "Ġexceedingly": 75721,
  "disc": 16822,
  "atisfaction": 51270,
  "Ġconsumo": 79890,
  "atum": 26253,
  "vore": 90502,
  ".Google": 60393,
  "GENCY": 87674,
  "ĠInc": 4848,
  "è´¢äº§": 104505,
  "Ġrecv": 27006,
  "\\\">\"": 62847,
  "å·´æĸ¯": 115964,
  "ä¾´": 122498,
  "è¸¬": 121604,
  ".scrollHeight": 90859,
  "/popper": 48152,
  "Ġayant": 85771,
  "åĪºæ¿Ģ": 104313,
  "nm": 19638,
  "discover": 97629,
  "æĸ°å¾ģç¨ĭ": 114676,
  "Ġseven": 8094,
  "Ġpraising": 80578,
  "Ġoverwritten": 59173,
  "åį°å°¼": 111348,
  "éĤĻ": 119575,
  "ENU": 14973,
  "ĠNate": 54669,
  "Ġinteres": 49416,
  "ç¾İè²Į": 118891,
  "Ġ\"&#": 81238,
  "_putstr": 74475,
  "åħ±éĿĴåĽ¢": 113583,
  "Ġregulatory": 22515,
  "_schema": 25371,
  "æīĢè¯´çļĦ": 107417,
  "Ġvaluation": 50162,
  "å·²åľ¨": 109917,
  ".jasper": 90137,
  "åĶ¯ä¸Ģ": 102157,
  "ĠC": 356,
  "~~": 5817,
  "ĠRidley": 92301,
  "disconnect": 51992,
  "|=": 87803,
  "èĳ´": 122957,
  "zia": 67051,
  "Ġzb": 74355,
  "ç²ª": 111832,
  "äºĭä»¶": 57621,
  "_Account": 86855,
  "æīĵåĵį": 111576,
  "ĠMcA": 64713,
  "è§£åĨ³": 100638,
  "Ġdijo": 64910,
  "ĠRiders": 86070,
  "Ġcarn": 38338,
  "turned": 41186,
  "otropic": 78332,
  "Iterator": 11951,
  "!=": 5824,
  "ĠRapids": 54186,
  "åħ¬åħĥ": 103449,
  "Step": 8304,
  "è´¨": 99178,
  "å¤§å¤«": 110277,
  "ĠStarr": 75022,
  "Ġuy": 81900,
  "cade": 32796,
  "å®¢æĪ·éľĢæ±Ĥ": 116932,
  "Ġdiscontinued": 64159,
  "ĠWhatsApp": 40013,
  "Unified": 85379,
  "_RANGE": 28270,
  "Ġsebuah": 95466,
  "Ġdifferently": 21303,
  "Ġvicinity": 52751,
  "æŃ¦æ±ī": 102051,
  "$form": 43245,
  "updates": 49661,
  "retched": 61737,
  "ä½©æĪ´": 110064,
  "elihood": 19906,
  "Ġ<%": 59230,
  "(av": 57565,
  "åĽłæŃ¤": 101886,
  "Ġfighting": 10805,
  "ertia": 40122,
  "Ġjokes": 31420,
  ".Security": 21567,
  "currentUser": 38880,
  "(/": 9921,
  "ĠWhatever": 32639,
  "å¨Ī": 120199,
  "allis": 95144,
  "éĥ½å¸Ĥ": 101478,
  "-change": 50402,
  "Ġmingle": 90025,
  "åıķ": 122378,
  "çĲ¥": 120844,
  "publication": 71160,
  "_df": 10894,
  "yms": 75025,
  ".remove": 4850,
  "Ġ|_": 70886,
  "Ġsmell": 22068,
  ".relu": 40279,
  "Ġelectronic": 14346,
  "-guide": 91425,
  "ï¥ļ": 149812,
  "Ġegregious": 89068,
  "åįİçĽĽ": 112915,
  "ĠALERT": 90548,
  "Ġborrower": 69619,
  "Ġrope": 33420,
  "ĠGuru": 61979,
  "ĠGregory": 42969,
  "Ġfounding": 35230,
  "Ġcaller": 19865,
  "è¨¾": 121171,
  "MH": 48202,
  "tails": 39960,
  "(nx": 74326,
  "coords": 35030,
  "/********************************************************************************": 75632,
  "setCurrent": 62767,
  "èħ°éĥ¨": 117334,
  "uint": 2496,
  "upy": 57498,
  ">{!!": 89647,
  "Ġforge": 56628,
  "ĠEth": 14356,
  ".Load": 13969,
  "Ġtraders": 34587,
  "è¶Ĭé«ĺ": 108692,
  "äº¤å¾Ģ": 106816,
  "éĩįåºĨå¸Ĥ": 107827,
  "éĿĻéĿĻåľ°": 115845,
  "_side": 30862,
  "ĠNEVER": 55025,
  "ĠWins": 48444,
  "Ġlashes": 86611,
  "/inet": 83081,
  "/animate": 88283,
  "èº¯": 103641,
  "$url": 40373,
  "icolon": 38517,
  ".Server": 22997,
  "èĩªä¸»åĵģçīĮ": 115295,
  "hd": 15990,
  "ĠOrigin": 17116,
  "*l": 66180,
  "posix": 80804,
  "ĠContinued": 50621,
  "ERRUPT": 48584,
  "Ġcommod": 25550,
  "æĻĹ": 120650,
  "Owner": 13801,
  "Ġtrophies": 53444,
  "issent": 78638,
  "çļĦåıĺåĮĸ": 104896,
  "Ġrepairs": 30186,
  "Ġmotivations": 64831,
  "udev": 77297,
  "å¤©": 35727,
  "ĠVO": 43652,
  "ĠHeading": 51349,
  "æĿ¥çľĭ": 100192,
  "ONLY": 31092,
  "Ġsupers": 51690,
  "ä¿¡æģ¯æĬ«éľ²": 110223,
  "Ġbottleneck": 87838,
  "zburg": 78202,
  "ĠParcel": 42994,
  "Ġinfographic": 97382,
  "Ġcarta": 75547,
  "ĠSVG": 39800,
  "è¯ķç®¡å©´åĦ¿": 111561,
  "Ġpedido": 51794,
  "Ġsublicense": 28787,
  "_PI": 20212,
  "Ġpund": 61112,
  "-validate": 89376,
  "_keeper": 43404,
  "ĠCode": 6119,
  "åĹ¬": 121184,
  "Ġlogic": 12218,
  "_return": 12511,
  "ç¼Ĭ": 123119,
  "(mode": 31356,
  ".linalg": 37732,
  "],": 1125,
  "çĳķçĸµ": 117219,
  "ĠRegulation": 47238,
  "ĠInterstate": 65493,
  "éĭª": 119189,
  ":animated": 59400,
  "Ġdisput": 34060,
  "grading": 32259,
  ".No": 16766,
  "_reader": 22306,
  "Ġwatermark": 88006,
  "æ±¡æŁĵ": 100791,
  "_parm": 97705,
  "DATES": 92107,
  "+(": 13362,
  "ĠPhy": 92582,
  "éĤ£å¤©": 105781,
  "ewing": 78410,
  "-scale": 12934,
  "substring": 33874,
  "åīĤ": 100067,
  "Ġexhibiting": 86619,
  "ĠIb": 57497,
  "åĮ»æĬ¤": 110949,
  "ĠVerm": 29247,
  "Ġtandem": 65942,
  "veal": 40611,
  "Ġsuperhero": 45144,
  ".se": 4523,
  "çĺ¦": 102372,
  "ĠMartha": 50870,
  "ĠCIS": 74780,
  "æĽĻåħī": 115306,
  "Ġtantal": 94585,
  "Ġrelaxation": 42585,
  "æĶ»æīĵ": 117714,
  ".d": 950,
  "æ³¥åľŁ": 114411,
  "çĬ¶æĢģä¸ĭ": 114249,
  "edic": 33283,
  "ĠWhisper": 96974,
  "ĠGAP": 89887,
  "Ġaluminum": 24649,
  "å¾Ħ": 66569,
  "ĠInvalidArgumentException": 80518,
  "ĠRadeon": 37429,
  "ĠsharedApplication": 60318,
  "ĠResidents": 63248,
  "badge": 31524,
  "IFDEF": 83881,
  ".add": 1364,
  "*.": 19922,
  "Ġgibt": 27298,
  "/task": 58186,
  "ĠcurrentTime": 39199,
  "/${": 11254,
  "Ġcomfortably": 44669,
  "hotmail": 55454,
  "']}}</": 97082,
  "ĠPDF": 11358,
  ".API": 24922,
  "\\\",\\": 65290,
  "ervo": 77044,
  "Ġreboot": 34592,
  "iley": 17801,
  "Ġprograms": 7468,
  "å¤ļå°ĳéĴ±": 105957,
  "Ġcriteria": 12890,
  "(nonatomic": 33766,
  "Ġliegt": 63940,
  "Ġion": 27672,
  "Ġmoyen": 90016,
  "Bay": 22587,
  "chet": 39113,
  "æľŁçĽ¼": 110772,
  "ysi": 74284,
  "ĠIndonesian": 58829,
  "Ġphilosopher": 54375,
  "éĺ²æ±Ľ": 112608,
  ".csv": 11219,
  "uges": 50159,
  "Ġcompletely": 6587,
  "Ġages": 16639,
  "_people": 62717,
  "Unchecked": 96498,
  "ĠDrugs": 50666,
  ".nd": 24122,
  "Ġtrusting": 68244,
  "#+": 8165,
  "ĠFollowing": 22713,
  "ĠĠĠĠĠĠĠĠĠĠĠĠĠĠĠĠĠĠĠĠĠĠĠĠĠĠĠĠĠĠĠĠĠĠĠĠĠĠĠĠĠĠĠĠĠĠĠĠĠĠĠĠĠĠĠĠĠĠĠĠĠĠĠĠĠĠĠĠĠĠĠĠĠĠĠĠĠĠĠĠĠĠĠĠĠĠĠĠĠĠĠ": 79871,
  "ĠMapper": 45734,
  "regn": 39281,
  "schlie": 138663,
  "å¾·èĤ²": 115362,
  "Ġjquery": 61701,
  "Ġ\"@\"": 96848,
  "ĠsetName": 27780,
  "[s": 11880,
  "icter": 79639,
  "åħ¨æ°ĳ": 102794,
  "ung": 2185,
  "çĥŃæ½®": 111147,
  "Hz": 11475,
  "setText": 20989,
  "Ġother": 1008,
  ".ARR": 97648,
  ":request": 81995,
  "-wrap": 24208,
  "ä½łçļĦ": 103929,
  "XXX": 30100,
  "Blue": 10331,
  "éĤĢè¯·": 104331,
  "inema": 93423,
  "Ġflower": 22351,
  "Ġrecourse": 92270,
  ".Alignment": 15135,
  ".Reader": 47431,
  "ĠColorado": 15383,
  "rstrip": 70398,
  "Ġcooking": 17233,
  "FullName": 36217,
  "ä¹ŁéĿŀå¸¸": 109086,
  "ĠKor": 35070,
  "Ġprobe": 21730,
  "='${": 98514,
  ".tie": 32827,
  ".yy": 79379,
  "userid": 20085,
  "ĠJama": 40159,
  "ĠOSError": 74242,
  "mounted": 81516,
  "rel": 3748,
  "-picker": 61146,
  "drawing": 80849,
  "ĠFairy": 55076,
  "éĵģè·¯": 104124,
  "ĠDuc": 79773,
  "ĠCalculation": 74216,
  ".Files": 52009,
  "Ġtermination": 34408,
  "_rsp": 64381,
  "_THAN": 85868,
  "-te": 48793,
  "ĠSigns": 58024,
  "ague": 4663,
  "ĠOrient": 61474,
  "(order": 19385,
  "æĺĨèĻ«": 118093,
  "Terms": 43128,
  "Ġtong": 21365,
  "htmlspecialchars": 79596,
  "æħ¢": 99843,
  "æ·Ł": 122883,
  "çķĮçļĦ": 108206,
  "-var": 85415,
  "Ġinterviews": 19344,
  "')}": 37807,
  "æł¼": 33983,
  "å®ŀæĥł": 109896,
  "Ġdbs": 84581,
  "ĠEin": 18069,
  ".inventory": 37034,
  ".lineEdit": 94410,
  "allocator": 57631,
  "Ġrelated": 5435,
  "Ġregularization": 87294,
  "Ġmoves": 10797,
  "ĠJun": 11782,
  "ĠQuotes": 35613,
  "ereo": 64853,
  "ĠInserts": 84753,
  "Refer": 47447,
  "Ġcomic": 19724,
  "ĠDowning": 83679,
  "Ġautonomous": 38193,
  "è®©æ¶Īè´¹èĢħ": 116749,
  "æİ¨èįĲ": 101914,
  "Ġstones": 26210,
  "anim": 15968,
  "avourites": 69316,
  ".undefined": 32039,
  "å«ī": 103698,
  "Seller": 82235,
  "æ»Ĥ": 121311,
  "Operators": 77760,
  "ĠYOUR": 20922,
  "TP": 4239,
  "çº¾": 119198,
  "Ġidle": 27647,
  "-existing": 49357,
  "mini": 36411,
  "Ġcommenced": 64262,
  "Ġflesh": 24955,
  "Ġran": 10613,
  "ĠWise": 61001,
  ".startTime": 58776,
  "Ġquantum": 30128,
  "%;\"": 69617,
  "Ġpo": 3193,
  "make": 6927,
  "ĠTERMS": 98928,
  "å¥³åŃ©åŃĲ": 107938,
  "ç¯ĩ": 99824,
  "ennent": 88710,
  "Ġrematch": 92226,
  "(coords": 65173,
  "Material": 13415,
  "Ġ',": 6614,
  "Ġpourrait": 91115,
  "åĮ»çĸĹæľºæŀĦ": 108097,
  "ETF": 42239,
  "ĠExact": 74480,
  "AB": 1867,
  "ueblo": 60750,
  "Ġlaughed": 31527,
  "Ġworkplaces": 92062,
  "çĴĥ": 101247,
  "temps": 66280,
  "Ġhockey": 26953,
  ".Chat": 58844,
  "Ġcolleague": 36344,
  ".sourceforge": 55215,
  "è¯ģçĽĳ": 106671,
  ",{\"": 54729,
  "_detected": 98876,
  "ĠAnton": 17500,
  "ĠWest": 4312,
  "_dx": 61984,
  "ĠIOCTL": 98544,
  ")|(": 55178,
  "ĠDouglas": 30064,
  "å®ĮäºĨ": 106570,
  "æģ©": 100697,
  "phanumeric": 65788,
  "Branch": 18197,
  "scanf": 26395,
  "'^": 20213,
  "Ġindicate": 13216,
  "his": 25235,
  "_date": 4164,
  "ç¨Ĥ": 120980,
  "å°ıåŃ©åŃĲ": 109661,
  "ĠCatholic": 16473,
  "\\/": 4739,
  "Ġ(~(": 71265,
  "/Auth": 86280,
  "Ġreleases": 19232,
  "ĠChancellor": 46963,
  "copyright": 15492,
  "æĸ¯é¡¿": 115997,
  "Ġerase": 35988,
  "ĠDez": 74882,
  "_TEMP": 41244,
  "è¡Ĵ": 122848,
  "columns": 16369,
  "Ġrestrictions": 16869,
  "ources": 2360,
  "(src": 14705,
  "ovement": 14458,
  "Ġseparat": 61382,
  "è¥¿æ¹ĸ": 110192,
  ";/*": 86229,
  "Ġbrittle": 94649,
  "organizations": 69253,
  "æ¤įè¢«": 118386,
  "unto": 25420,
  "ĠLicense": 1876,
  "Ġcoordinate": 16184,
  "æ¦ĥ": 123156,
  "Ġmenacing": 93972,
  "ĠConan": 78812,
  "_intro": 68520,
  "ç¥²": 122902,
  "ĠtempList": 94864,
  "Ġnesta": 92958,
  "_rectangle": 61847,
  "_channels": 19291,
  "-high": 27561,
  "_days": 28353,
  "Ġuncont": 69993,
  "è¯ŀ": 100924,
  "/sec": 60071,
  "Ġmnist": 91264,
  ".AreEqual": 14022,
  "_sender": 54356,
  "Ġ*)(": 23585,
  "Byte": 7153,
  "Ġuseful": 5390,
  "Ġdie": 2746,
  "chest": 26320,
  "åħ¶ä½Ļ": 106177,
  "æľīå®³": 108589,
  "oad": 2731,
  "COPE": 55657,
  "multip": 77976,
  "_Call": 76028,
  "æ¬ºè´Ł": 111971,
  "Ġqueens": 68997,
  "ç¥ŀåľ£": 112704,
  "æķĻèĤ²åŁ¹è®Ń": 113629,
  "ĠTPP": 69011,
  "èĤ¡ä¸ľ": 100800,
  "-output": 59524,
  "Ġnotably": 34046,
  "Ġwedge": 63685,
  "Consider": 37175,
  "ĠAdmir": 49469,
  "Ġmour": 66583,
  "keyCode": 91367,
  "zoom": 28716,
  "å°¤ä¸ºéĩįè¦ģ": 118900,
  "OP": 3067,
  "Direccion": 82905,
  "UNUSED": 94045,
  ".promise": 51225,
  "charger": 41456,
  "regexp": 55796,
  "åĨ¬åŃ£": 105462,
  "ĠArgumentException": 39808,
  "ĠEventEmitter": 30004,
  "åĿĬ": 100896,
  "Ġrekl": 99080,
  "_pes": 92195,
  ".Entity": 9899,
  "Ster": 80350,
  "_id": 842,
  "Ġshift": 6407,
  "Ġflor": 69140,
  "_ALLOW": 44324,
  "ffe": 27969,
  "åīĩ": 101461,
  "Presentation": 55239,
  "ĠSpeak": 67201,
  "éĩĩçĶ¨": 101910,
  "]),": 9719,
  "/mail": 60819,
  "ĠAppendix": 64714,
  "ikon": 61614,
  "æķ£": 99632,
  "èĥł": 122501,
  "Ġdecorations": 47579,
  "Ġble": 12422,
  "*z": 56413,
  "æĢ»æĶ¶åħ¥": 116572,
  "ä½ĥ": 119318,
  "=function": 29486,
  "ĠMarina": 51536,
  "Ġcurly": 68103,
  "conda": 63753,
  "è¾¹ç¼ĺ": 106655,
  "é©±åĬ¨": 102474,
  "ç§Ģä¸½": 116807,
  "Ġarguing": 29574,
  "Ġairy": 96963,
  "æĺ¥ç§ĭ": 109385,
  "åĿį": 119659,
  "ĠGew": 42678,
  "Ġencoding": 11170,
  "æĪ¿è½¦": 115968,
  "ä»¥ä¸ĭ": 87752,
  "èĪ´": 120737,
  "ĠSelector": 49610,
  ".Dataset": 79356,
  "Ġ`(": 48651,
  "ç²¾å¿ĥ": 105191,
  "Ġworkout": 25242,
  "Ġbeforehand": 51059,
  "ĠKoreans": 69711,
  "PullParser": 91302,
  "_Open": 51747,
  "å®ļéĩı": 115262,
  "ecture": 62193,
  "slaught": 77068,
  "webElementProperties": 32686,
  "Provider": 5179,
  "ĠĠĠĠĠĠĠĠĠĠĠ": 310,
  "ĠAnc": 30277,
  "[['": 56330,
  "entions": 63701,
  "Ġmemorial": 37917,
  "éĩĩ": 99433,
  "ĠWalmart": 35767,
  "ĠSandbox": 96860,
  "Ġtaxation": 50627,
  "[child": 85483,
  "ĠAppeal": 60906,
  "å¸ĪèµĦ": 109761,
  "ç»ħ": 117216,
  "ĠRTBU": 93707,
  "ĠCler": 40776,
  "oningen": 97177,
  "Ġvotes": 12684,
  "_store": 14809,
  "çĶ¨åľ°": 102763,
  "ĠAvenue": 17131,
  "Ġctrl": 23743,
  "_recv": 36118,
  "-Language": 90765,
  "/packages": 72919,
  "æľĢå¿«çļĦ": 112651,
  "ĠBB": 18270,
  ".ProgressBar": 74015,
  "ĠExternal": 30936,
  "_TWO": 73892,
  "Ġvandalism": 88852,
  "ĠAlexander": 20042,
  "ĠLogo": 30052,
  "çĸĹæķĪ": 110993,
  "ĠUsage": 24567,
  "Ġemploying": 50197,
  "Ġimpact": 5421,
  "Ġsandwich": 27874,
  "Ġerect": 37632,
  "è¢¢": 120518,
  "ĠBound": 37176,
  "Ġevaluates": 66249,
  "å¸¸å§Ķ": 101785,
  "åĳĬè¯īå¤§å®¶": 115032,
  ".addr": 42826,
  "å·ī": 122062,
  "æĶ¹åıĺ": 101933,
  "_(": 8361,
  ".getClass": 19254,
  "_exempt": 95736,
  "ierte": 65161,
  "IMG": 30346,
  "ĠMali": 63894,
  "ERRY": 72895,
  "ä¸ĵä¸ļäººå£«": 114516,
  "Ġtreason": 78259,
  "è®¤çľŁèĲ½å®ŀ": 115479,
  ".tele": 39331,
  "[group": 73692,
  "_distances": 77329,
  "Ġbillionaires": 89286,
  "ĠMerchant": 55399,
  "probably": 54440,
  "æĪĳæ²¡": 110985,
  ".Int": 7371,
  ".ServletException": 53628,
  "æĻ¯å¾·éķĩ": 117421,
  "iVar": 81885,
  ".tv": 14485,
  "ĠWithEvents": 16371,
  "Ġpeppers": 57473,
  "æİ¥è§¦åĪ°": 114637,
  "æĿ¥åĽŀ": 110490,
  "Ġnurs": 16996,
  "æºĨ": 121051,
  "Songs": 93156,
  "Ġctr": 50638,
  "ĠStall": 71870,
  "Candidate": 63901,
  "Ġearnings": 23681,
  "ĠAccred": 96692,
  "ĠScientific": 37030,
  "Ġmilf": 25399,
  "ç²¾çĽĬæ±Ĥ": 118103,
  "å´ŀ": 122817,
  "gly": 22945,
  "uniform": 38351,
  ".ct": 49464,
  "IDI": 32272,
  "ĠNewfoundland": 88296,
  "-m": 1448,
  "ĠFormControl": 27677,
  "Ġcosm": 55654,
  "Ġmism": 66414,
  "_RC": 41414,
  "Ġbehaves": 73057,
  "Ġcompos": 39221,
  "BCM": 85587,
  "ç¾ĬèĤī": 110353,
  "Ġurgency": 53817,
  "Ġcv": 5544,
  "å¸ļ": 119341,
  "////////////////////////////////////////////////////////": 60908,
  "-client": 30011,
  "Ġorientations": 88835,
  "ĠscrollView": 44753,
  "_VARIABLE": 45873,
  "ĠFlor": 8780,
  "çļĦè´¨éĩı": 108042,
  "Ġfoundational": 88228,
  "éĻ·åħ¥": 102747,
  "ĠCyr": 47315,
  "é¸®": 120370,
  "Ġmonarchy": 86049,
  "ç²Ŀ": 120770,
  "Ġrestarted": 80654,
  "uitka": 58840,
  "ä¸»ä¹ī": 100091,
  "Ġsom": 1757,
  "_based": 66679,
  "ĠMinute": 55167,
  "ĠSanct": 58002,
  "consum": 66676,
  "é½ĳ": 121665,
  "Ġprojecting": 81282,
  "herit": 9263,
  "urring": 20449,
  "Ġescal": 26435,
  "åĨį": 87256,
  "Ġrecommend": 6934,
  "Ġinclusion": 27187,
  "Ġaccom": 5725,
  "ĠYEAR": 50905,
  "Ġgoverned": 26702,
  "æ¾³æ´²": 106574,
  "ĠJunction": 67956,
  "ĠapplicationContext": 85299,
  "_detect": 56457,
  "(mContext": 38441,
  "Ġcontemplate": 79807,
  "_policy": 22773,
  "(domain": 41169,
  "Survey": 68015,
  "Ġmultiline": 85218,
  "ĠRomanian": 73597,
  "Ġvivid": 42020,
  "æ²¡äºº": 106727,
  "ĠAnalyst": 40470,
  "_popup": 44984,
  "ĠDining": 38090,
  "+'&": 62929,
  ".Di": 81025,
  "Ġtai": 52537,
  "binary": 25891,
  "URLException": 64685,
  "ç²īå°ĺ": 116286,
  "_priority": 38161,
  "ostream": 7617,
  "_streams": 74872,
  "çºªå½ķ": 102866,
  "æ··åĩĿ": 105584,
  "ç¥¨æĪ¿": 108155,
  "Ġorganisms": 43204,
  "Mailer": 47608,
  "Workflow": 62768,
  "-th": 7563,
  "ĠDAM": 12360,
  "éĿ¢å®¹": 118971,
  "ĠgetModel": 73326,
  "Threads": 38666,
  "Ġmusic": 4627,
  ".ajax": 44586,
  "photos": 24603,
  "Crow": 93926,
  "ilk": 33163,
  "Ġsubdivisions": 91445,
  "CID": 54146,
  "Ġpermit": 11549,
  "Ġinherits": 75482,
  "-leaning": 77361,
  "åıĪè¢«": 110387,
  "å¸Ń": 99768,
  "çĳķ": 103824,
  "=model": 62496,
  "Ġgreeting": 42113,
  "ermen": 59158,
  "ĠPai": 87514,
  "ĠLatvia": 78158,
  "åªŀ": 123110,
  "[q": 41093,
  "ENDIF": 67815,
  "Ġtighten": 66745,
  "ĠConstructors": 51768,
  "ĠBudapest": 69595,
  "Ġtiled": 81870,
  "ion": 290,
  ":UI": 16487,
  "_TYPEDEF": 78214,
  "Ġprenatal": 96028,
  "Ġportals": 75463,
  "ä»İæĿ¥æ²¡æľī": 108285,
  "ghan": 15708,
  "_InternalArray": 72128,
  "kB": 81524,
  "å°±å¾Ĺ": 110392,
  "inne": 93232,
  "%ï¼Į": 69982,
  "å»īä»·": 115071,
  "æĹĹä¸ĭ": 102503,
  "CTIONS": 36768,
  "çĨł": 119292,
  "Ġbras": 45396,
  "arehouse": 20256,
  "ĠCd": 83990,
  "ĠSabb": 69246,
  "ç»ĦåĽ¢": 112580,
  "_wc": 75871,
  "Ġmattered": 80620,
  "Ġchicago": 92208,
  "Ġinteractions": 21880,
  "0": 15,
  "å¾Īéĩįè¦ģ": 106760,
  "ä¿ŀ": 109775,
  "Ġslik": 75224,
  "getAs": 91346,
  ".FILE": 71539,
  "NETWORK": 86884,
  "Writer": 6492,
  "åħĭæĭī": 111688,
  "Die": 18175,
  "Ġdak": 97053,
  "wordpress": 58215,
  "ĠMerlin": 75966,
  "Ġboth": 2176,
  "/page": 32180,
  "Ġcybersecurity": 61442,
  "ĠJacques": 63750,
  "Ġdashboard": 26967,
  "ĠSyntax": 32117,
  "ku": 12133,
  "_ot": 65614,
  "Ray": 29187,
  "eggies": 55560,
  "Ġsay": 1977,
  "ä¸Ł": 119185,
  "ĠAus": 20004,
  "ĠRating": 19216,
  "overs": 8969,
  "vr": 18920,
  "ĠSPL": 64700,
  "æľīåĬ©äºİ": 105767,
  "Ġjog": 30125,
  "ä¿®è®¢": 107243,
  "(HttpStatus": 53897,
  "ĠHyper": 32732,
  "åĲĪä½ľåħ±èµ¢": 117515,
  "ĠFourth": 35074,
  "_FUNCTIONS": 95484,
  "uya": 44544,
  "_Des": 98054,
  "Forward": 25925,
  "ippy": 45749,
  "ichick": 98599,
  "ĠAls": 44462,
  "Ġbatter": 8745,
  "Ġinflux": 52852,
  "å¤ļä½ĻçļĦ": 115917,
  "plers": 88409,
  "è¿Ļä»¶äºĭ": 105772,
  "ĠGuinness": 88459,
  "æĹģ": 100484,
  "éĿ¢ä¸´çļĦ": 106791,
  ".getOwnProperty": 61012,
  "ĠBug": 30501,
  "Ġrotated": 45620,
  "Ġnett": 27770,
  "Ġyup": 75446,
  "isser": 73233,
  "apsed": 9200,
  "æ¼ª": 121508,
  "Ġxb": 55932,
  "Ġkk": 49865,
  "(form": 16760,
  "åİŁåħĪ": 111685,
  "Ġpossibly": 10767,
  "contact": 6287,
  "Ġok": 5394,
  "ĠOkay": 35439,
  "Ġdesperate": 27395,
  ")!": 41295,
  "dbName": 90881,
  "Ġquantify": 75398,
  "ĠQUAL": 70275,
  "fts": 44444,
  "çĶŁäº§åķĨ": 116892,
  "lookup": 21020,
  "insula": 35373,
  "åįĬå¯¼ä½ĵ": 107371,
  "ultimate": 66566,
  "Ġspying": 62214,
  "getStringExtra": 86681,
  "åįķé¡¹": 118781,
  "cs": 4837,
  "idunt": 56043,
  "tile": 21094,
  "(which": 82794,
  "Ġrept": 63773,
  "\\Routing": 63999,
  "ĠHerrera": 96008,
  ".modify": 73988,
  "(coord": 65037,
  "ĠShark": 60436,
  "Ġtraverse": 37546,
  "Ġinfection": 18873,
  "Ġmeats": 62775,
  "egas": 14842,
  "ĠTenn": 75526,
  "ä¸Ģé¡¹": 105060,
  "Ġlangs": 63952,
  "ĠECC": 77316,
  "_server": 12015,
  "-rec": 59172,
  "è§ĥ": 122228,
  "customer": 11049,
  "Ġcontro": 82164,
  "ĠQuad": 38018,
  "KIT": 79791,
  "booking": 21278,
  ".less": 47766,
  "abcdefgh": 56747,
  "Ġenquiries": 83322,
  "-A": 6691,
  "èĪ²": 122850,
  "anio": 92708,
  "IVITY": 29111,
  "ĠSponsored": 73747,
  "è±ªéĹ¨": 113571,
  "(template": 29963,
  "Ġhoog": 98126,
  "Giving": 96502,
  "Ġimprison": 28219,
  "ĠHT": 5260,
  "èĶĬ": 123313,
  "ĠHunts": 70626,
  "è§ŀ": 121011,
  "Ġsnapshot": 16295,
  "ifie": 56509,
  "ä¿ĿçķĻ": 104465,
  "Class": 1957,
  "åıĺäºĨ": 112346,
  "éĺĳ": 121033,
  "Ġremotely": 38429,
  "çĽĸ": 99758,
  "Ġgift": 8189,
  "Ġnah": 68917,
  "å±±è·¯": 110942,
  "è®¾æľī": 106690,
  "},{": 16561,
  "acked": 11191,
  "Ġvisions": 57295,
  "_song": 57102,
  "ä¸Ńæľī": 105656,
  "è¿ŀèĥľ": 116969,
  "æŀ²": 122552,
  "ragon": 55150,
  "aina": 72622,
  "Ġmarkdown": 50494,
  "Ġhour": 6460,
  "_PED": 81630,
  "ĠIEnumerator": 27952,
  "çĪĿ": 122088,
  "ĠOWN": 68469,
  "Ġfrauen": 19835,
  "Ġtienes": 71097,
  "ingredients": 38120,
  "/node": 37211,
  "Ġpredators": 55117,
  "èĩªè´¸": 103553,
  "OLUTION": 45977,
  "_aff": 48914,
  "hasMany": 48296,
  "ĠPurpose": 29045,
  "ertiary": 66530,
  "æ±½": 95400,
  ".PostMapping": 88540,
  "Ġjej": 62964,
  "usaha": 67030,
  "Ġnam": 16449,
  "Ġhilar": 35659,
  "/access": 72356,
  "otics": 49903,
  "=image": 74655,
  "Ġwinner": 13632,
  "(callback": 23934,
  "è¿Ħä»Ĭä¸ºæŃ¢": 118626,
  "mediately": 43187,
  "å²¸è¾¹": 118428,
  "Ġstatistically": 46852,
  "Ġcuid": 56676,
  "éĢĻæ¨£": 102769,
  "æľĪåºķ": 105447,
  "Ġtoe": 30216,
  "Ġindexed": 30581,
  "rought": 6344,
  "èĦ¸èī²": 107538,
  "ĠSD": 8030,
  "æĸ°äº§åĵģ": 108055,
  "/i": 16438,
  "Ġdele": 59293,
  "CLEAR": 90349,
  "Ġpursued": 45431,
  "èĢģä¹¡": 117165,
  "ĠEconom": 50083,
  "!!!!!!!!": 50667,
  "Secretary": 97928,
  "åĪªéĻ¤": 111647,
  "chosen": 63075,
  "ĠChatt": 78213,
  "Ġsearcher": 94674,
  "elif": 12458,
  "åĲĪåĩ»": 109820,
  "ĠZak": 67453,
  "ĠUSAGE": 89740,
  "ĠRooney": 79630,
  "ä¸ªé¡¹çĽ®": 109649,
  "Ġiod": 78987,
  "VA": 12820,
  "åĲ»": 107261,
  "http": 1254,
  "ĠHabitat": 98588,
  "ĠMont": 9795,
  "è¿ľæ´ĭ": 108151,
  "æľĢéĢĤåĲĪ": 113683,
  "åĨįåĪ°": 107947,
  "BorderColor": 63932,
  "Ġ'*',": 80174,
  "IGIN": 55529,
  "uthor": 1553,
  "Bounding": 37909,
  "orton": 37100,
  ".session": 10177,
  "æĢ¥å¿Ļ": 112302,
  "èºı": 119528,
  "Ġrecognize": 15282,
  "Ġcontrat": 87003,
  "[top": 71333,
  "ĠEcho": 37806,
  "ĠuseSelector": 32392,
  ".hasNext": 22807,
  "FF": 1748,
  "\\Url": 85938,
  "Ġbele": 70056,
  ".shell": 84346,
  ".nz": 60982,
  "ĠDisp": 69730,
  "_placeholder": 60383,
  "ĠMemphis": 42062,
  "vidence": 27480,
  "Ġutilizing": 34888,
  "California": 45410,
  "ĠĠĠĠĠĠĠĠĠĠĠĠĠĠĠĠĠĠĠĠĠĠĠĠĠĠĠĠĠĠĠĠĠĠĠĠĠĠĠĠĠĠĠĠĠĠĠĠĠĠĠ": 6374,
  "ulado": 84429,
  "ä¸Īå¤«": 104683,
  "binations": 73629,
  "ĠMuss": 89714,
  "Ġbar": 3619,
  ".IM": 47929,
  "Ġdildo": 36503,
  "Ġlogits": 60788,
  "Ġfeminine": 45184,
  "ĠlineWidth": 72840,
  "Neill": 59599,
  "åīĬåĩı": 115688,
  "ruitment": 46133,
  "Ġzost": 95926,
  "_MAX": 6806,
  "éłĺ": 101683,
  "éĻ²": 120531,
  "etSocketAddress": 80507,
  "äºķ": 104097,
  "æ¸ĳ": 120782,
  "æĮĩå¼ķ": 106989,
  "èĤĵ": 119741,
  "äĤ®": 122741,
  "_PERMISSION": 52788,
  "ĠbackgroundColor": 12694,
  "Ġprinting": 18484,
  "Ġbesie": 91628,
  "èī¯æĢ§": 110690,
  "(test": 8623,
  "orgetown": 59468,
  "<img": 20092,
  "ĠVegan": 62115,
  "Ġprecisa": 72766,
  "Ġtoss": 25187,
  "Ġfools": 83642,
  "ĠNeeds": 43140,
  "ĠVote": 34034,
  "èī®": 119647,
  "çĽ´èĲ¥": 114042,
  "Ron": 53825,
  "(unsigned": 12266,
  "Ġslogan": 51537,
  "privacy": 46821,
  "Ġsunscreen": 82084,
  "Ġbloc": 40740,
  "Ġpreprocessing": 63631,
  "\\Collection": 55325,
  "ĠTODO": 5343,
  ".endswith": 40115,
  "Ġ@[": 95800,
  "ä¸¤ä½į": 105352,
  "ĠQPushButton": 52522,
  "Ġporch": 44647,
  "(inner": 68603,
  "ĠSkinner": 97042,
  "Weak": 49649,
  "Ġkosher": 97640,
  "åĬłçĽŁåºĹ": 112674,
  "_texture": 28165,
  ".arc": 46056,
  "è¹Ĳ": 123612,
  "olor": 789,
  "ä¸ĭä¸Ģä»£": 113887,
  "Ġrh": 21669,
  "ĠCeremony": 94652,
  "å¦ĩèģĶ": 113181,
  "ĠMadame": 83176,
  "åľ¨æ¸¸æĪıä¸Ń": 108255,
  "Ġpassing": 12299,
  "Turkey": 72719,
  "ĠFlatButton": 74617,
  "Ġotros": 38405,
  "åĤ§": 120989,
  "ight": 491,
  "ĠCharging": 89798,
  "ĠnIndex": 91024,
  "é²Ķ": 121474,
  "-Jan": 66452,
  "æĿ¡ä»¶ä¸ĭ": 107219,
  "Ġdoubtful": 74599,
  "çī¹": 65278,
  ".syntax": 91690,
  "Ġknex": 63355,
  "æ··ä¹±": 107977,
  "æĭįçħ§": 106349,
  "(symbol": 40723,
  "ETH": 7625,
  "ä¸įéģİ": 105908,
  "'&&": 89110,
  "ĠWHICH": 78164,
  "_FL": 22588,
  "ĠMalays": 22914,
  ".SubElement": 92342,
  "ĠRough": 57321,
  ">Password": 79458,
  "ĠGecko": 42599,
  "'order": 94442,
  "_named": 71834,
  "Ġgirlfriend": 22761,
  "æ¡¶": 101508,
  "æħ°": 100976,
  "ĠEm": 5748,
  "RunLoop": 80520,
  "Ġcombating": 95078,
  "(con": 17868,
  "Ġprintk": 58323,
  "å¿½çĦ¶": 105420,
  "Ġredistribute": 9385,
  "Kon": 77466,
  "Ġnth": 55129,
  "cki": 97738,
  "Ġwrestlers": 97830,
  "Ġdevelopments": 24961,
  "<Contact": 86496,
  "æĲŃ": 100095,
  "<boolean": 41970,
  "åĮĸåĲĪçī©": 116570,
  "noun": 90109,
  "ĠGlenn": 39108,
  "å¦Ĥä½ķåİ»": 113343,
  "çĨľ": 121672,
  "(config": 8754,
  "Ġmashed": 95134,
  "åı£è¢ĭ": 110588,
  "ropped": 41716,
  "Ġforecasting": 78382,
  "Ġsteroid": 76748,
  "ĠAgility": 94719,
  "(GTK": 41596,
  "HB": 30725,
  "bez": 143213,
  "-cal": 48136,
  "Ġadjud": 69180,
  "(stack": 27438,
  "æ¯¯": 103537,
  "iew": 570,
  "oice": 8834,
  "(util": 67811,
  "Ġorganiz": 24299,
  "Ġdespair": 45896,
  "(blob": 67938,
  ":A": 55648,
  "åĿ©": 119797,
  "è¿ģ": 100287,
  "å²ģçļĦ": 104252,
  "Ġcaption": 17256,
  "ĠResearchers": 58150,
  ".face": 46031,
  "ĠEntwicklung": 92979,
  "äºĨè®¸å¤ļ": 106650,
  "å£®å¤§": 103209,
  "ĠCenter": 5832,
  "gene": 42371,
  "arn": 1885,
  "_CONNECTED": 69434,
  "Ġinterpol": 22876,
  "');?>\"": 90827,
  "Ġencuent": 35737,
  "Ġdejtings": 71004,
  "åįģä¸īæĿ¡": 116671,
  "Ġnale": 87390,
  "Arch": 18727,
  "Ġreturns": 4675,
  "ĠMel": 10978,
  "ĠMoms": 83295,
  "forme": 75601,
  "ĠDouble": 7093,
  "èħļ": 121002,
  "é¢¤": 103255,
  "RIGHT": 11572,
  "ĠSEA": 77811,
  "}->": 57415,
  "Ġatas": 87418,
  "å¨¼": 120819,
  "Ġ=======": 94638,
  "ĠBUFF": 94924,
  "Fantastic": 96732,
  "Ġpackaged": 46137,
  "æĢ»å·¥ä¼ļ": 114610,
  "ĠCCTV": 70238,
  "Ġentirely": 11368,
  "_TRANSACTION": 78509,
  "BaseContext": 93824,
  "èľ±": 121419,
  "çīĩåĮº": 105936,
  "Ġruins": 45662,
  "[p": 11407,
  "Sql": 8269,
  "Exist": 25613,
  "ĠEstablished": 86250,
  "åıĳå¸ĥæĹ¶éĹ´": 107896,
  "Ġpermits": 28690,
  "(build": 43333,
  "å¤©æ°Ķ": 104307,
  "Ġactivate": 20276,
  "&p": 96774,
  "Ġ_": 716,
  "_TRAN": 30967,
  "äººä½ĵ": 102314,
  "åĹ«": 121183,
  "å¤ļä¸ªåĽ½å®¶": 112659,
  "Ġsegundos": 89616,
  ".formData": 92754,
  "å·´èı²": 117268,
  "ĠHawaii": 27521,
  "INO": 47975,
  "_TERMIN": 79902,
  "rimon": 48759,
  "FileSize": 67649,
  "orida": 39757,
  "Ġall": 678,
  "Ġsibling": 44223,
  "è®²åº§": 107483,
  "ĠSTATIC": 63549,
  "Ġ{!!": 21353,
  "Authentication": 19297,
  "chrono": 25768,
  "Ġgrandes": 37446,
  "ĠPey": 72880,
  "oined": 73506,
  "braco": 96967,
  "roys": 49193,
  "_calc": 38241,
  "èĢ»": 110662,
  "Ġwik": 97175,
  "ĠHaskell": 62176,
  "methodName": 58550,
  "IFIER": 26965,
  "éªĮè¯ģ": 48927,
  "nonce": 39593,
  ".argmax": 42791,
  "Ġsor": 24534,
  "ĠHence": 31040,
  "ĠGe": 4229,
  "_NEED": 86068,
  "Ġw": 289,
  ".saved": 81346,
  ".setStatus": 41023,
  "-------------</": 36642,
  "Ġallocations": 69642,
  "Ġexports": 12794,
  "ule": 1111,
  "åīįæıĲæĺ¯": 114168,
  "ĠMonterey": 97395,
  "ĠMort": 22031,
  "Ġ(^)(": 58265,
  "_decl": 35814,
  "å¯¼æ¸¸": 109414,
  "ĠBrewery": 65627,
  "Ġrevoke": 72038,
  "Gain": 58611,
  "amera": 3436,
  "éĹ´è·Ŀ": 118270,
  "Initialization": 61928,
  "Ġstadiums": 89084,
  "RH": 66973,
  "éĩįå¿ĥ": 109833,
  "Ġcolonies": 47928,
  "Ġmeticulously": 90326,
  "XE": 68773,
  "Ġchambre": 86838,
  "Ġembrace": 26732,
  "Ġ/>,": 77551,
  "åįĸç»Ļ": 114045,
  "åħ¬ç§¯": 103534,
  "flater": 11729,
  "ĠRencontres": 93373,
  "Ġexaminer": 83632,
  "Ġ{:": 22069,
  "Ġkillings": 47033,
  "å¿ħä¸įåı¯": 110032,
  "_datas": 46530,
  "Ignore": 12497,
  "uple": 6061,
  "Telegram": 72244,
  "éľħ": 123440,
  ".FixedSingle": 59160,
  "ouve": 82284,
  "CALLTYPE": 47002,
  "peon": 90036,
  "iffany": 55082,
  "ĠSERVICE": 38086,
  "çļĦä¼ģä¸ļ": 104587,
  "éģĩè§ģ": 107867,
  "éº»å°Ĩ": 112492,
  "åĭį": 122681,
  "åĨ³": 99351,
  "Ġpursuing": 33018,
  "Ġunearth": 78575,
  "Ġclub": 6335,
  "Ġfiling": 25480,
  "chunks": 84263,
  "auen": 45258,
  "Ġerg": 35276,
  "liner": 61798,
  "æ¬ł": 101463,
  "(metrics": 89788,
  "åłĲ": 122751,
  ".wait": 16294,
  "egrity": 67212,
  "çĪ±åĽ½ä¸»ä¹ī": 117531,
  "Ġpoil": 73511,
  "Ġmigliori": 74741,
  "çŁ¥": 52183,
  "Ġharassed": 67510,
  "/Runtime": 82636,
  "ĠTwins": 65268,
  "rance": 34106,
  "/big": 90936,
  "ç¾İå¥½çļĦ": 106369,
  "Ġhood": 27215,
  "vrolet": 37320,
  ".It": 27528,
  "ocale": 36311,
  "chers": 98623,
  "ĠCredential": 93379,
  "]*)": 94601,
  "odel": 720,
  "_load": 12411,
  "èĥľ": 99813,
  "oland": 96440,
  "|#": 79450,
  "ĠUIManager": 92765,
  "telegram": 81669,
  "ĠComplexity": 70618,
  "Ġlust": 40102,
  "Ġtightened": 84720,
  "inder": 5744,
  "æ²Ľ": 103725,
  "ĠSubject": 17450,
  "åĦĺ": 116395,
  "(Android": 77376,
  "criptors": 25705,
  "æ³ķå®ĺ": 107683,
  "å¹¿å¤§ç¾¤ä¼Ĺ": 115361,
  "Ġdescribes": 16555,
  "Ġslid": 59914,
  "patient": 22722,
  "RK": 77020,
  "=subprocess": 56594,
  "ĠMoist": 81704,
  "æ°´ä¸Ĭ": 110337,
  "ĠForty": 84943,
  "qc": 59833,
  "-rel": 47612,
  "[port": 96485,
  "æĸ°è¥¿åħ°": 109751,
  "éĢ¸": 104815,
  "Ġoo": 55909,
  "Ġdungeon": 42439,
  "å½¢è±¡": 101201,
  "elenium": 14784,
  "ĠWater": 9959,
  "_POOL": 51924,
  "æĦıè§ģ": 100065,
  "(LocalDate": 90698,
  "hard": 18703,
  "Ġnodded": 34965,
  "ucceed": 29264,
  "åĴ¿": 120128,
  "Ġsynonymous": 68493,
  "Ġrefreshing": 35918,
  "-data": 13945,
  ",but": 98904,
  "åµĬ": 121215,
  "å©ª": 103875,
  "_hid": 87813,
  "ĠDeg": 57237,
  "Pixmap": 35784,
  "Alexander": 77750,
  "Ġul": 8557,
  ".bz": 81374,
  "successfully": 60505,
  "ĠCocktail": 92716,
  ".accel": 77992,
  "_lit": 98399,
  "/callback": 91527,
  ".Unsupported": 65017,
  "paque": 53422,
  "éªģ": 120276,
  "ç¶ľ": 117930,
  ".hardware": 66981,
  "/DTD": 75614,
  "ologi": 85635,
  "cco": 57661,
  "feld": 30102,
  "(fin": 76300,
  "ĠNan": 32142,
  "Ġbanyak": 61892,
  "Ġmadrid": 64787,
  "elsif": 65967,
  "ccoli": 59703,
  "Ġincumbent": 50282,
  "erte": 13820,
  "åĴĲ": 103735,
  "Ġneuron": 48284,
  "_race": 91317,
  ".signIn": 77516,
  "Ġspacer": 78849,
  "ĠBes": 18078,
  "ĠIE": 18160,
  "ĠJaune": 86125,
  "Clr": 90431,
  "ĠIncredible": 79853,
  ".documentElement": 43540,
  "'];?></": 43677,
  "ĠBurger": 51771,
  "ĠEscort": 26585,
  "ĠHof": 71712,
  "unlock": 55021,
  "_DH": 92439,
  "atl": 59335,
  "olid": 5192,
  "Ġresearching": 44143,
  ",T": 19997,
  "äºĶæľĪ": 113202,
  "ĠDt": 94151,
  "åĽ½å®¶çº§": 105197,
  "èį£èªī": 102592,
  "(child": 17794,
  "ĠTwitter": 6271,
  "é³¢": 122085,
  "Ġpreds": 60721,
  "perfect": 63085,
  "Ġregime": 17484,
  "[index": 5917,
  "Ġacross": 3941,
  "Ġbeef": 24317,
  "_RECEIVED": 99145,
  "_specs": 71200,
  ".Core": 12777,
  "Ġberg": 45885,
  "ä¸ĢçĽ´åĪ°": 113536,
  "earch": 2902,
  "çī¹æĿĥ": 115899,
  "boss": 33314,
  ".splice": 21383,
  "æ°ĳæĶ¿": 103350,
  "Ġkeep": 2506,
  "BP": 26095,
  "ĠEverett": 77095,
  "Prompt": 54615,
  "coration": 26452,
  "erg": 2375,
  "byte": 3782,
  ".Audio": 51511,
  "/licenses": 6971,
  "Ġfkk": 60798,
  "labs": 70271,
  "Ġevitar": 70808,
  "Ġdemocratic": 25542,
  "éĤ£è¾¹": 106505,
  "é«ĺéĢŁåħ¬è·¯": 105477,
  "Ġethn": 78080,
  "ĠEver": 17892,
  "ĠIrma": 98392,
  "å´´": 120943,
  "Ġprohibition": 49867,
  "robe": 32836,
  "ä¸įæĥ³": 104359,
  "ĠElse": 18804,
  "åĪĨ": 17177,
  "(arg": 9404,
  "night": 9287,
  "><?=$": 51419,
  "-storage": 62795,
  "Pad": 13731,
  "Ġbelow": 3685,
  "Ġovercrow": 87104,
  "åĵĪåĵĪåĵĪåĵĪ": 118687,
  "_iteration": 62772,
  "Ġgrounds": 20664,
  "ELS": 97852,
  "TIM": 34148,
  "Em": 2269,
  "ick": 865,
  "ĠPompe": 61411,
  "ç¬¬ä¸Ģéĥ¨": 116991,
  "å¨²": 120534,
  "ä¿Ŀé©¾æĬ¤": 116429,
  "angler": 65548,
  "Ġblame": 18555,
  "CONNECT": 39521,
  "rush": 77177,
  "ĠJackets": 85564,
  "Ġapi": 6330,
  "Ġpymysql": 95373,
  "ĠPOS": 26494,
  "æľįåĭĻ": 100831,
  "æ½²": 121678,
  "Ġvb": 34719,
  "Ġemerg": 7277,
  "åĦ´": 123723,
  "Ġsignifies": 77764,
  "Ġhus": 9045,
  ".Kind": 54199,
  "(getActivity": 32090,
  "Beyond": 55341,
  "å®īä¿Ŀ": 113740,
  "Ġvu": 32514,
  "ystate": 42904,
  "å§Ķä¼ļ": 100122,
  "éĢļå¾Ģ": 112851,
  "æł¸éħ¸æ£Ģæµĭ": 111069,
  "Ġstealing": 37998,
  "ãĢ°": 145126,
  "Ġ*/": 639,
  "æį½": 120574,
  "ä¸įçŁ¥": 102085,
  "formance": 11795,
  "èĲ½åľ°": 104368,
  "ĠMcCl": 59640,
  "Ġfungus": 78802,
  "_BOOT": 57313,
  "STA": 80878,
  "ĠHISTORY": 61779,
  "Thanks": 12658,
  "ATE": 2336,
  "/div": 22013,
  "Ġrepaired": 51734,
  "ä¿¡è®¿": 108914,
  "Ġjoin": 5138,
  "Ġrounding": 51562,
  "ĠAngular": 28578,
  "é¦Ķ": 121658,
  "åŃ¦åīįæķĻèĤ²": 118388,
  "_api": 11697,
  "çļ®éĿ©": 115755,
  "wrapper": 21364,
  "Ġpesticides": 60157,
  "erca": 77893,
  "æ¨¡æĭŁ": 105717,
  "radius": 26715,
  "Launch": 32067,
  "æĻĶ": 122629,
  "Ġspur": 59031,
  "Ġtransparent": 17821,
  "(car": 42078,
  "Ġbelieves": 13605,
  "(lr": 81599,
  "lude": 52538,
  "Ġdi": 1853,
  "ĠQC": 42607,
  "Ġsenators": 38920,
  ".opend": 74899,
  "Ġpseudo": 34750,
  "Ġin": 304,
  "è°§": 121074,
  "/*@": 82594,
  "æ¼Ķ": 99312,
  "éİĸ": 117642,
  "_remove": 18193,
  ".color": 7961,
  "Ġvehement": 91368,
  "riters": 31829,
  "ters": 5045,
  "ĠAlloc": 46685,
  "Ġvalign": 23858,
  "Ġlegit": 15563,
  "Ġregrets": 67925,
  "å²ģæľĪ": 105894,
  "è®¡åĪĴ": 101039,
  "ç¬¬ä¸Ģä¸ª": 102344,
  "sf": 17246,
  "æ¯ıåĳ¨": 106854,
  "ĠRenders": 93733,
  "Ġeditor": 6440,
  "(required": 40087,
  "usal": 35414,
  "umerator": 60969,
  "å¾Ī": 99165,
  "-members": 85840,
  "ĠCoaching": 74378,
  "æ¯Ĳ": 122194,
  "cies": 69007,
  "ee": 2127,
  "ĠqDebug": 34853,
  "inecraft": 12086,
  "Ġrecognized": 14975,
  ".latitude": 33632,
  "ä¸ĭéĽ¨": 111926,
  "çº¦": 94237,
  ".identifier": 37177,
  "ĠOrbit": 84457,
  "\\Order": 69512,
  "Ġsch": 5699,
  "ĠBraves": 70677,
  "æ´Ĵ": 102737,
  "/Data": 50239,
  "Ġcanine": 74982,
  "reated": 2850,
  "BOOLEAN": 72110,
  "ç»Ŀä½³": 118871,
  "çŃīåĲĦç§į": 113464,
  "éĸī": 114860,
  "è½¬åĮĸ": 101548,
  "ĠDe": 1581,
  "Ġcousin": 35171,
  "åłĭ": 120570,
  "3": 18,
  "CENT": 36338,
  "Ġdebounce": 76839,
  "Ġteam": 2083,
  ".router": 22125,
  "actors": 21161,
  "Ġburning": 19675,
  "å¥§": 113124,
  "ĠTrev": 45001,
  "åĦĩ": 123466,
  "COPY": 57484,
  "_BLOCK": 18756,
  "Making": 42246,
  "Ġracer": 84832,
  "ĠSSP": 84989,
  "æ§±": 123434,
  "m": 76,
  ".FromResult": 75439,
  "Search": 5890,
  "Ġ'\">'": 50446,
  "çİĭ": 99445,
  "(instr": 78923,
  "Ġbmp": 43301,
  "DOWN": 22554,
  "ĠAla": 88662,
  "Ġdamned": 67365,
  "ĠExecute": 20848,
  "ĠRemember": 19881,
  "Ġannoyed": 56030,
  ".readline": 31800,
  "_processes": 80143,
  "Ġdecrypt": 38126,
  "ĠCastillo": 95683,
  "Ġsquid": 89175,
  "mates": 16457,
  "åĢ§": 122662,
  "Outdoor": 98535,
  "åŃĺè´§": 115245,
  "ä½łèĥ½": 107809,
  "ĠAbstract": 13513,
  "third": 31727,
  "åį¡çīĩ": 115199,
  "Ġ'';": 36803,
  "isify": 90293,
  "atte": 62634,
  "çĤĻ": 119183,
  "å¥½åĩłä¸ª": 116197,
  "Ġwelt": 77748,
  "è´¬": 103666,
  "ï¤ĺ": 149120,
  "Ġspectral": 55977,
  "Tbl": 91325,
  "_verbose": 67921,
  "Ġlatino": 91882,
  "Ġplacement": 21448,
  "å¼ºå¤§çļĦ": 104795,
  "è¾ĵéĢģ": 107269,
  "Ġaliqua": 85927,
  "Ġensures": 25351,
  "å®ģå¤ı": 107226,
  "ĠIrish": 17623,
  "çĲĨè§£åĴĮ": 115167,
  "(lp": 59208,
  "_CODES": 41688,
  "ynamodb": 83348,
  "ĠHut": 66313,
  "ĠSHORT": 64924,
  "(properties": 45904,
  "Synopsis": 89070,
  "åĩłä½į": 108700,
  "gee": 98394,
  "Ġbunch": 15493,
  "ĠCreateUser": 95021,
  "ĠFork": 47850,
  "æ»Ķ": 112820,
  ".Ed": 81333,
  "Ġdesire": 12591,
  ">User": 81766,
  "_inactive": 90882,
  "eneg": 77529,
  "_Widget": 58049,
  "zeros": 35716,
  "ĠTNT": 88131,
  "MD": 6076,
  "åŁª": 122760,
  "Mech": 57067,
  "ĠNIH": 83270,
  "-nil": 83248,
  "é¢ģ": 100967,
  "verification": 50632,
  "åı¯è°ĵ": 103100,
  "åĤº": 123213,
  "åĽŁ": 119626,
  "éķ¨": 123621,
  "Ġcerebral": 59645,
  "(Output": 82997,
  "iox": 23691,
  ".UndefOr": 32661,
  "mination": 32096,
  "ĠServlet": 23124,
  "ijo": 46900,
  "Ġsegue": 36770,
  "å´©æºĥ": 109797,
  "Ġsic": 52647,
  ".leadingAnchor": 84845,
  "abstractmethod": 64951,
  "Ġmoderator": 59427,
  "ä¸Ģç¬ĳ": 107319,
  "å¤©åľ°": 104974,
  ".DIS": 59411,
  "Ġfrag": 8343,
  "Ġpci": 45471,
  "ä¸Ģèµ·æĿ¥": 109315,
  "ĠMass": 9167,
  "Ġcirculated": 62873,
  "ĠEleanor": 89430,
  "akespeare": 36871,
  "æĴ¤éĶĢ": 110210,
  "æĻºæħ§åŁİå¸Ĥ": 110614,
  "issy": 60215,
  "-da": 65897,
  "æĪĲåŀĭ": 109780,
  "Ġhydrated": 94731,
  "Ġantibodies": 58754,
  "ĠRAW": 52851,
  "Ġsinon": 36472,
  ".mp": 16870,
  "ĠSwedish": 30109,
  "ĠShak": 86565,
  "äºİæŃ¤": 109474,
  "ç´§å¯Ĩ": 102821,
  "ingredient": 38525,
  "ĠNZ": 41757,
  "æŁĴ": 119361,
  "iers": 4813,
  "Ġswitched": 29875,
  "ĠLinked": 13114,
  "Ġordinal": 67948,
  "Ġstrtok": 48345,
  "Ġchars": 23000,
  "è½¦èº«": 107885,
  "ĠOman": 81125,
  "Ġcoma": 69298,
  "Ġstarvation": 77145,
  "ĠAfghan": 16795,
  "iscing": 52754,
  ".appspot": 72548,
  "analytics": 77652,
  "Ġvern": 71593,
  "éķ¿æ²Ļå¸Ĥ": 115086,
  "HasColumnType": 76257,
  "Ġjavax": 2871,
  "å®¡è®¡": 104537,
  "Ġruin": 37239,
  "Ġenzym": 30911,
  "_corner": 66884,
  "bf": 13233,
  "è·¯èĻİ": 117098,
  "Ġpremiums": 47507,
  "è¹¦": 112198,
  "å¤ĸåªĴ": 112737,
  "èĳĹä½ľ": 101712,
  "ĠEpisode": 19832,
  "Ġpurposely": 89087,
  "ĠQuar": 92745,
  "Ġcontext": 2266,
  "Ġcamino": 83444,
  "ĠThoughts": 60299,
  "Ġpeacefully": 66779,
  "æľĽåİ»": 115039,
  ".names": 47875,
  "ĠAtomicInteger": 85038,
  "Ġendurance": 48186,
  "èĤ¡ä»·": 105281,
  "èĳ©": 103647,
  "èĳ¸": 120879,
  ".crm": 82644,
  "Ġdatas": 16879,
  "Ġ#'": 42037,
  "lear": 1547,
  "ĠPersona": 53890,
  "ideshow": 44700,
  "_Level": 78861,
  "Ġchamber": 24220,
  "<std": 8050,
  "ä¹°å®¶": 108840,
  "(answer": 39315,
  "rection": 30366,
  "Ġamazingly": 62515,
  "Ġshuttle": 44541,
  "Ġcosmic": 54701,
  "æµģéĢĿ": 117800,
  "Ġmuj": 26839,
  "\">'+": 40622,
  ".Child": 28506,
  "æį¢å±Ĭ": 116829,
  "WARDS": 96217,
  "villa": 63338,
  "ĠLyft": 84439,
  ".new": 4618,
  "producer": 58912,
  "Ġsilk": 39944,
  "Ġmanipulate": 36635,
  "ĠDisabilities": 97449,
  "_types": 9763,
  "Ġdose": 19115,
  "[]\"": 33325,
  "ĠWays": 41319,
  "çº©": 122180,
  "èĢĮæĪĲ": 106042,
  "ylabel": 49761,
  "ĠMental": 37795,
  "Ġ\"\\<": 23435,
  "Degrees": 65119,
  "-main": 29992,
  "ä¹Į": 100444,
  "DataAdapter": 33514,
  "ï¼īãĢģ": 64359,
  "Ġestates": 82975,
  "anko": 92852,
  "æ¯ı": 73157,
  "Ġpoems": 44219,
  "Ġvitamin": 27071,
  "ĠAk": 16358,
  ".Cookie": 82918,
  "=wx": 90712,
  "æĹħé¦Ĩ": 113373,
  "éĽĸçĦ¶": 106053,
  "apping": 3629,
  "åĪĴç®Ĺ": 114543,
  "ĠStim": 70772,
  "åįĬå¤©": 103554,
  "çļĦçĲĨçĶ±": 109306,
  "åĿ¦è¨Ģ": 111033,
  "Stopping": 75385,
  "ä¸Ģä¼ļåĦ¿": 106868,
  "éħįå¥Ĺè®¾æĸ½": 113348,
  "Ġmasc": 42936,
  "Ġcats": 19423,
  "Working": 33978,
  "çĲħ": 117166,
  "èºģ": 103386,
  "éŃĤ": 101291,
  "heiro": 59477,
  "å¼Ĺ": 104985,
  "ighthouse": 57909,
  "è´µå·ŀ": 102345,
  "/Open": 96662,
  "ross": 2128,
  "_repeat": 41975,
  "alian": 10480,
  "åįģæĿ¡": 113971,
  "åĻĩ": 123450,
  "çĽ¦": 123560,
  "ifes": 82295,
  "äºīåıĸ": 104999,
  "_dns": 71125,
  "Ġdragons": 50436,
  "Ġeasing": 44304,
  "toMatchSnapshot": 61426,
  "ĠoutputFile": 62843,
  "ĠFontWeight": 26706,
  ".alt": 50384,
  "ĠLon": 48181,
  "è´Łè½½": 118878,
  "phys": 41205,
  "ĠZu": 60082,
  "../../../": 26744,
  "(original": 39809,
  "Ġhepat": 57159,
  "Ġvite": 82357,
  "(IS": 37096,
  "è¾¾ä¸įåĪ°": 114152,
  "itelist": 57645,
  "åı²ä¸Ĭ": 103222,
  "èµħ": 120392,
  "employer": 65201,
  "efficient": 42770,
  "Ġmostrar": 43008,
  "Ġult": 8507,
  "IT": 952,
  "CppTypeDefinitionSizes": 66344,
  "Ġ'..": 45121,
  "Mer": 26716,
  "å¯¹éĿ¢": 106593,
  "atio": 6266,
  "_micro": 73003,
  "Ġepic": 24679,
  "Ġvaccines": 39200,
  "-po": 74388,
  "è¶Ķ": 121105,
  "ĠChips": 86668,
  "ĠSimilarly": 34239,
  "interp": 63721,
  "Ġunders": 25373,
  "gow": 36186,
  "Ġtends": 27236,
  "Ġarrival": 18647,
  "Ġdriven": 16227,
  "men": 5676,
  "BB": 10098,
  "inks": 15504,
  "å¼ķåıĳäºĨ": 114808,
  "Ġarrests": 37711,
  "isons": 19379,
  "æİĴæ°Ķ": 116751,
  "ĠKurdistan": 78944,
  "æ·±æ¸Ĭ": 118748,
  "ĠcancellationToken": 33133,
  "Ġcreditor": 97389,
  "_MAN": 25143,
  "Ġconstrained": 53752,
  "Ġpatriarch": 70221,
  "Mask": 12686,
  "è£ħéħįå¼ı": 116344,
  "eff": 6445,
  "=event": 95260,
  "Ġproj": 21333,
  "_soft": 38326,
  "geometry": 15281,
  "Brun": 94230,
  "mens": 48874,
  "ĠMVC": 67996,
  "çªĹåı£": 105271,
  "Ġresonate": 88886,
  "Fecha": 29132,
  "æł·åŃĲ": 102481,
  ".fastjson": 73617,
  "EObject": 82438,
  "å±ķ": 76313,
  "éĤ£": 99212,
  "imentary": 74543,
  "ullivan": 36041,
  "van": 15649,
  ".target": 6539,
  "Ġ\"[": 10545,
  "è²¬ä»»": 109219,
  "Ġment": 11288,
  "å°¾": 101143,
  "æļĤ": 100559,
  "Ġpacket": 10151,
  "noteq": 45299,
  "å¯ĨåĪĩ": 101552,
  ".MONTH": 70504,
  "oured": 20394,
  "éĢłç¦ı": 116441,
  "Ġfiyat": 128102,
  "ĠNSData": 49770,
  "PLUS": 61578,
  "_dates": 46382,
  "ĠAdministrative": 51841,
  "Ġancestral": 77671,
  "Ġpow": 6875,
  "è°Ĳ": 102191,
  ".GREEN": 68696,
  "(startTime": 88090,
  "ĠpathMatch": 86018,
  "implement": 94474,
  "ĠSITE": 54671,
  "pear": 8015,
  "Ġreputed": 91972,
  "GetPosition": 77972,
  "æĲįå®³": 112024,
  "Ġrooted": 40876,
  "dialog": 11817,
  "Ġderived": 14257,
  "_secret": 21962,
  "UCK": 27543,
  "ĠarrayWith": 61152,
  "-file": 14203,
  "gart": 45246,
  "ĠnavigationOptions": 99121,
  "ĠWave": 31318,
  "QA": 47522,
  "ombok": 16424,
  "çĬ¨": 123745,
  ".Now": 13244,
  "olest": 60995,
  "Ġseed": 10320,
  "reachable": 46550,
  "ĠMorocco": 58130,
  ")+\"": 27506,
  "ĠgetDescription": 54733,
  "ï¥±": 151556,
  "Ġtaxonomy": 71806,
  "Ġ{:?}\",": 71964,
  "ä¸ĢèĪ¬äºº": 111674,
  "chantment": 68889,
  "åłĨ": 100537,
  ".detectChanges": 36561,
  "ĠGPA": 70055,
  "Ġundergone": 63138,
  "åİŁæĿ¥": 101221,
  "æ¼¶": 121505,
  "Ġelabor": 24940,
  "Ġcol": 1375,
  "agenda": 79723,
  "_clean": 19573,
  "Ġcoat": 22875,
  "(identifier": 55350,
  "(^)(": 98685,
  "Ġaircraft": 14135,
  "ä»¥ä¸Ĭ": 70589,
  "è§Ħæ¨¡æľĢå¤§": 113501,
  "daemon": 75841,
  "éĢļè®¯åĳĺ": 109094,
  "Ġrandomly": 26618,
  "ĠLET": 35657,
  "Pos": 4859,
  "Ġcontrasting": 73955,
  "ingers": 14105,
  ".Contains": 11545,
  "Ġproposals": 24258,
  "gorm": 73281,
  "acja": 51689,
  "ĠConnector": 54814,
  "Card": 5770,
  "ErrorException": 91019,
  "HomeAsUpEnabled": 95643,
  "-power": 26526,
  "bro": 14877,
  "å¸¸æĢģåĮĸ": 108870,
  "_cum": 91328,
  "struct": 1235,
  "åı¦ä¸ĢåįĬ": 118264,
  "äº¥": 114468,
  "Ġ{?}": 94469,
  "getColor": 47660,
  "èģĮåĬ¡": 105319,
  "é³ľ": 122073,
  "odule": 1756,
  ".share": 48884,
  "#c": 92253,
  "ivering": 83940,
  "åº·": 99446,
  "åĩºåħ¥å¢ĥ": 117872,
  "_<": 41743,
  "play": 1363,
  "breaking": 36657,
  "èĢĮåıĪ": 108204,
  "Ġprops": 6914,
  "Ġawhile": 50469,
  "ä¸ĢåĪĨéĴ±": 117329,
  "Ġsolidarity": 43154,
  "Ġselon": 64635,
  "/": 14,
  "ĠBREAK": 69647,
  "Ġsecretary": 19067,
  "è·¯": 45995,
  "èĵ¼": 121380,
  "derabad": 56700,
  "èıĸ": 120592,
  "çŃ±": 119110,
  "-UA": 36736,
  "Ġmidterm": 77490,
  "Ġatrib": 52012,
  "ĠUSE": 9457,
  "ĠFileStream": 50771,
  "sheet": 15119,
  "yst": 597,
  "éŃĦ": 108059,
  "Ġsak": 77310,
  "ĠmainWindow": 68137,
  "Ġcopp": 56000,
  "åīĢ": 119885,
  ",F": 27229,
  "Ġstarring": 39400,
  "Ġfores": 69756,
  "åĩĦ": 110733,
  "Ġriff": 80250,
  "åĭł": 123280,
  "Ġutilisateur": 86526,
  "Ġgr": 1081,
  "Ġrefers": 19257,
  "ĠParticipants": 51778,
  "æĥ«": 103469,
  "Ġadds": 11367,
  ":I": 57155,
  "Ġsports": 9833,
  "åľ¨æĪĳçļĦ": 110359,
  "æ±§": 122239,
  "ï¼§": 141732,
  "å¥½åĿı": 111708,
  "Ġunix": 51866,
  "ĠIhrem": 77065,
  "Ġinformations": 43727,
  "ĠThirty": 66620,
  "Ġdefinitions": 17473,
  "WEEN": 44348,
  "Activation": 61460,
  "å¹²äºĭ": 103723,
  "ĠMarkdown": 73192,
  "-most": 62398,
  "ĠCrud": 75078,
  "erner": 41372,
  "ĠTransmission": 47025,
  "Ġtr": 489,
  "Ġphilanth": 57638,
  "ĠShe": 2932,
  "framework": 3794,
  "æĽ¼": 101267,
  "Course": 23340,
  "weeney": 90269,
  "-app": 20023,
  "straight": 88192,
  "Ġejemplo": 57200,
  "åĽĽä¸ªæĸ¹éĿ¢": 118241,
  "ĠFPGA": 89462,
  "ĠBirmingham": 35837,
  "å¹´å¤ľ": 107946,
  "çĤ«": 103193,
  "ĠclearInterval": 45585,
  "ĠAgricult": 27900,
  "NavController": 68407,
  "_remaining": 59244,
  "Ġequations": 37906,
  "internal": 10481,
  "(gl": 30376,
  "(pr": 24974,
  "Postal": 43800,
  "çİ¯å¢ĥä¸ĭ": 108275,
  "/Test": 80527,
  "RPC": 29528,
  "enta": 16576,
  "getInstance": 19720,
  "'/>": 87315,
  "ILD": 30215,
  "Trade": 39173,
  "åŁºæľ¬": 99797,
  "Ġcurrently": 5023,
  "ĠRaider": 80354,
  "_addresses": 59471,
  "å»ª": 121814,
  "å¯¹æĪĳæĿ¥è¯´": 115672,
  "pron": 71139,
  "tright": 68976,
  "-space": 27947,
  "upuncture": 68462,
  "Ġshooting": 10441,
  "\"],\"": 68882,
  "Ġinst": 1761,
  "_READY": 51184,
  "ĠVenom": 89586,
  "Ġindication": 27039,
  "çļĦç²¾ç¥ŀ": 104725,
  "çļĦçĲĨæĥ³": 111067,
  ".dex": 78033,
  "å¤©èĬ±": 115698,
  "Ġcoastal": 34235,
  "iras": 50085,
  "Bone": 62329,
  ".Infrastructure": 40435,
  "Ġactivates": 73942,
  "Ġsulph": 82678,
  "ForMember": 81792,
  "çĽĳæİ§": 104814,
  "å¢ŀéķ·": 118947,
  "Ġfilming": 38870,
  "Ġcommissions": 53664,
  "swith": 22177,
  ",num": 35424,
  "Ġ=&": 59132,
  "EGIN": 16436,
  "ĠPis": 90942,
  "ĠMarriott": 75822,
  "refresh": 17168,
  "Ġparliament": 21130,
  "æŃĮåĶ±": 113375,
  ".switch": 40255,
  "ĠSold": 27140,
  "Recipient": 74432,
  "_IDENT": 40264,
  "re": 265,
  "ĠjsonObject": 30227,
  "ĠEVERY": 44874,
  "ĠActiveForm": 80964,
  "addir": 44525,
  "Unicode": 33920,
  "Ġclassification": 23850,
  "èµ°åĬ¿åĽ¾": 111537,
  "Ġern": 91929,
  "è¦ģèĢĥèĻĳ": 114632,
  "Ġdrug": 5506,
  "ĠOptions": 14566,
  ".Integer": 19852,
  "åķĨåľº": 105428,
  "ARRIER": 82709,
  "curity": 3666,
  "Ġbk": 66101,
  "Deadline": 83593,
  "Ġlogged": 13726,
  "_allowed": 42155,
  "Ġswirl": 86360,
  "LIB": 23838,
  "Ġacknow": 11861,
  "Ġreloading": 85630,
  "åĮĹäº¬èµĽè½¦": 115347,
  "ĠChemical": 35324,
  "Ġuncon": 25062,
  "æŃĮèĪŀ": 113221,
  "ä¹Ĺ": 127731,
  "Ġitem": 1509,
  "add": 718,
  "_SYMBOL": 23598,
  "_op": 10287,
  "ĠVII": 44969,
  "iali": 81064,
  "=utf": 22264,
  "ReceiveProps": 86454,
  "ĠpageInfo": 97267,
  "Ġchaque": 45677,
  "Ġtetas": 87515,
  "('\\\\": 54093,
  "value": 957,
  "cor": 6005,
  "åŀ¯": 122401,
  "èĬ¦": 103462,
  "Sit": 60835,
  "())->": 32373,
  "Ġpork": 35067,
  "leness": 76219,
  "ĠEl": 3984,
  "ertino": 90600,
  "ricular": 56233,
  "Ġschooling": 67621,
  "_ipv": 49378,
  "çĻ½èıľ": 111822,
  "\"profile": 36105,
  "Ġamph": 64992,
  "iae": 71978,
  "Ġlymph": 42645,
  "EditText": 20938,
  "ĠSprint": 44812,
  "env": 3160,
  "ĠmemberId": 96339,
  "ĠJasper": 70484,
  "Ġhistor": 6990,
  "Ġlit": 13020,
  "Ġsings": 67241,
  "è´¦": 80101,
  "Ġchassis": 44909,
  "zano": 98998,
  "ĠAve": 21294,
  "ĠHi": 21018,
  "atables": 29375,
  ".St": 7758,
  "ĠGallagher": 77987,
  "ĠAustralian": 13369,
  "%%%%%%%%": 9212,
  "obody": 42340,
  "ombs": 85704,
  "integration": 60168,
  "æ·Ļ": 120786,
  "HEEL": 69002,
  "Ġgenu": 16497,
  "çĪ±å¿ĥ": 104833,
  "å¿įåıĹ": 110313,
  "ĠCERT": 62357,
  "ĠJust": 4599,
  "Ġsymbol": 7735,
  "_LCD": 63092,
  "åĴĿ": 119875,
  ".ease": 62654,
  "_WORD": 33238,
  "æĸ§": 112541,
  "_join": 31017,
  "ibo": 28846,
  "ç®¡çĲĨå±Ģ": 106903,
  "(arguments": 30467,
  "(full": 28907,
  "ĠAvailable": 16136,
  "ĠToys": 48381,
  ".setColumns": 96414,
  "Ġnl": 20216,
  "è½¬åĬ¨": 113753,
  "é±¼": 100655,
  "Ġfences": 69155,
  "odal": 57597,
  "ĠLaws": 40989,
  "dark": 22624,
  "æ¥«": 121144,
  "Ġinvalid": 8318,
  ".File": 8576,
  "çĶĳ": 121825,
  "åªĴä½ĵæĬ¥éģĵ": 109834,
  "payer": 93586,
  "å©µ": 120821,
  "çŁ¥æĥħ": 110618,
  "å®ĥåı¯ä»¥": 113667,
  "ç¦º": 120106,
  "trasound": 53765,
  "Ġbring": 4446,
  "ä¸įè¯´": 107023,
  "äººæ°ĳæĶ¿åºľ": 104531,
  "(todo": 53982,
  "Ġfund": 3802,
  ".instagram": 56827,
  "ĠBrexit": 23907,
  ".TRAN": 84037,
  "å¸Į": 99658,
  "ç¬¤": 120720,
  "Ġoz": 24596,
  "Ġlingering": 63510,
  "ĠSilk": 51036,
  "/tmp": 57008,
  "ĠAppalach": 77727,
  "Ġcollector": 31953,
  "(vec": 25592,
  "_is": 6892,
  "è¿Ļæĺ¯æĪĳ": 108907,
  "Ġswinger": 23624,
  "é¥®åĵģ": 113864,
  "alculate": 45441,
  "ĠMunicip": 35703,
  "(sql": 13148,
  ".impl": 15295,
  "(el": 18584,
  "(chalk": 96595,
  "-ahead": 98488,
  "thalm": 77643,
  "sorted": 28298,
  "ĠFU": 95512,
  "æ»ª": 121314,
  "ĠLouis": 11876,
  "è®³": 117533,
  "Ġdescriptor": 16414,
  ".pictureBox": 16127,
  "æĪĳè®°å¾Ĺ": 116169,
  "ico": 3955,
  "åŁºåĽł": 102477,
  "Ġpnl": 72693,
  "UCCESS": 7142,
  "Ġpeoples": 31438,
  "Ġkarde": 136159,
  "cran": 71985,
  "ĠSparse": 71794,
  "Ġulcer": 95871,
  "ĠPregn": 59647,
  "åĽ¢è´Ń": 109699,
  "ĠMiner": 89912,
  "åĪĨå·¥": 107626,
  "è½®å»ĵ": 115079,
  "ĠWohnung": 98344,
  "RNA": 30720,
  "ĠArrival": 92098,
  "å¥´": 101694,
  "Ġoldest": 23513,
  "ĠAdditionally": 22406,
  "_wire": 75206,
  "`}": 74768,
  "Ġtimeless": 57005,
  "Ġverdienen": 91440,
  "éħĿ": 103853,
  "ĠHa": 14101,
  "ĠDra": 73102,
  "ĠTownsend": 95682,
  ".Generation": 66516,
  "(filePath": 29605,
  "ï¦İ": 146444,
  "å¼Ģéĩĩ": 109521,
  "rome": 6648,
  "æĻ¡": 120641,
  "Ġole": 31778,
  "hat": 9198,
  "æŀ¶": 99630,
  "-metal": 88832,
  "ĠPort": 5776,
  "è¾«": 119123,
  "ĠRegards": 91079,
  "çĥ¦æģ¼": 106227,
  "Ġdecoration": 20228,
  ".All": 16764,
  "-body": 9350,
  "ä¼ī": 119624,
  "Ġdosage": 45940,
  "mino": 31824,
  ".Sh": 10849,
  "joining": 65205,
  "çĥŃéĹ¨": 105034,
  "rsa": 60869,
  "ĠQLD": 92567,
  "Ġviruses": 40968,
  "åıĭè°Ĭ": 107889,
  "kish": 73620,
  "inding": 3961,
  "authorized": 19084,
  "æİĴåĲį": 101238,
  "çıįæĥľ": 106812,
  "å²ģä»¥ä¸ĭ": 115465,
  "éĤªæģ¶": 115270,
  "ç««": 122873,
  "Ġneighbour": 21922,
  "ä¸įåħĭä¸įåıĬ": 115581,
  "(status": 13838,
  "-ing": 83905,
  "_Pre": 79561,
  "='.": 51786,
  "Ġfilters": 13406,
  "ĠmappedBy": 95074,
  "ĠLilly": 81834,
  "Ġfeasible": 42203,
  "ĠFileReader": 40733,
  "åĽłä¸ºä½ł": 110102,
  "ĠPendant": 80401,
  "Ġvalidate": 9593,
  ".True": 32443,
  "ä¾Ŀçħ§": 106876,
  "ĠAcquisition": 72371,
  "åįĩåŃ¦": 117023,
  "æĿ¼": 119844,
  "nesc": 86596,
  "èĪīè¾¦": 116716,
  "åĨ·éĿĻ": 108056,
  "<header": 56044,
  "æıĲéĨĴ": 104211,
  "PS": 5012,
  "spender": 92825,
  "éĶ¢": 121224,
  "åįģä¹Ŀ": 100993,
  ".summary": 35341,
  "ĠTreeNode": 17111,
  "editor": 8868,
  "çľ¼è§Ĵ": 116908,
  "forget": 40019,
  "ĠNexus": 40022,
  "è§£æ±º": 109530,
  "-Dec": 79629,
  "ĠSettings": 11296,
  "/blue": 97916,
  "Ġ#[": 11506,
  "ĠMPEG": 69989,
  ".flags": 27203,
  "éħī": 116499,
  "ĠerrorCallback": 89080,
  "Selected": 6316,
  "ĠMatches": 61254,
  "CHandle": 83153,
  "(equal": 28987,
  "uh": 12540,
  "çĻ¼çı¾": 105923,
  "_Two": 82989,
  "Ġsunny": 39698,
  "Portrait": 80365,
  "Ġverbs": 61846,
  "_FACE": 65113,
  "ä¿£": 120161,
  "/dataTables": 59540,
  "ĠWar": 5004,
  "WRAPPER": 90364,
  "Ġconsumption": 15293,
  "Ġquantity": 12194,
  "Ġtransformation": 17991,
  "_countries": 91674,
  "pheres": 64633,
  "Ġlend": 38480,
  "Ġrely": 17188,
  "ĠLanguages": 54964,
  "Ġnilai": 83367,
  "ĠBerk": 50191,
  "accuracy": 32729,
  ".appcompat": 32428,
  "ĠAlv": 68946,
  "ivalence": 88790,
  "Ġdisillusion": 96909,
  "esar": 32240,
  "urette": 72143,
  "Ġagents": 13009,
  "Ġslee": 21661,
  "ĠChloe": 59370,
  "Ġstars": 9759,
  "_exc": 45647,
  "æ½ľ": 100115,
  "tical": 34658,
  "ĠBu": 27227,
  "(ang": 92464,
  "\"G": 89199,
  "ĠWick": 74106,
  "ĠInsider": 44999,
  "URAL": 50685,
  "-color": 7889,
  "positive": 30487,
  "ĠBates": 73862,
  "mostat": 54725,
  "ili": 3921,
  "loy": 1989,
  "Ġcorresponding": 12159,
  "itag": 94540,
  "Ġacquaintance": 81307,
  "ombat": 77628,
  "ĠBroker": 52701,
  "erator": 39522,
  "Ġmiser": 97210,
  "Ġschn": 41130,
  "åĳ¢": 101036,
  "feof": 85670,
  "gue": 37668,
  "ĠAntony": 96628,
  "ĠCONF": 45189,
  "åĵŃ": 101268,
  "Ġsprawling": 70892,
  "Participants": 77546,
  "Ġaw": 1360,
  "è½¬è¿Ĳ": 112893,
  "å¥ļ": 119166,
  "æłĩå¿ĹçĿĢ": 108653,
  "scheme": 46141,
  "FormData": 55966,
  "/ros": 83846,
  "èģĶåĬ¨": 105176,
  "having": 68566,
  "ä»£è¡¨åĽ¢": 109463,
  "è¿Ĳè¡Į": 104001,
  "é¢Ħè§ģ": 113644,
  "ĠStake": 98246,
  "æ±Łè¥¿çľģ": 109040,
  "Ps": 20420,
  "RESSION": 81663,
  "dal": 51547,
  "åĩĮæĻ¨": 103200,
  "ottom": 2826,
  ".css": 4327,
  "Ġcosas": 55523,
  "read": 878,
  "Ġalex": 56478,
  "Ġstaining": 87796,
  "cts": 60903,
  "_feat": 46753,
  ".getTitle": 46148,
  "åħ¬åı¸ç«łç¨ĭ": 118227,
  "_lens": 81642,
  "ĠVenezuelan": 82649,
  "èŀįèµĦç§Łèµģ": 116953,
  "/cms": 97866,
  "---@": 76425,
  "çİ°åľ¨": 99601,
  "XD": 67677,
  "'Re": 49427,
  "Ġaromatic": 81588,
  "ACY": 43745,
  "AST": 6349,
  "çľŁçĲĨ": 108527,
  "Ġpitch": 9649,
  "(Board": 83097,
  "é¡½": 103456,
  "ĠFreedom": 24327,
  "åĶĲ": 100181,
  "èĭ¦ç¬ĳ": 117691,
  "Ġaccordion": 86999,
  "Ġoutros": 56873,
  "Ġwhilst": 23856,
  "Ġfans": 7211,
  "hood": 5694,
  "åľ¨ç¶²": 111089,
  "Ġspite": 33681,
  "Ġresign": 23592,
  "ANCH": 41933,
  "etrics": 13468,
  "figcaption": 79212,
  "prs": 84305,
  "_author": 22938,
  "ĠFrequently": 92620,
  "leaders": 78386,
  "ĠKash": 41608,
  "Ġmt": 11965,
  "åħļçļĦåįģ": 107634,
  "(xs": 53322,
  "ĠFunk": 39610,
  "ĠRandall": 67344,
  "ĠjsonResponse": 90465,
  ".routing": 78394,
  "utilities": 61134,
  "ĠMast": 36482,
  "çļĦå®ŀåĬĽ": 108331,
  "_without": 39904,
  "éĴ¥": 103080,
  "Ġcrypt": 14436,
  "ĠBUG": 68534,
  "brace": 31237,
  "Ġsprinkle": 84847,
  "Neither": 62195,
  "å¼ºè¿«": 111057,
  ".H": 3839,
  "Ġmedida": 71528,
  "Ġplist": 68635,
  ".sm": 22552,
  "vascular": 32845,
  "ĠerrorMsg": 52247,
  "sdale": 83682,
  "/path": 50976,
  "igid": 20926,
  "_bg": 23122,
  "gens": 58305,
  "=\"<?=": 15654,
  "çĵ·": 100930,
  "ä¸Ģä¸ªèģĮä¸ļ": 113421,
  "_PIPE": 51584,
  "ç¬ĥ": 116046,
  "slashes": 47629,
  "ĠonPressed": 27002,
  "ĠminLength": 83785,
  "Ġtexting": 67994,
  "OLUME": 42794,
  "è¿ĺå¥½": 108432,
  "Ġandra": 89814,
  "'|": 70831,
  "å½ĵæĹ¶çļĦ": 107222,
  "Brian": 50088,
  "ĠTestData": 93200,
  "Ġwasted": 38828,
  "ĠPleasant": 63812,
  "ĠWEB": 43956,
  "subseteq": 52396,
  "SCREEN": 35288,
  "ç©¿ä¸Ĭ": 109585,
  ".begin": 6848,
  "åĪĸ": 119628,
  "Ġattribute": 7035,
  "(xpath": 60672,
  "Ġdepletion": 91848,
  "_SCALE": 39810,
  "è½¬åıĺ": 102324,
  "_key": 3097,
  "ĠMcConnell": 46683,
  "illez": 67390,
  "Ġprocessor": 17654,
  "]='": 31765,
  "å¹Ĥ": 103762,
  "Ġ||=": 35002,
  "Ġallergies": 57642,
  "ĠEquation": 84670,
  "Bien": 81506,
  "Posted": 17372,
  "ishops": 50109,
  "pageTitle": 85786,
  "åĪĿæģĭ": 118212,
  "Ġmanga": 34250,
  "ä¼ļåľ¨": 105542,
  "categories": 15497,
  "ĠMerr": 47861,
  "èĭī": 122198,
  "arp": 7876,
  "APO": 84240,
  "Ġcashier": 90355,
  ".JsonProperty": 74469,
  "-Shirt": 75854,
  "-degree": 37675,
  ".SetToolTip": 93949,
  "å®¡æł¸": 90851,
  "ĠPubMed": 52668,
  "ĠHOLDERS": 20620,
  "ĠBett": 67588,
  "ĠDY": 95858,
  "_hook": 32005,
  ".isActive": 56499,
  "Ġbourgeoisie": 93786,
  ".COMP": 77673,
  "ethyst": 87303,
  "èħĪ": 120998,
  ".frames": 61327,
  "Ġzie": 74247,
  "ĠRails": 36405,
  "ĠSI": 30548,
  "ĠSea": 15029,
  "å¸Ķ": 119886,
  "ĠHills": 24919,
  "stress": 94190,
  "tcp": 27161,
  "-fixed": 53764,
  "Ġcurator": 86705,
  ".subject": 33243,
  "finish": 30150,
  "_HOOK": 82251,
  "æĹ¶æľº": 106261,
  ".Go": 67131,
  "Ġunfortunate": 33607,
  "mun": 24997,
  "Ġprotecting": 22184,
  "Ġminist": 48804,
  "TABLE": 24643,
  ".tom": 73494,
  "Ġfant": 8587,
  "æĶ¿æĿĥ": 110394,
  "SEQUENTIAL": 27038,
  "Ġimperson": 59749,
  "(pe": 65079,
  "Ġsolution": 6291,
  "åĿļæĮģä»¥": 108195,
  "åĪļå¼Ģå§ĭ": 108250,
  "Ġsh": 557,
  "utzt": 89002,
  "Ġkad": 68044,
  "æģĲé¾Ļ": 115924,
  "ä¸įçĶ¨": 102087,
  "ĠngOn": 16305,
  "èľĥ": 121159,
  "ĠTh": 663,
  "typename": 9031,
  "vements": 12477,
  "ragments": 41956,
  "ieval": 31886,
  "Ġ'`": 55995,
  "uncia": 94485,
  "Ġart": 1947,
  "äº©": 102131,
  "ç»¢": 119397,
  "ĠPrompt": 59501,
  "Ġoutf": 75881,
  "Dates": 55238,
  ":relative": 84566,
  "ä»£è¨Ģäºº": 117678,
  "æĽ¹æĵį": 108495,
  "Ġhesitation": 64337,
  "braska": 33788,
  "ĠProtector": 81119,
  "ĠDortmund": 71450,
  "drawable": 91015,
  "éŀ¨": 121960,
  "ä»Ģä¹Īäºĭ": 110400,
  "Ġcrafts": 43848,
  ".SUCCESS": 44684,
  "Ġspecimen": 57084,
  "others": 58861,
  "æĥº": 121058,
  "Ġsensing": 59099,
  "forcements": 87393,
  "Ġbuilds": 22111,
  "_PKT": 69879,
  "èĮ¼": 120034,
  "è¡ĮæĶ¿åĮº": 112700,
  "cd": 4385,
  "Ġ(.": 29465,
  "(handles": 34895,
  "resents": 9578,
  "Ġdesarroll": 63696,
  "ĠAtat": 140195,
  "ç¯Ģ": 105548,
  "dk": 7584,
  "_paint": 92284,
  ",color": 42771,
  "ĠInter": 5665,
  "Ġscratches": 65739,
  "Ġ\"%": 5962,
  "Attrib": 19665,
  "Ġname": 829,
  "({'": 15240,
  "è·ĭ": 113999,
  "Ġroam": 74967,
  "ALAR": 72765,
  ".getMap": 83991,
  "èľ¾": 123344,
  "ĠDesign": 6982,
  "Ġsubprocess": 23514,
  "æºĸ": 101774,
  ">Create": 75608,
  "Gar": 43930,
  "aps": 2625,
  "ĠConsum": 40962,
  "çĬĦ": 120973,
  "ĠDetect": 33287,
  ")./": 89486,
  "Bond": 89844,
  "Ġ\"*\",": 79936,
  ".retrieve": 76900,
  "HeadersHeightSizeMode": 46119,
  "Design": 20470,
  "æ¯³": 120970,
  "ĠMagical": 72710,
  "(m": 1255,
  "ä¸įåĲ«": 109852,
  "_PREFIX": 18519,
  "Ġchose": 14554,
  "Ġ{$": 13924,
  "stro": 95941,
  "logan": 93925,
  "Slow": 58289,
  "UGIN": 26448,
  ".ShouldBe": 86981,
  "ĠSerbian": 87164,
  "ĠPed": 19318,
  "Alive": 32637,
  "Brush": 24959,
  "(fig": 33010,
  "æĪĲç«ĭäºİ": 106337,
  "July": 28427,
  "_TIME": 10051,
  "Ġjunior": 26052,
  "ĠGER": 89221,
  "å²ł": 122224,
  "/do": 82638,
  "ĠTraverse": 86733,
  "ĠCSRF": 78595,
  "Ġverschiedenen": 88687,
  "(so": 95036,
  "atypes": 60913,
  "æĬĹçĸ«": 108163,
  "Ġconsolidation": 59632,
  "Ġdudes": 72122,
  ".Shapes": 62167,
  "ĠMIN": 16701,
  "ĠCOLORS": 86822,
  "Ġzlib": 81218,
  "Ġcapturing": 39780,
  "å°±è¯´": 110407,
  "Ġ'*": 14879,
  "ĠSources": 47032,
  "offset": 3176,
  "ehicles": 41865,
  "_helper": 10418,
  "ĠAUTO": 35340,
  "Ġlegalization": 56488,
  "flex": 12018,
  "Ġcof": 68803,
  "oha": 65083,
  "ibernate": 18818,
  "Ġgrd": 87560,
  "éĺ²æŃ¢": 104431,
  "å®£ç§°": 113894,
  "Ġlaundering": 63302,
  "+++": 62730,
  "ĠVim": 94484,
  "(Runtime": 52610,
  "Ġplais": 70268,
  ".remote": 34093,
  "_packages": 41874,
  ".sqlite": 42167,
  "<ArrayList": 71235,
  ">(()": 58789,
  "pecting": 65348,
  ".getElements": 17985,
  "_BYTES": 40705,
  "agan": 18345,
  "Ġseront": 77771,
  "Ġsubmissive": 96240,
  "-document": 82233,
  "elijk": 32238,
  "=\"\"></": 39583,
  "ĠConsult": 19960,
  "çªľ": 112855,
  "ĠGraham": 25124,
  "alternate": 75362,
  "afia": 48451,
  "ĠAttorney": 18412,
  "æ²¡åķ¥": 116970,
  "Ġtoxin": 97434,
  "çľ¸": 108229,
  "Ġgmail": 58805,
  "èģ½": 102646,
  "Ġsmear": 80503,
  "(PRO": 55681,
  "Opt": 21367,
  "ubar": 44497,
  "CHA": 36787,
  ".attach": 33027,
  "ĠFlowers": 51545,
  "IDX": 76113,
  "æµ·å°Ķ": 110951,
  "çį²": 103344,
  "Ġwrapped": 19472,
  "Ġjams": 89298,
  "Ġcolspan": 16848,
  "Ġkitty": 79821,
  "abama": 18884,
  "Ġsolar": 12941,
  "é¹İ": 123214,
  "clean": 18377,
  "èĢľ": 120551,
  "Ġcharg": 5597,
  "Ġdiagnosis": 22982,
  "çĳŀå£«": 108205,
  ".pages": 37980,
  "/sc": 33474,
  "Ġcontempl": 38371,
  "fires": 55071,
  "Ġlur": 46647,
  "é¼»": 102228,
  "ervisor": 31396,
  "_REDIRECT": 90279,
  ".compute": 35347,
  "ä»£è¡¨": 99661,
  "Ġsims": 90913,
  "Ġprose": 60701,
  "/scripts": 39372,
  "postgres": 43070,
  "asString": 75422,
  "ĠMedicine": 18637,
  "Ġbasketball": 19240,
  "åıªçŁ¥éģĵ": 115568,
  "_csv": 14020,
  ".Board": 83284,
  "DEST": 62571,
  "Leap": 96657,
  "}?": 52402,
  "èĬĤèĥ½çİ¯ä¿Ŀ": 114424,
  "åħ¬åĳĬç§°": 116532,
  "())": 2140,
  "toInt": 30960,
  "Joint": 40997,
  "éĤ³": 119683,
  "ĠYay": 138496,
  "_fault": 70097,
  "ĠHenry": 17599,
  "ĠMMC": 67935,
  "é¢ĦåĶ®": 111813,
  "(\"//*[@": 81609,
  "reserve": 56985,
  "Ġkunne": 79190,
  "_medium": 54867,
  "ĠisActive": 43247,
  "ĠManual": 14539,
  "kc": 31378,
  "_legend": 76612,
  "é«ĺè´¨éĩı": 104129,
  "Ġcris": 58953,
  "imately": 7108,
  "Ġwreck": 35750,
  "split": 6960,
  "Ġdecember": 89011,
  "dbg": 54318,
  "icans": 37373,
  "logging": 25263,
  "Ġgrooming": 74061,
  "åľºæīĢ": 102325,
  "æ¶£": 119391,
  "Ġ]];": 27481,
  "çļĦåħ³æ³¨": 108762,
  "åĤĳ": 118518,
  "asterxml": 27453,
  "ĠCOP": 67572,
  "ech": 4737,
  "jobs": 31105,
  "(hex": 44660,
  "ĠKDE": 75083,
  ".Duration": 33795,
  ".Fields": 42809,
  "-writing": 96665,
  "Ġcharged": 11430,
  "Ġregul": 14089,
  "--,": 93954,
  "ĠWallet": 36483,
  "aget": 84063,
  "utow": 9616,
  ".version": 19484,
  "agne": 23870,
  "é²Ĭ": 123224,
  "ĠRegents": 77677,
  "zf": 69394,
  ".team": 27963,
  "Par": 4272,
  "typically": 86084,
  "Ġconceivable": 94783,
  ".setVerticalGroup": 55328,
  "_bridge": 54944,
  "Ġuntouched": 67522,
  "Ġedx": 63645,
  "(string": 3609,
  ".isOpen": 65791,
  "(Messages": 80540,
  "ĠAssault": 48971,
  "_fr": 41537,
  "ĠNaughty": 86741,
  ".How": 66003,
  ".Device": 43995,
  "éļĶçĿĢ": 117806,
  "ï¿¬": 147597,
  ".members": 44839,
  "Ġapis": 97723,
  "Ġoccupies": 75754,
  "Ġhypert": 47755,
  ".codec": 59316,
  "Ġtalked": 14897,
  "chi": 14604,
  "inf": 13573,
  ".centerX": 66807,
  "$action": 90825,
  "èĸ·": 121859,
  "contrast": 84224,
  "åĲĮäºĭä»¬": 118291,
  "Ġenqueue": 53757,
  "çİ°å®ŀçĶŁæ´»": 114496,
  "anning": 5947,
  "Ġofficial": 3946,
  "éĤ´": 119682,
  "Ġmuse": 38848,
  "æĳı": 123294,
  "ĠSqlCommand": 21354,
  "ĠMt": 35508,
  "åĸĬ": 104611,
  "deque": 53498,
  "umes": 18618,
  "æī¶": 100086,
  "Ġsant": 51508,
  "ignment": 3531,
  "(Pointer": 93241,
  "è¿ĳäºĽ": 116735,
  "ROOT": 23888,
  "ImageView": 12215,
  "çĶŁåĬ¨": 106267,
  "Ġinterceptions": 72457,
  "Ġdeity": 73390,
  "ersen": 87989,
  "Ġsono": 20821,
  "ĠCoat": 67767,
  "Ġslog": 34949,
  "éĦľ": 123241,
  "æĸĩåĮĸåĴĮ": 108444,
  "çĢĮ": 123709,
  "Ġug": 67656,
  ".Note": 68928,
  "andez": 37222,
  "=/": 23286,
  ")=>": 27166,
  "-get": 22491,
  "Smart": 33817,
  "ä¸įæľĥ": 105668,
  "ocol": 4547,
  "Formation": 59458,
  "Ġcuatro": 76008,
  "Ġsidelined": 97948,
  "åĶ³": 120676,
  "ktop": 8617,
  "ĠstrSQL": 80153,
  "iek": 35007,
  ".intro": 90391,
  "Tips": 49079,
  "Sex": 19439,
  "äºĮæľŁ": 107710,
  "_Valid": 97279,
  "åħ¬å¸ĥäºĨ": 110424,
  "awai": 35969,
  "èĥ½åĬĽåĴĮ": 106712,
  "ĠweakSelf": 73759,
  "æīĵåį¡": 111689,
  "_launcher": 79277,
  "Ġhydraulic": 43075,
  "Ġabused": 35565,
  "ĠComposer": 78771,
  "words": 5761,
  "otionEvent": 63420,
  "ond": 2111,
  "_product": 9840,
  "ĠHogwarts": 77153,
  "on": 263,
  "èī²æĥħ": 112883,
  ".numberOf": 46438,
  "ĠDeclare": 61310,
  "æļ¶": 123443,
  "è§Ħ": 74386,
  "/cache": 62094,
  "ĠGast": 62642,
  "ĠBou": 29954,
  "èĲ½ä¸ĭ": 109900,
  "ĠVox": 79612,
  "ĠBuddhist": 46741,
  "ĠOrchestra": 53517,
  "èľ¡": 109703,
  "_LO": 4606,
  "(long": 12628,
  "_ACTIONS": 94434,
  "ĠToast": 9609,
  "Ġvanished": 58481,
  "Ġcoordination": 37693,
  "_bio": 89641,
  "è¯´äºĨ": 105317,
  "Ġstruggling": 19962,
  "MBER": 73367,
  "TERNAL": 18365,
  "cast": 3829,
  "ĠInternacional": 95067,
  "ĠReplace": 29558,
  "åŁİ": 59074,
  "Ġequ": 3232,
  "Ġlions": 68032,
  "ĠClearly": 53404,
  "ROID": 35167,
  "ĠGAS": 89709,
  "_into": 45514,
  "Failure": 17507,
  "Ġzdarma": 96052,
  "[I": 45412,
  "_ord": 67324,
  "efa": 75631,
  "ä¸²èģĶ": 117126,
  "ĠFlu": 60526,
  "-average": 77426,
  "Ġproperties": 5888,
  "Ġeng": 2922,
  "Ġseasoned": 51514,
  "åı¯æİ§": 112417,
  "ilename": 4033,
  "_USAGE": 57290,
  "ĠisSuccess": 76688,
  "football": 84336,
  "-angle": 34381,
  "Ġrepl": 5791,
  "å¿½çķ¥äºĨ": 115838,
  "ä¸İæŃ¤": 105531,
  "é©²": 122270,
  "Ġmentally": 33225,
  "Ġmasculinity": 79711,
  ".want": 70212,
  "ĠP": 393,
  "Ġunions": 28490,
  "levant": 8367,
  "éĵ¶è¡Į": 100358,
  "hardt": 59282,
  "æĶ¶ç¼©": 109501,
  "Ġgrew": 13938,
  "çľ¼éĩĮ": 107007,
  ".tipo": 55491,
  "_str": 2895,
  "Ġquoting": 56518,
  "Ġpier": 21944,
  "ä¸Ģç·Ĵ": 127709,
  "èĦ¸": 99684,
  "(Menu": 34203,
  "bcd": 91490,
  "çĴŁ": 121702,
  "(EX": 25409,
  "åĲĮç±»": 109856,
  "angu": 2325,
  "ductor": 35769,
  "Ġaffiliate": 21597,
  "Ġcollide": 66090,
  "æ£°": 120889,
  "Ġconsort": 62829,
  ".Location": 4515,
  "Ġbois": 65204,
  ".GetString": 21166,
  "è¥¿æ´ĭ": 113455,
  "ç§ĳæķĻ": 116609,
  "Ġstepper": 95932,
  "ĠThames": 81188,
  "ervice": 1017,
  "_COUNTER": 48411,
  "=?": 19884,
  "OTS": 46213,
  "']):": 83447,
  "ĠCrushing": 40394,
  "pNext": 89281,
  "ĠThermal": 65626,
  "æĶ¸": 119032,
  "Footer": 19445,
  "Ġgubern": 90422,
  "Ġverw": 31100,
  ".modules": 26806,
  "Ġgtk": 18692,
  ".cap": 27388,
  "Ġshowcasing": 66808,
  "-key": 16173,
  "çĶ³èĬ±": 118849,
  "harga": 59862,
  "ĠEurope": 4505,
  "ï½Ļ": 144516,
  "Ġimporting": 49895,
  "\"},{\"": 36509,
  "Ġrack": 29659,
  "Otherwise": 80456,
  ".options": 10912,
  "ponder": 20328,
  "ĠCTL": 86886,
  ".buf": 44485,
  "åģļçļĦ": 100854,
  "é©°æı´": 116585,
  "/Header": 59960,
  "è¯¦è§£": 118801,
  "Ġpatriot": 66517,
  "ĠWinchester": 79471,
  "ĠencodeURIComponent": 56737,
  "æľīæĹ¶åĢĻ": 104854,
  "è¯£": 119986,
  "æĦŁåºĶ": 110689,
  "_IR": 17138,
  "ĠpostId": 66030,
  "jong": 98460,
  "å®¶åħ¬åı¸": 110188,
  "èĤ¢": 101775,
  "_Param": 27426,
  "ĠKidd": 97138,
  "ĠCause": 44346,
  "Ġinfant": 30283,
  "ĠATP": 66556,
  ".dy": 44905,
  "MATCH": 74398,
  "Ġapprovals": 82823,
  "Ok": 11578,
  "angelo": 87910,
  "åĮ»çĸĹ": 100182,
  "fait": 63865,
  "_distance": 19464,
  "è³¼è²·": 115090,
  "ĠTopics": 40894,
  ".yahoo": 75555,
  "Ġreferring": 22023,
  "ĠNeural": 60477,
  "qed": 51233,
  "æºĲæºĲä¸įæĸŃ": 116346,
  "Ġforging": 94831,
  "-building": 51399,
  ".resize": 17382,
  "Before": 10227,
  "ĠFIFA": 43642,
  "_ulong": 72288,
  "ĠMonster": 27973,
  "fea": 94214,
  "Ġec": 11942,
  "åĽĽä½į": 115605,
  "ĠWARN": 68509,
  "ikk": 29887,
  "Ġtalks": 13433,
  "å¨µ": 122912,
  "period": 19304,
  "ĠHelping": 90701,
  "Ġ>::": 33813,
  "Ġmitt": 47332,
  "æ©¡": 103218,
  "/autoload": 69863,
  "æİĴæ±¡": 112565,
  "ä»ĸä»¬": 99650,
  "Attribute": 3907,
  "å¾Īä½İ": 111545,
  "[Unit": 87827,
  "ĠAR": 6261,
  "ï¦Ĺ": 146107,
  ".ejb": 65711,
  "ulen": 94211,
  "è¿Ļä¸ªè¡Įä¸ļ": 112878,
  ".stream": 14958,
  "Ġpopul": 31749,
  ".java": 10848,
  "Ġprone": 36997,
  "ari": 2780,
  "ekte": 66362,
  ".order": 14041,
  "Board": 11932,
  "ppelin": 68008,
  "Ġoriginated": 43753,
  "(newValue": 55186,
  "_variable": 14635,
  "ï¦«": 147821,
  ".Check": 10600,
  "forward": 13435,
  "LECT": 3965,
  "xfe": 31469,
  "meld": 36601,
  "ĠSlip": 58532,
  "Solver": 63830,
  "-chart": 44627,
  "/generated": 79372,
  "ĠTranslation": 38041,
  ".Utils": 24104,
  "<<<": 12603,
  "Ġcollar": 36104,
  "([],": 40056,
  "Ġsettlement": 17079,
  "ĠClaim": 37502,
  "Pid": 32339,
  "Ġrose": 16009,
  "éķµ": 122100,
  "grant": 51627,
  "çģ«": 79599,
  "ichtet": 89730,
  "ĠFIRST": 34813,
  "Gb": 84097,
  "_logging": 59982,
  "Ġvariables": 7332,
  "pherical": 44745,
  "ĠStaff": 16951,
  "Ġslideshow": 64447,
  "ai": 2143,
  "cliente": 37771,
  "future": 21055,
  "ï§¡": 145344,
  "_possible": 71244,
  "ä¸ĢåŃĹ": 113467,
  "Uploaded": 62061,
  "åľ°æĿ¿": 102709,
  "irates": 24557,
  "Ġib": 18668,
  "(lambda": 18205,
  "Ġlimitation": 20278,
  "ĠAnda": 39138,
  "Posts": 19631,
  "çħĻ": 115198,
  "ĠAuss": 50244,
  "Ġdomination": 54849,
  "ĠConnie": 96063,
  "Ġaffected": 11495,
  "æĸ¹è¨Ģ": 114413,
  "åĭ¤å¥ĭ": 111356,
  "replaceAll": 55860,
  "Ġstart": 1191,
  "pag": 18419,
  "Ġsupermarket": 48213,
  ".cols": 36021,
  "getMock": 46228,
  "Ġleague": 10734,
  "Ġbod": 29011,
  "Ġdq": 71613,
  "_REC": 62252,
  "/pdf": 47751,
  "ibly": 6487,
  "æłĩæ³¨": 111066,
  "çĴ²": 123508,
  "ĠReactive": 39822,
  "Ġaccrued": 98116,
  "èº«è¾¹": 102144,
  "=m": 27221,
  "ã§Ł": 119809,
  "(destination": 48076,
  "Exception": 1354,
  "/apis": 66152,
  "Mat": 11575,
  "ĠII": 7946,
  "ç§»äº¤": 112790,
  "Ġscrapped": 83247,
  "ĠAuf": 25714,
  "PageRoute": 49491,
  "çĢĶ": 123707,
  "åıªå¥½": 106170,
  "éĺ²æ²»": 102681,
  "Ġlee": 81944,
  "HELL": 68558,
  "Ġ\"()": 67411,
  ".DialogResult": 56434,
  "ä¾ĿçĦ¶": 104091,
  "_called": 27859,
  "ĠinitData": 68733,
  "Ġanx": 73784,
  "Ġshowcase": 34783,
  "fal": 95588,
  "Ġpizzas": 87770,
  "èłĸ": 122025,
  "ENOMEM": 57511,
  "Ġmarital": 59339,
  "/input": 39990,
  "éĲĺ": 103627,
  "Ġappointment": 17635,
  "ä¸ºå¥ĳæľº": 111214,
  "Ġvulgar": 73160,
  "è±ªå®ħ": 113387,
  "ĠjTable": 92549,
  "[v": 16529,
  "ç¾İäºº": 108263,
  "Ġwszyst": 44827,
  "ĠHope": 17758,
  "Ġfinished": 8060,
  "Ġles": 3541,
  "çłĶåŃ¦": 118143,
  "blo": 38145,
  "_Position": 55724,
  "Ġclustered": 92758,
  "Ġnutrition": 25595,
  "åĩºåı£": 102048,
  "çļĦæ¯Ķä¾ĭ": 107147,
  "å¹³åĩ¡": 107167,
  "åĲĨ": 119305,
  "RegularExpression": 90402,
  ".terminate": 98942,
  "Ġdepends": 13798,
  "æĪªåĽ¾": 112183,
  ".addElement": 65856,
  "è¡ĮåĬ¨": 100675,
  "overn": 6706,
  "è®¾ç«ĭäºĨ": 110900,
  "*\\": 46127,
  "ä»İæŃ¤": 105746,
  "Diamond": 76510,
  "wrong": 34870,
  "ĠMagnetic": 62655,
  "Deployment": 75286,
  "åĪ°åºķ": 102046,
  "Ġmalignant": 93229,
  "Head": 12346,
  "Ġnakne": 67853,
  "éĻķè¥¿çľģ": 108586,
  "rray": 846,
  "ä¸Ģæł¹": 106804,
  "ASHBOARD": 98163,
  "æĪĲåĬŁçļĦ": 105651,
  "äıĿ": 119923,
  "getHeight": 66773,
  "Ġå®ŀ": 92293,
  "Ġery": 88257,
  "Ġdon": 1513,
  "Lorem": 32783,
  "Ġtweeting": 68715,
  "çĭłæĬĵ": 113765,
  "bons": 46520,
  "berry": 15357,
  "æļ§": 103724,
  "è¯ķçĿĢ": 114186,
  "çĪ¾": 105567,
  "grown": 61276,
  "Ġsauna": 46858,
  "hospital": 70027,
  "Ġoppose": 33034,
  "Ġtopping": 60276,
  "ONEY": 54653,
  "è¿Ļä¸ªæĹ¶åĢĻ": 105237,
  "èį¯åºĹ": 111738,
  "ĠblockDim": 80993,
  "çļĦè¯Ŀè¯Ń": 115260,
  "_probability": 68589,
  "Ġbrut": 19404,
  "Ġpredomin": 33964,
  "Ġentire": 4453,
  "------+------+": 72757,
  ".integer": 27593,
  "é¦ĸæ¬¡": 104181,
  "ctype": 17211,
  "åĪ¶æŃ¢": 112750,
  "åĲĳä¸ľ": 114504,
  "nock": 87121,
  "åŃĲå¥³": 105376,
  "Ġtbody": 45420,
  "Ġinvitation": 28688,
  "æİĪäºĪ": 106335,
  "ĠANSW": 96704,
  "Ġcareer": 6931,
  "Ġsuit": 7781,
  "_tpl": 14107,
  "ZA": 52336,
  "Ġkeyboard": 13625,
  "ĠcurrentItem": 91627,
  "Ġadversary": 81399,
  "inciple": 15996,
  "ainting": 70859,
  "æĭ¼": 100278,
  "æĸ°åħ´äº§ä¸ļ": 109480,
  ".getString": 7109,
  "Ġcrear": 47737,
  "ä¸ºæĤ¨æıĲä¾Ľ": 113445,
  "War": 28684,
  "\\Eloquent": 21885,
  "Ġproport": 32703,
  "Ġobserve": 22986,
  "æ±ŀ": 119311,
  "Ġmurders": 41986,
  "-J": 12009,
  "Ġdirections": 17961,
  "Ġchurches": 29912,
  "æīĭæ®µ": 104085,
  "Karen": 93604,
  "ĠMile": 38597,
  "Ġsynt": 83187,
  "ifu": 20850,
  "theon": 63010,
  "æĺ¯æ¯Ķè¾ĥ": 110726,
  "InvalidArgumentException": 55608,
  ":.": 16976,
  "æĬ¬èµ·": 103737,
  "ĠSynd": 41219,
  "Ġlat": 6844,
  "ĠCiv": 79135,
  "æ¯ıå¹´": 101988,
  "Ġlack": 6853,
  "è°©": 121326,
  "Ġspecifies": 29102,
  "ĠisSelected": 61441,
  "ĠExpect": 32085,
  "ago": 6304,
  "rai": 67862,
  "Ġappe": 2642,
  "(proxy": 65787,
  "adi": 2767,
  "Appro": 28588,
  "ç¬¬ä¸ĢèĬĤ": 117209,
  "neo": 51260,
  "picable": 94018,
  "ä½ıåľ¨": 106789,
  "Ġsurrounds": 70274,
  "_rating": 30646,
  "Ġocur": 91220,
  "OrDefault": 14188,
  "å½±è§Ĩ": 102436,
  "ProgressBar": 38358,
  "_Number": 51799,
  "Ġplanets": 32875,
  "Ġspecialization": 65879,
  "åħ¨æ°ĳåģ¥èº«": 116058,
  "ĠĠĠĠĠ": 414,
  "Ctl": 94252,
  "Ġ*\"": 91204,
  "Ġabol": 36176,
  "ĠThemes": 62087,
  "ktion": 39470,
  "estic": 9826,
  "ĠDevelopment": 10816,
  "REFERENCE": 81076,
  "ĠBoxFit": 69354,
  ".Prot": 42825,
  "çĪĨåıĳ": 104716,
  "æ¯ıéļĶ": 117513,
  "Ġwithout": 2041,
  "excerpt": 71570,
  "Ġmurm": 86551,
  "Ġstamps": 49212,
  ".rect": 18766,
  "ĠCrom": 91607,
  "ForKey": 14954,
  "ĠcomponentWillMount": 78138,
  "ĠFoundation": 5007,
  "ĠManufact": 17657,
  "allenges": 42370,
  "é¦ī": 123069,
  "åįĹåĮĹ": 107280,
  "ĠASD": 77194,
  "''": 4605,
  "_span": 37382,
  "ĠCHAPTER": 95324,
  "åĳ²": 120115,
  "æĪĺç»©": 113038,
  "æ¸¬": 107636,
  "ç¬Ħ": 120420,
  "Seed": 41471,
  "/code": 46928,
  "Ġbids": 43499,
  "ĠAbed": 98264,
  "ç¥ĥ": 122253,
  "Ġ/*#__": 51146,
  "Ġtimetable": 66540,
  "hci": 73810,
  "Ġorganizations": 11104,
  "Ġgravid": 89554,
  "ä¹Łæ²¡": 102362,
  "æ»¨": 100325,
  "Snap": 61871,
  "Live": 20324,
  "Ġkommen": 58065,
  "ĠGhana": 47568,
  "Ġnotation": 44197,
  "Ġassessment": 15449,
  "å¤´": 64355,
  "(doc": 19153,
  "Ġhass": 36404,
  "Ġcarcinoma": 88368,
  "-independent": 97785,
  "æĮĩæľĽ": 115091,
  ".rs": 25638,
  "éķ¿æĺ¥": 107701,
  "Ġaddictive": 56307,
  "_requires": 54949,
  "XP": 27375,
  "æľīåĩłä¸ª": 112485,
  "ĠProperties": 11831,
  "imshow": 65447,
  "fa": 3632,
  "Ġdesper": 17955,
  "èĩªä¹ł": 118734,
  "Inc": 39245,
  "éĢĬ": 103108,
  "çģ¯": 100183,
  "_term": 17464,
  "Currency": 26321,
  "Ġoat": 71654,
  "Ġcoins": 18762,
  "ulence": 58466,
  "å¹²": 99251,
  "IMITER": 83354,
  ".old": 46061,
  "Ġprompted": 28646,
  "TestCategory": 86293,
  "-language": 43558,
  "_mtime": 93674,
  "Ġsymbols": 17738,
  "åįģåł°": 118686,
  "_play": 22144,
  "Ġupgraded": 32524,
  "Ġlecturer": 71135,
  "ROL": 16515,
  "ä½İä¼°": 118250,
  ".sex": 73740,
  "oba": 26833,
  "%C": 66590,
  ".dead": 80734,
  "_with": 6615,
  "Ġaccompl": 13089,
  "Ġliquids": 66749,
  "Ġkeeper": 53416,
  "_WATCH": 96009,
  "&gt": 15361,
  "(datetime": 45244,
  "ĠSTOP": 45537,
  "åĺīå¹´åįİ": 117765,
  "ä¸¥éĩįçļĦ": 105806,
  "Ġfind": 1477,
  "Ġjumps": 34208,
  "ä¸¤æīĭ": 114891,
  "biased": 64301,
  "Category": 6746,
  "enant": 25121,
  "edis": 41825,
  "Ġdistributing": 49712,
  "-themed": 56589,
  "-facing": 63306,
  "_MET": 33387,
  ".om": 51633,
  "MHz": 37492,
  "Ġimmun": 32019,
  "_vc": 73396,
  "Ġplage": 85351,
  ":item": 78852,
  "ĠAPI": 5333,
  "åıĮåĲĳ": 109426,
  "affe": 37780,
  "ç»ĻæĪĳ": 104169,
  "ndata": 82603,
  "Ġslugg": 79022,
  "æ¸©é¦¨": 103002,
  "Ġrupture": 88769,
  "-controlled": 40270,
  "apixel": 94195,
  "å¤ļåĬŁèĥ½": 110523,
  "ç±»ä¼¼": 101412,
  "_plugin": 23110,
  "Ġ$\\": 57960,
  "_DAY": 43566,
  "è¯©": 119267,
  ".construct": 84254,
  "æīĢåľ¨çļĦ": 108339,
  "ĠRabbi": 70869,
  "ĠDiese": 54068,
  "oti": 88292,
  "Ġbeam": 23418,
  "fmt": 12501,
  "ĠDtype": 86627,
  "è¿Ĳè½¬": 106988,
  ">.": 14276,
  "Ġlord": 36931,
  "(strict": 37927,
  "Lon": 53224,
  "åħ¨æĹ¥åĪ¶": 113752,
  "ĠINVALID": 32269,
  "Ġinsulation": 48017,
  "ç²ľ": 120815,
  "Ġdati": 71427,
  "åĬ¢": 119561,
  "Ġaprox": 72233,
  ".Big": 69223,
  ".system": 15936,
  "closing": 85777,
  "ç»Ŀå¯¹æĺ¯": 108159,
  "çī¹æĸ¯": 108095,
  "å®ĺç½ĳ": 104018,
  "Ġsugars": 69813,
  "WB": 52868,
  "å¸Ńåį·": 118782,
  "translate": 14045,
  "åĴĮç¤¾ä¼ļ": 106640,
  "æľ¬ç½ĳç«Ļ": 106629,
  "æīĵæŀ¶": 109588,
  "/news": 27355,
  "ï¦ĥ": 151498,
  "/met": 90228,
  "é©¬æ¡¶": 115508,
  "ĠBALL": 83848,
  "Ġthyroid": 52960,
  "Ġcapit": 60410,
  "ĠNewark": 64499,
  "Ġcong": 98798,
  "Db": 7994,
  "ä¸Ĭå¸Ŀ": 106020,
  "antha": 57869,
  "(SDL": 49957,
  ".IOException": 14229,
  "åĴı": 111572,
  "Resource": 4783,
  "Ġwcs": 96668,
  "æ¥Ĺ": 122984,
  "Ġempower": 25219,
  "è¯¥æĢİä¹ĪåĬŀ": 114606,
  "cone": 58082,
  "datas": 27240,
  "Ġindul": 36860,
  "æ·±åħ¥äºĨè§£": 118347,
  "ĠBudd": 18586,
  "Ġmeddling": 80213,
  "æ£Ģå¯Łå®ĺ": 117772,
  "Average": 26292,
  "uro": 2798,
  "ĠBeer": 33384,
  "Ġflyers": 85008,
  "MFLOAT": 78827,
  "è¾ĥ": 99260,
  "Ġutilize": 28066,
  "ĠPWM": 36034,
  "La": 8747,
  "åĩºè·¯": 113212,
  "feedback": 20999,
  "Despite": 19810,
  "Ġncols": 80235,
  "åĪĿå§ĭåĮĸ": 84055,
  ".statusStrip": 81988,
  "ç´§ç¼º": 115929,
  "undreds": 45713,
  "çĴĢ": 103712,
  "TINGS": 24876,
  "ä¸ĢåĪ»": 109562,
  "_kategori": 81270,
  "ĠhandleChange": 38655,
  "é³ĸ": 119524,
  "ĠRuth": 41793,
  "ellite": 18155,
  "leet": 18973,
  "æ°į": 122096,
  "ld": 507,
  "Ġafterward": 47943,
  "LOOD": 89631,
  "_kv": 97066,
  "UPPORTED": 61140,
  "_star": 31681,
  "Patterns": 57656,
  "æĭī": 72225,
  "Ġvibrator": 60724,
  "('>": 86558,
  "Ġchronic": 20601,
  "Ġdor": 52303,
  "èĴĭ": 102532,
  "$config": 34691,
  "Bezier": 95050,
  "_states": 22972,
  "webtoken": 64836,
  "åĲ¸åıĸ": 114643,
  "åĨħå®¹": 43815,
  "ç»Ĵ": 108040,
  "Ġmatchups": 78358,
  "-graph": 73016,
  "ĠaddAction": 86010,
  ".setSelected": 40274,
  "èº«ä»½è¯ģ": 105765,
  "LEX": 35245,
  "Ġgratuitement": 91934,
  "Federal": 56753,
  "èĳ¡èĲĦçīĻ": 112334,
  "RSS": 68980,
  "Ġ(!(": 13836,
  "åħ³éĶ®æĹ¶åĪ»": 115541,
  "ĠOffices": 86538,
  "ĠEMS": 70065,
  "åı¯çĪ±çļĦ": 108541,
  "Ġstrengths": 35386,
  ".Equal": 12808,
  "ĠQuantum": 55313,
  "åĮĹæĸ¹": 105364,
  "ĠIbrahim": 65633,
  "çĽ¡": 106360,
  "ĠUnsafe": 73067,
  ".richTextBox": 77163,
  ".onClick": 47633,
  "ike": 2970,
  "æľĿçĿĢ": 108116,
  "usty": 46325,
  "åĴį": 122311,
  "oning": 19744,
  "ĠTip": 29873,
  "ĠPresident": 4795,
  "Ġdownside": 51397,
  "df": 2940,
  "ĠCousins": 77604,
  "en": 268,
  "è´¨çĸĳ": 105907,
  "_utf": 39453,
  "Ġnobody": 18581,
  "ĠGrant": 23736,
  "Ġvisitors": 15255,
  "ĠHindus": 81629,
  "_Test": 32541,
  "ĠRa": 18482,
  ".fromJson": 31875,
  "apolis": 23814,
  "Uuid": 38431,
  "(Transform": 83626,
  "Ġdropping": 25100,
  "Ġmisd": 50068,
  "åıĳéħµ": 108279,
  "Ġmama": 56164,
  "Gr": 6464,
  "Some": 8373,
  "angen": 59141,
  "ĠVisa": 43334,
  "èıª": 120601,
  ".ERROR": 27858,
  "ĠMoto": 47498,
  "(Resources": 69266,
  ".skin": 59940,
  "Ġmasculine": 60065,
  ":string": 22423,
  ".initializeApp": 82735,
  "Ġuntuk": 19593,
  "æĬ±åĽ¢": 118816,
  "ĠHours": 29092,
  "Diese": 80515,
  "obre": 37608,
  "Allocation": 78316,
  "Ġattitude": 18915,
  "Ġcompression": 25111,
  "Ġdetrimental": 63969,
  "Ġvenda": 93545,
  "åħļçļĦåįģä¹Ŀ": 111925,
  "ĠMULTI": 82737,
  "çĥĺå¹²": 114077,
  "Ġradiator": 77090,
  "ĠThief": 85598,
  "_checksum": 64038,
  "InterfaceOrientation": 64479,
  "erialized": 67577,
  "Ġdistinctly": 70149,
  "Ġ=\",": 59635,
  "Ġdine": 65107,
  "Statements": 93122,
  "Ġcamer": 92925,
  "éĸĥ": 116604,
  "Ġlime": 41719,
  "æĪĳå°±": 104115,
  "Ġsne": 20760,
  "Ġtinha": 94948,
  "èĴ½": 121127,
  "chester": 14819,
  ".pojo": 42093,
  "Ġsha": 15870,
  "èĥ£": 122505,
  "elite": 70291,
  "TI": 26614,
  "Ġdeine": 72701,
  "ĠBo": 2516,
  "^^": 21876,
  "ynomials": 76961,
  "_topic": 31414,
  "Ġphotographs": 24248,
  "æ¨µ": 121729,
  "ä½ĵè´´": 118767,
  "inc": 2840,
  "Ġbott": 10936,
  "-valid": 84810,
  "å¦¨ç¢į": 115871,
  "ä¸ŃåĽ½è¶³çĲĥ": 117373,
  "Ġvol": 4400,
  "æ¼Ķå¥ı": 110327,
  "-gen": 36464,
  "uate": 6292,
  "DL": 16524,
  "Ġgemacht": 69876,
  "Ġappropri": 7185,
  "æľįåĬ¡ä¸ļ": 105823,
  "å±ŀå®ŀ": 118720,
  "[test": 72626,
  "æ¥¼": 99432,
  "[E": 59997,
  "Ġ((\"": 89101,
  "_status": 4773,
  "gree": 22490,
  "Ġlebih": 49935,
  "Ġgew": 22539,
  "ĠTTC": 87800,
  "Ġcouleur": 75551,
  "Ġisso": 40805,
  "åįıåķĨ": 105493,
  "éĦħ": 122845,
  "damn": 88619,
  "\",{": 74448,
  "ĠMeaning": 48103,
  "interface": 4970,
  "Ġmonthly": 15088,
  "Dic": 44545,
  ".globalData": 76630,
  "Ġspel": 70935,
  "åĽŀæĥ³": 114877,
  "_bloc": 71572,
  "(rest": 62036,
  "Ġdiaper": 75753,
  "_EXPORT": 20789,
  "åĲĮæĹ¶è¿ĺ": 109771,
  "Ġtexto": 32025,
  "ifications": 7029,
  "Ġcentro": 40887,
  ".simpleButton": 96813,
  "ugador": 81420,
  "Ġprayers": 33196,
  "[Y": 69907,
  ".group": 6175,
  "ĠHarmony": 65380,
  "Ġjuste": 69274,
  "symbols": 67426,
  "Ġlisted": 10007,
  "åīįæīĢ": 110213,
  "åĵİ": 110030,
  "ĠDok": 66850,
  "_delta": 26710,
  "Ġfi": 9136,
  "æģĲ": 100312,
  "DoubleClick": 73043,
  "[String": 18498,
  "ç¡ļ": 122792,
  "Ġrunaway": 90640,
  "_NOTIFICATION": 54241,
  "Ġ}}>{": 87715,
  "//****************************************************************************": 64226,
  "èĢģæĹ§": 103803,
  "(STD": 62274,
  "ĠDX": 30808,
  "ĠWalking": 39055,
  "ĠRemove": 10783,
  "])),": 69068,
  "ĠBannon": 54165,
  "ĠDEALINGS": 28470,
  "ĠinitComponents": 52056,
  "ows": 4241,
  "ä¸ľéĥ¨": 106565,
  "ï½®": 144889,
  "Ġpictured": 41566,
  "\\Json": 60612,
  "ĠBearing": 38668,
  "airobi": 83452,
  "egration": 17376,
  "Ġlistings": 25465,
  "ĠENERGY": 83276,
  "Ġhorrors": 69518,
  "ĠACM": 89215,
  "memset": 98066,
  "IFICATIONS": 77579,
  "GG": 22254,
  "Ġapplicable": 8415,
  "Ġenrichment": 69172,
  "æĭľ": 100090,
  "åįĥäº¿": 111722,
  "Ġdimensional": 55887,
  "èģĶç½ĳ": 100639,
  "Ġsophisticated": 26779,
  "ä½ľä¸ļ": 104147,
  "èı¥": 122766,
  "ĠFiled": 83001,
  "gie": 21512,
  "ĠAs": 1634,
  "Def": 2620,
  "Ġhipp": 43556,
  "ĠErf": 41663,
  "Ġbip": 28878,
  "Ġtn": 43308,
  "ĠAllocate": 44625,
  ".nextInt": 17547,
  "mighty": 67305,
  "Ġpresidente": 51385,
  "Ġandroid": 2103,
  "Ġcelebrated": 27185,
  "addEventListener": 32374,
  "_CLUSTER": 77871,
  "ĠPolygon": 48159,
  "Ġ*>": 22948,
  "Ġvraiment": 58919,
  "letter": 9451,
  "uth": 940,
  "Ġbutterknife": 49939,
  "Seleccion": 72329,
  "ãĽ¹": 123111,
  ".Retrofit": 95227,
  "(-": 4080,
  "ĠHonestly": 70947,
  "_infos": 47779,
  "æ¡Ĩæŀ¶": 102724,
  "æ¸ħåĩī": 112922,
  "Ġsubcontract": 94379,
  "ĠHindered": 94389,
  "Ġwzgl": 127904,
  "Ġproducing": 17387,
  "ItemClickListener": 37329,
  "_partition": 43840,
  "-compose": 65070,
  "\\S": 29742,
  "Ġext": 1303,
  "ares": 5403,
  "ĠRecyclerView": 22562,
  "Ġwann": 54505,
  "Ġuprising": 69406,
  "å½©": 99414,
  "pest": 29123,
  "Ġsteady": 24020,
  "'LBL": 65230,
  "æ³īå·ŀ": 108374,
  "Ġconocer": 59240,
  "_twitter": 83338,
  "<|endoftext|>": 151643,
  "Ġtrusted": 21789,
  "edy": 9313,
  "Ġsynchronize": 63799,
  "ãĽļ": 122730,
  "Football": 86323,
  "Ġopacity": 18655,
  "ä¾Ĺ": 119905,
  "getLast": 71557,
  "<br": 9480,
  "ngx": 33046,
  "Ġpercept": 77532,
  "ĠNack": 95062,
  "Vous": 42173,
  "ĠINCLUDE": 50393,
  "achusetts": 20051,
  "Ġbent": 29180,
  "Ġapoptosis": 94774,
  "èģ¿": 119646,
  "æĭīåĬ¨": 109657,
  ".Please": 81827,
  "Ġinstrument": 14141,
  "imate": 3426,
  "éĺ¡": 119580,
  "ĠClair": 92510,
  "ĠHash": 6531,
  "AreaView": 76572,
  "Ġcandidates": 11178,
  "\"].(": 84588,
  "æ½¸": 121676,
  "Ġvolunteered": 73671,
  "Ġdiapers": 82862,
  "Ġstatistic": 42489,
  "$p": 40241,
  "Ġduke": 95823,
  "bjerg": 91878,
  "ä¸ĩäºº": 102266,
  "Ġdistance": 6010,
  "ĠHammer": 36894,
  "å°±æľīäºĨ": 114428,
  "Ġcampaigning": 54827,
  "Ġcloak": 61394,
  "timeofday": 59523,
  "ĠSIGNAL": 24502,
  "_matched": 93900,
  "ĠOlymp": 14792,
  "ĠRecommendations": 88420,
  "surface": 39746,
  "Behind": 73642,
  "Ġrotten": 77692,
  "ĠForce": 11732,
  "_media": 29173,
  "_indices": 18333,
  "ĠreadOnly": 61451,
  "ĠCent": 5719,
  "è´½": 120303,
  "çľŁç©º": 110797,
  "quee": 17110,
  "ĠTibetan": 71974,
  "paring": 44152,
  "ĠConsole": 5277,
  "åĲĮæĹ¶ä¹Łæĺ¯": 111733,
  "ĠNine": 37066,
  "Ġdib": 41068,
  "Ġcool": 7010,
  "'int": 54524,
  "ĠCorpor": 10858,
  "_drop": 29584,
  "Ġtest": 1273,
  "_live": 55203,
  ".hostname": 54573,
  ".ArrayList": 11068,
  "ĠSept": 5375,
  "operative": 42619,
  "_REPO": 82479,
  "attach": 16330,
  "Instance": 2523,
  "Ġancestor": 45731,
  "Ġèĭ¥": 92498,
  "æ®¿": 100881,
  "éĻ¢æł¡": 102499,
  "uent": 11680,
  "upload": 6120,
  "SHA": 33145,
  "è¾Ľ": 100536,
  "æ±ĩæĢ»": 108788,
  "Ġunion": 11300,
  "æĶ»åĬ¿": 116525,
  "Prev": 33528,
  "lations": 29656,
  ".today": 37787,
  "Ġmolecules": 34615,
  "éŃĨ": 121467,
  "èĮİ": 109729,
  "waiting": 49534,
  "Ġbaik": 79187,
  "ĠFahrenheit": 68723,
  "ardin": 53790,
  "Ġowe": 41110,
  "CompanyId": 94693,
  "useState": 55670,
  "Ġsimply": 4936,
  "TableModel": 44112,
  "ĠPurdue": 72234,
  "ĠDataFrame": 45786,
  "ĠBayern": 55591,
  ".Time": 16299,
  "ĠAgriculture": 36863,
  "const": 1024,
  "submenu": 60984,
  "ĠConfigure": 22169,
  ".errorMessage": 57407,
  ".CENTER": 32567,
  "Ġra": 15122,
  "(nb": 60907,
  "letic": 21973,
  "Emer": 58287,
  "åįĸ": 99615,
  "Ġchapter": 12453,
  "ĠforCell": 72522,
  "_RETURNTRANSFER": 71165,
  "erv": 648,
  "Ġdep": 2170,
  "åºĶæĶ¶": 117465,
  "HA": 17020,
  "æĹłè®ºæĺ¯åħ¶": 117918,
  "èĩªæĿ¥": 112208,
  "åĪĽæĸ°åıĳå±ķ": 108134,
  "Ġheavier": 43822,
  "BOOL": 10395,
  "ĠCanyon": 40460,
  "å½ĵä¹ĭæĹł": 111890,
  "Ġimplicit": 17995,
  "å¯¹å¤ĸ": 102330,
  "Ġsteril": 65640,
  ".querySelector": 8583,
  "éĥµ": 103383,
  "åĲ«æľī": 102704,
  "ĠREMOVE": 48783,
  "Ġcopied": 21774,
  "ĠMini": 19643,
  "Ġdesn": 65280,
  "_Store": 92684,
  "çļĦéŃħåĬĽ": 108847,
  "Ġaire": 84108,
  "Ġbrush": 15625,
  "ç¬ĳçĿĢè¯´": 114132,
  "Ġsafest": 61744,
  "Ġper": 817,
  "ĠHDC": 96317,
  "strt": 39126,
  "ollah": 47855,
  "+='<": 92157,
  "Ġdiscriminatory": 67663,
  "conc": 40446,
  "Ġschools": 8682,
  "ĠuserInfo": 24469,
  "Ġslot": 9446,
  ",GL": 91082,
  "çľŁæŃ£åģļåĪ°": 117534,
  ".Italic": 94446,
  "ĠYELLOW": 81276,
  ".Graphics": 10410,
  "Temp": 12151,
  "å±ŀæĢ§": 79256,
  "å¾ĹåĪ°": 101051,
  "èĨĻ": 121798,
  "Ġvague": 39046,
  "ifix": 96322,
  "Ġhott": 31522,
  "hores": 82071,
  ".getService": 71563,
  "igeria": 63717,
  "Ġkeypoints": 87892,
  "tanggal": 48699,
  "Ġingress": 78559,
  "æ¡´": 120609,
  "å·¥ä¸ļåĽŃ": 114456,
  "ĠMcGr": 87750,
  "çĶ¬": 119125,
  "Ġcryptocurrency": 26037,
  "Ġedit": 4499,
  "ĠNon": 11581,
  "IOUS": 42652,
  "(IService": 76910,
  "ĠOutdoor": 32682,
  "Fred": 74596,
  "nik": 21490,
  "Register": 8690,
  "Ġdk": 40204,
  "èŀ¨": 121761,
  "-fed": 78000,
  ".Intent": 19848,
  "æ°ª": 118554,
  "é¸¡èĤī": 118408,
  "å·²ç»ıè¶ħè¿ĩ": 118547,
  "edula": 68855,
  "Hotel": 45574,
  ".Handler": 31010,
  "Ġdelighted": 33972,
  "éŀĶ": 123514,
  "Keywords": 43842,
  ":white": 50816,
  "Ġlistener": 11446,
  "ĠProxy": 32778,
  "çįĦ": 119211,
  "ĠLeadership": 36163,
  "MIN": 16413,
  "çļĦåĨħå®¹": 104597,
  "refix": 5060,
  "addr": 6214,
  "ĠObservableCollection": 44464,
  "èħ¨": 123221,
  "_EMIT": 97763,
  "ĠCooper": 23517,
  ".partition": 79009,
  "æģ¿": 120825,
  ".IsDBNull": 92383,
  "åĸ®ä½į": 109555,
  "è¯´æ³ķ": 102869,
  "Saga": 95665,
  "Ġtranslations": 36693,
  "Ġparticipation": 20239,
  "çļŃ": 123780,
  "local": 2438,
  "(unit": 24144,
  "Ġlog": 1487,
  "apGestureRecognizer": 54614,
  "ĠGallup": 79801,
  "lux": 62859,
  "åĩ¡äºĭ": 117361,
  "abc": 13683,
  "Ġfluor": 53636,
  "$:": 62546,
  "çĬ¹å¦Ĥ": 108228,
  "([{": 73983,
  "ĠFixedUpdate": 86602,
  "eka": 52313,
  "(http": 19886,
  "ENCIL": 71582,
  "Ġcod": 20329,
  "é¥¼å¹²": 117497,
  "Ġspirit": 8913,
  "æ´ģåĩĢ": 112974,
  "ĠTree": 8942,
  "ĠEstates": 91600,
  ".Marker": 61131,
  "Ġsubsection": 22848,
  "(Log": 33028,
  "its": 1199,
  "è¾½å®ģçľģ": 111415,
  "Ġjobject": 49045,
  "Ġoffspring": 45371,
  "ĠBOT": 82330,
  ".getOutputStream": 66116,
  "ç»ŃèĪª": 115523,
  "ĠBeispiel": 79192,
  ".Msg": 30365,
  ".repository": 14962,
  "~~~~~~~~~~~~~~~~": 32543,
  "Ġhari": 69696,
  "çļĦåģļæ³ķ": 106723,
  "Ġcomparative": 54294,
  "Ġexpert": 6203,
  "fp": 10852,
  "ikki": 83541,
  "è§īéĨĴ": 108694,
  "ĠoffsetX": 73272,
  "LOPT": 20088,
  "coil": 85737,
  "cznie": 88494,
  "æĭĽåķĨ": 102318,
  "(effect": 91779,
  "åĩĢåĢ¼": 110425,
  "trak": 70019,
  "Ġsurface": 7329,
  "AGMENT": 52233,
  "åĬ¡å·¥": 109508,
  "å¿ĥä¸Ń": 104219,
  "masked": 81535,
  "Ġelbow": 45711,
  "WK": 68316,
  "Ġnerve": 30915,
  "ocities": 80449,
  "ĠJustice": 11745,
  "éģĵæŃī": 107961,
  "å±ī": 119342,
  "Typ": 12834,
  "ç»¨": 120546,
  "TON": 10271,
  "/dis": 41510,
  "Ġtreasurer": 95391,
  "inia": 90450,
  ".mongo": 88484,
  "elsing": 96588,
  "Ġein": 4368,
  "MetaData": 37307,
  "arrings": 51498,
  "hen": 12032,
  "ĠLucy": 44070,
  "è¤¶": 119070,
  "ĠHos": 63990,
  "(Controller": 95482,
  "å½Ĵå±ŀäºİ": 115636,
  "osome": 31454,
  "latlong": 61499,
  "æľīä¸Ģä½į": 114082,
  "lis": 47203,
  "ĠstatusBar": 90120,
  "lers": 9254,
  "-member": 43550,
  "Ġanother": 2441,
  "ç¿»å¼Ģ": 117226,
  "ounced": 19453,
  "Ġdej": 32963,
  "åĦŁ": 116846,
  "Ġmurderer": 67966,
  "ç¥Ł": 119396,
  "_ability": 95763,
  "_mu": 43521,
  "ĠDerby": 45773,
  ".Socket": 52089,
  "ï¾Ĺ": 144396,
  "RC": 7380,
  "ä¾į": 107010,
  "_nonce": 48508,
  "åĲĮæĹ¶": 91572,
  "say": 36790,
  "å¤ľéĹ´": 107884,
  "Ġextrem": 5876,
  "ĠArchbishop": 81211,
  "_ctrl": 22667,
  "ĠBrazilian": 34983,
  "essel": 35548,
  "adoras": 73438,
  "ĠAce": 37707,
  "WillDisappear": 80491,
  "Ġmedications": 29910,
  "faith": 74610,
  "ĠNEWS": 40126,
  ":w": 52882,
  "Ġestablishes": 63564,
  "_throw": 72161,
  "ĠBet": 13017,
  "uncan": 37466,
  "Ġbanning": 48536,
  "ĠSMB": 63658,
  "åİ£": 122788,
  "innen": 34711,
  "ĠStations": 86916,
  ".Ribbon": 64278,
  "ä¸Ĭçº¿": 105239,
  "rouw": 71623,
  "éĿŀ": 65676,
  "Ġdrawable": 52071,
  "Ġcourteous": 88188,
  "Ġtightly": 38969,
  "Illuminate": 11921,
  "/nav": 68236,
  "Ġnewfound": 93521,
  "ĠdataSet": 56053,
  "Ġmagazine": 14418,
  "ĠNone": 2240,
  "åıĳåĬĽ": 106966,
  "æĵįåľº": 116871,
  "*S": 68207,
  "toast": 52101,
  "cla": 53661,
  ".position": 6187,
  "ä¸ľäº¬": 107513,
  "Ġcomfy": 59321,
  "ĠIbid": 75468,
  "Ġmantle": 70432,
  "æĪ¡": 121121,
  ".DropDownStyle": 82900,
  "ĠNoSuch": 47977,
  "å¸Ĥåħ¬å®īå±Ģ": 106990,
  "èĩ³æĸ¼": 117127,
  "ç³ĩ": 123481,
  ".Images": 47188,
  ".getProperty": 20462,
  ".Date": 8518,
  "æŀĩ": 119834,
  "Len": 11271,
  "Ġ%(": 21227,
  "Junior": 90708,
  "Obama": 44337,
  "Ġdistraction": 53616,
  "Ġyeti": 143417,
  "_INT": 9161,
  "_PATH": 7944,
  "æĬ¤èĤ¤åĵģ": 114386,
  "xx": 4146,
  "_build": 20801,
  "ĠTurner": 33031,
  "ç»¼åĲĪæĢ§": 107263,
  "ç»Ĭ": 114683,
  "ĠBACKGROUND": 96614,
  "Ġprovinc": 27807,
  "Ġmicrobes": 79627,
  ".lst": 76740,
  "Role": 9030,
  "'],$": 42087,
  "å¤ĸ": 47815,
  "(Set": 52474,
  "ewish": 65829,
  "ICY": 38264,
  "ucking": 46170,
  "ĠAre": 8713,
  "devices": 46966,
  "_LIBRARY": 54110,
  "enticated": 17942,
  "Ġdentist": 49251,
  "Hope": 38015,
  ".SetText": 92259,
  "_aut": 32808,
  "ialect": 55056,
  "å°ĸåı«": 116419,
  "æķĻå®¤": 106323,
  "ĠIconButton": 45586,
  "ĠEthernet": 45408,
  "$val": 94862,
  "çļĦæīĢæľī": 105679,
  "jest": 49015,
  "ĠDoug": 31508,
  "ĠPowerShell": 73962,
  "eref": 43970,
  "allo": 35937,
  "ĠonCreateView": 41438,
  ",row": 59551,
  "Ġlista": 14124,
  "Ġqualche": 89016,
  "æĮĩå¯¼ä¸ĭ": 109767,
  "å±£": 121526,
  "bz": 71701,
  "Ġaxes": 24745,
  "goog": 39858,
  "Ġpalms": 74718,
  "=x": 25387,
  "ĠFixes": 85963,
  "ĠOnt": 17819,
  "install": 12248,
  "ĠGLUT": 69273,
  "æ¶´": 122888,
  "Ġbuilder": 7363,
  "VMLINUX": 49511,
  "å´Ń": 112175,
  "ĠPierre": 36977,
  "movie": 20032,
  "ĠTehran": 52695,
  "éĺ³æĢ§": 112758,
  "Ġ:=": 1669,
  "orda": 57080,
  "Ġmotiv": 12242,
  ">Total": 63081,
  "PA": 8041,
  "pls": 56986,
  ".local": 11033,
  ".seq": 43867,
  "#g": 46152,
  "DEX": 10730,
  "azo": 40184,
  "åħ¬ä¸»": 105454,
  "Ġrue": 55849,
  "æ°ĳèĲ¥ç»ıæµİ": 117504,
  "VENTORY": 75672,
  "Ġistedi": 127979,
  "èĦ¾èĥĥ": 116692,
  "Ġgust": 29814,
  "ĠTory": 46150,
  "orest": 41419,
  "éĥ¨éĺŁ": 104479,
  "Ġtint": 48004,
  "/Web": 50438,
  "èĢģçĪ·åŃĲ": 117730,
  "ually": 1832,
  "Ġlips": 22877,
  "Ġsetattr": 61114,
  "(found": 55698,
  "å¸¸å¸¸": 104495,
  "ĠTelegraph": 48806,
  "star": 11870,
  "Ġredundant": 47732,
  "pga": 74669,
  "ersion": 1325,
  "Ġsum": 2629,
  "åķĦ": 119406,
  "Ġpar": 1346,
  "Quite": 96746,
  "Bean": 10437,
  "è¯ĳ": 102610,
  "ĠTradable": 23070,
  ".Anchor": 11235,
  "ĠHoover": 72309,
  "Ġphysique": 63341,
  "ĠJog": 86407,
  "ĠPolice": 10082,
  "å¹´æĿ¥": 104921,
  "heim": 20572,
  "Ġrotor": 62025,
  "ĠPager": 87308,
  "mod": 2593,
  "åľ¨éĤ£éĩĮ": 106504,
  "_gradient": 49482,
  "Ġlagi": 73944,
  "Ġkennen": 59570,
  "è¾ĥé«ĺ": 105540,
  "Ġtriple": 23725,
  "<UnityEngine": 57774,
  "Ġos": 2643,
  "ĠThur": 75055,
  "Ġupheld": 61311,
  "ĠIllegalArgumentException": 21374,
  "ĠBED": 82264,
  "ĠCait": 75332,
  "ç®Ĺ": 69103,
  "Ġinvolve": 21058,
  "nel": 8138,
  "Ġimportante": 35797,
  "æĥħåĨµè¿Ľè¡Į": 110245,
  "æ·±åİļçļĦ": 113218,
  "collapse": 17908,
  "ä¹ĭåĪĿ": 108957,
  "è¢ĸ": 102885,
  "è¯Ĥ": 119768,
  "derived": 50082,
  "Ġscrape": 57128,
  "ĠCell": 13972,
  "Ġgraduated": 32009,
  "èĻ¿": 120093,
  "Ġadulthood": 62933,
  "OE": 52865,
  "æ³¨æĺİæĿ¥æºĲ": 118960,
  "Ġscissors": 71624,
  "Ġchaud": 69312,
  "æĿ¥åģļ": 110138,
  "='\".$_": 80248,
  "Ġwatch": 3736,
  "Ġbaptism": 73827,
  "Ġhamstring": 89705,
  "==========": 43256,
  "(update": 31540,
  "Ġwaypoint": 65176,
  "åİ»æİī": 115600,
[...]
