{
  "æĿŃå·ŀå¸Ĥ": 111710,
  ".memo": 77791,
  "ĠDirective": 56752,
  "Ġthugs": 85319,
  "æĪĺå£«èģĮä¸ļ": 111937,
  "Ġprick": 88700,
  "ä»¥äººä¸ºæľ¬": 110976,
  ">|": 69844,
  "Ġcrappy": 82897,
  "ĠZurich": 71726,
  "_condition": 27656,
  "participant": 58513,
  "Ġformatting": 36566,
  "_RM": 86254,
  "Ġgracious": 81326,
  "Ted": 78653,
  "åĲĮæĥħ": 112321,
  "Ġgebru": 43638,
  "HS": 11961,
  "ä¹¸": 122372,
  ".emf": 37063,
  ",false": 23367,
  "order": 1358,
  "retched": 61737,
  "-info": 12505,
  "Ġrtl": 61060,
  "ĠFitzgerald": 61214,
  "setFlash": 62389,
  "ĠTrees": 58884,
  "èŀĥ": 103829,
  "qb": 49698,
  "Facebook": 20489,
  "æĥħæĻ¯": 108024,
  "æİĸ": 119062,
  "çĤ¯": 119204,
  "Rep": 18327,
  "ĠWoods": 34748,
  ".inner": 9398,
  "ĠAmbassador": 44572,
  "è¯²": 119365,
  "Ġprio": 92908,
  "Ġtrash": 22854,
  "ĠSweden": 23190,
  "ç¬¬äºĮå±Ĭ": 109663,
  ".MIN": 37470,
  "Ġho": 11386,
  "ĠEm": 5748,
  "Ġcreeping": 87592,
  "Ġzwarte": 92086,
  "ĠdefaultManager": 98920,
  "ĠExhibit": 76495,
  "åįķä½į": 75317,
  "ĠstringBuffer": 60707,
  "Ġperformed": 10660,
  "ä¼Łå¤§å¤įåħ´": 115259,
  "uale": 49311,
  "Raw": 20015,
  "Similar": 34402,
  "èµ·è¯ī": 107432,
  "ä¸ŃåĽ½åı¤ä»£": 115490,
  "åĲ±": 118159,
  "grid": 4203,
  "Ġintegrity": 16614,
  ":start": 87090,
  "ï¼ķ": 43497,
  "Ġappropriately": 34901,
  "ĠJessie": 79117,
  "Ġscripting": 67422,
  "Ġnapisa": 141276,
  "uely": 66410,
  "Ab": 5830,
  "Ġseri": 93346,
  "Ġnerv": 19658,
  "Ġ*((": 15852,
  "èĳ¶": 120881,
  "åıĺå½¢": 107457,
  "ĠRecall": 79540,
  "&view": 96648,
  "ra": 956,
  "ĠIgn": 33781,
  "ç¦ĺ": 123271,
  "Ġgg": 52034,
  "_GAME": 40908,
  "dre": 62840,
  "/Set": 51554,
  "ĠSecretary": 12386,
  "Sci": 90692,
  "Ġcodes": 13912,
  "Ġkeyboard": 13625,
  "anje": 84957,
  "Ġhern": 71809,
  "ADA": 32293,
  "Ġfertile": 69125,
  ".Update": 16689,
  "æ¸ħä»£": 112978,
  "WE": 12457,
  "intval": 57602,
  "ĠSplash": 45442,
  ".Notify": 80435,
  "_previous": 52552,
  "floor": 30449,
  "el": 301,
  "è§Ĩä¸º": 103097,
  "Ġnargs": 51616,
  "æĻ¯èī²": 109398,
  "ĠgetOrder": 82627,
  "æ°ı": 104057,
  "å±¤": 106953,
  "Ġladder": 35765,
  "--------": 513,
  "_rs": 47115,
  "ä¸ĵåįĸ": 115681,
  "(equalTo": 31816,
  "Ġvita": 54476,
  "ĠGTK": 37379,
  "(klass": 92111,
  "èĿ°": 121612,
  "udp": 31101,
  "çĴĲ": 113984,
  "(codec": 67922,
  "recio": 35658,
  "çĸ²": 101716,
  "/Form": 72820,
  "Ġcre": 1884,
  "Ġaument": 40780,
  "Ġquot": 26370,
  "_tab": 17344,
  "ĠWillis": 66642,
  "æĺİç¡®æıĲåĩº": 118160,
  "sson": 29931,
  "Ġdependable": 73336,
  "ï¤·": 148776,
  "ĠCavs": 95635,
  "-if": 44637,
  "æ¥¼å±Ĥ": 115697,
  "çĶŁæĪĲ": 43959,
  "Ġairspace": 87182,
  "lice": 4754,
  "RULE": 91916,
  "Ġpasses": 16211,
  "Ġrollers": 88613,
  "_Name": 19015,
  ".Lib": 86281,
  "----------------------------------------------------------------------------": 22349,
  "Ġlonely": 39566,
  "ĠHyp": 38415,
  "Ġsold": 6088,
  "æ»ĥ": 121308,
  "Ġpresidential": 13318,
  "Ġaffairs": 21978,
  "ĠCycling": 59970,
  "Ġseule": 85706,
  "ĠWest": 4312,
  "åµĭ": 120953,
  "Ġsuppressing": 97695,
  "å©º": 119289,
  "_ENCOD": 53269,
  "çĭ¬çī¹çļĦ": 105071,
  "Ġpen": 5750,
  "PHONE": 74998,
  "stream": 4027,
  "hz": 37259,
  "VALUE": 23832,
  "åĬ¨åĬĽ": 100738,
  "ĠKang": 54276,
  "æĭħå¿§": 107405,
  "ĠAval": 48978,
  "\"is": 72155,
  "typeName": 85491,
  "Ġyoung": 3908,
  ".MODEL": 94199,
  "\\Facades": 19022,
  "åĪİ": 119631,
  "æ³Ļ": 122350,
  "ĠMessaging": 73170,
  "Ġlinen": 54015,
  "ĠBan": 22730,
  "alogy": 79278,
  "Ġbeams": 49945,
  "Ġdepths": 42857,
  "å¼Ĭç«¯": 117862,
  "å¤§åŀĭ": 101951,
  "æĵł": 119277,
  "Ġsniper": 62282,
  "never": 36493,
  "Ġteen": 9378,
  "ĠcurrentPosition": 84418,
  ".Does": 64027,
  "ĠNAT": 18248,
  "AILABLE": 30135,
  "ï¦µ": 148758,
  "ĠOrden": 96845,
  "Ġseh": 91665,
  "_duplicates": 75051,
  "Pok": 92176,
  "èĶļ": 103442,
  "+z": 92952,
  "èĥ½æ»¡è¶³": 112809,
  "Ġviolates": 50313,
  "æĻı": 115330,
  "Ġcaregiver": 92461,
  "hest": 6402,
  "Ġanale": 78237,
  "Ġconstitutes": 41575,
  "å¼ºèĢħ": 110315,
  "æ¸¬": 107636,
  "æľ¬æľįåĭĻ": 105346,
  "Ġmarsh": 31996,
  "ĠBox": 8261,
  "ĠonNext": 94612,
  "ĠBaum": 82220,
  "ĠDrivers": 45737,
  ".capacity": 59168,
  ".getPosition": 41039,
  "æĻŁ": 113337,
  "\"\\": 11934,
  "#ad": 67868,
  "amide": 65696,
  "backs": 24113,
  "_expect": 68918,
  "-memory": 64096,
  "Ġlimiting": 32894,
  "æľįåĬ¡è´¨éĩı": 111333,
  "ĠProfession": 49211,
  "æ¼Ķç»İ": 108087,
  ".Sequence": 63537,
  "Ġevitar": 70808,
  "Ġnovels": 31863,
  "ĠBeats": 84520,
  "FileVersion": 86793,
  "BTC": 59118,
  "Ġpurpose": 7428,
  "çº§ä»¥ä¸Ĭ": 116623,
  "ä½İåİĭ": 116082,
  "ä¾Ŀæīĺ": 104539,
  "(`/": 31813,
  "_POINT": 27407,
  "éĤ²": 122255,
  "_THAT": 91594,
  "Dog": 48940,
  "è¾ĸåĮº": 103022,
  "azen": 82821,
  "Ġabsl": 88302,
  ".SYSTEM": 82524,
  "vanished": 87757,
  "ĠBaron": 52907,
  "asString": 75422,
  "ĠTr": 1163,
  "æĽ·": 120109,
  "GNU": 36223,
  "Ġstrategic": 18580,
  "éĢĻäºĽ": 105008,
  "ĠLeigh": 73022,
  "hydr": 25172,
  "ĠTradable": 23070,
  "éĺ¼": 122264,
  "Ġ------------------------------------------------------------": 86632,
  "å¿łå®ŀ": 114538,
  "ĠHex": 27228,
  "ĠDah": 75291,
  "undos": 64854,
  ".Title": 22967,
  "Ġincrements": 61600,
  "ĠNotSupportedException": 92990,
  "Ġcontar": 88705,
  "çģĪ": 123773,
  "builders": 98507,
  "probability": 87440,
  "è®·": 119645,
  "å®¶å±ħ": 102192,
  "è¯·åģĩ": 118962,
  "æ¦Ĥæĭ¬": 109193,
  ").</": 66233,
  "\\db": 53229,
  "HING": 54627,
  "ãµĲ": 123490,
  "Ġ[](": 39444,
  "_ALWAYS": 62761,
  "ĠSpiele": 69462,
  "æ¬ĬçĽĬ": 115656,
  "å°ĭ": 114577,
  "Ġeditar": 79217,
  "ç§¯æŀģåĵįåºĶ": 114373,
  "conti": 82910,
  "getOption": 69023,
  "éĩĲ": 123662,
  "(queue": 34010,
  "SuppressWarnings": 21574,
  "_EX": 4966,
  "Ġpursuit": 32336,
  "CON": 5790,
  "ĠSMB": 63658,
  "çĹĩ": 99769,
  "Ġproxy": 13291,
  "_Row": 66932,
  "åįģ": 94498,
  "Ġchill": 36301,
  "_IDLE": 46390,
  "Ġfeatures": 4419,
  "Digest": 45217,
  "Ġsalari": 143576,
  "äºĮçº§": 106587,
  "åĳ¨æģ©": 117289,
  "å¿ħéłĪ": 107305,
  "ĠAu": 32050,
  "ç»Īæŀģ": 109596,
  "Ġstrcat": 33512,
  "underscore": 53933,
  "Ġseab": 65491,
  "ĠMonitoring": 50703,
  "ĠCompass": 59580,
  "ificance": 99004,
  "ãĢįãĢĮ": 58612,
  "[class": 59944,
  "çķ¢æ¥Ń": 117292,
  "è¦ģæ¯Ķ": 109286,
  "implementation": 14369,
  "enticator": 61393,
  "_topology": 90234,
  "Ġtranqu": 40564,
  "urous": 54609,
  "Ġtorchvision": 67825,
  "ĠBryan": 36353,
  "åĩłä¹İ": 100740,
  "éĺī": 120764,
  "-border": 27019,
  "ĠTv": 49553,
  "Ġmortgages": 60898,
  "ĠGilles": 76124,
  "èµĩ": 120686,
  "(default": 18978,
  "ĠWesley": 57606,
  "ĠFactors": 67218,
  "ĠPaypal": 68021,
  "AILY": 73049,
  "_shapes": 71315,
  "Ġtenant": 25239,
  "sar": 98082,
  "istencia": 88200,
  "mapping": 40792,
  "åĪ°æľĢåĲİ": 110497,
  "Contr": 41437,
  "Ġalist": 95695,
  "Ġexploited": 50663,
  "Ġ.....": 67129,
  "èµĸä»¥çĶŁåŃĺ": 118914,
  "è½¬åŀĭåıĳå±ķ": 116374,
  "æ¨Ļæºĸ": 112472,
  "kd": 37744,
  "Ġanalogue": 90243,
  "ĠNY": 12271,
  "ĠCanc": 80323,
  ".des": 17397,
  "æ¡ģ": 120331,
  "ĠSlow": 38147,
  "ĠSilicon": 37150,
  "å®ª": 103295,
  "stein": 12429,
  ".UNRELATED": 80836,
  "Ġworthwhile": 47676,
  "Ġspite": 33681,
  "Ġparses": 70835,
  "_fname": 42334,
  "_direction": 25438,
  "az": 1370,
  "Ġbilingual": 90289,
  ".JComboBox": 79183,
  "_Unit": 80481,
  "=True": 3618,
  "Ġvalidations": 83388,
  "+C": 70792,
  "Ġsee": 1490,
  "äĢĢ": 150801,
  "Factory": 4153,
  "æĿ¥è¿Ľè¡Į": 110093,
  ">Total": 63081,
  "(container": 28168,
  "Ġdiesem": 36744,
  "\\brief": 96041,
  "Ġdank": 80122,
  "(rate": 76723,
  "Thai": 69185,
  "DUCT": 17212,
  "sky": 26684,
  "Ġescorted": 76556,
  "ropol": 22341,
  "ber": 652,
  "Ġrig": 13249,
  "Ġchoke": 64036,
  "Latch": 63639,
  "ĠMud": 68340,
  "ĠNadu": 74805,
  "Ġpertaining": 45931,
  "Ġarray": 1334,
  "ProgressBar": 38358,
  "Illuminate": 11921,
  "ĠVampire": 60114,
  "Gravity": 38409,
  "Ġrigs": 95051,
  "Esta": 59642,
  "Ġpermalink": 79228,
  "ĠChoi": 86573,
  "ĠNOT": 4183,
  "/libs": 22755,
  "gtest": 82038,
  "ĠCommunities": 57343,
  "ascimento": 56961,
  "Ġsightings": 82654,
  "åĬłä¸Ĭ": 102189,
  "ĠTournament": 18371,
  "çī¯": 120149,
  "Ġlatex": 44536,
  "Ġerm": 76134,
  "-cert": 61034,
  "WH": 19890,
  "å®¿èĪį": 105951,
  "ĠClub": 10140,
  "olly": 8618,
  "Awesome": 26899,
  "directory": 23037,
  "ĠHomePage": 44137,
  "addChild": 44852,
  "ICES": 15835,
  "äº®çĽ¸": 105634,
  "ĠSAFE": 65869,
  ".fold": 55031,
  "çłį": 106007,
  "Ġtedious": 65738,
  "<article": 84826,
  "ĠYorkers": 88173,
  "ç¼©": 99872,
  "å¸Į": 99658,
  "Ġbarbar": 53390,
  "Ġcomment": 3980,
  "Urban": 93268,
  "Future": 24206,
  "forc": 10458,
  "Ġherald": 64106,
  "cribes": 55136,
  "Ġfaire": 19463,
  "ip": 573,
  "inic": 92335,
  "December": 32146,
  "incerely": 86091,
  "é«ĺåľ°": 109116,
  ".getStyle": 96235,
  "Ġcambios": 82262,
  "Ġscrim": 80557,
  "å¤§æ¥¼": 108309,
  "åĳĪ": 100827,
  ".translatesAutoresizingMaskIntoConstraints": 62470,
  "Ġquali": 94525,
  "erreur": 70556,
  "ĠNearly": 48569,
  "Ġclarify": 37163,
  ".AttributeSet": 81801,
  "Ġrescued": 44333,
  "Ġcombos": 70133,
  "gtk": 40749,
  "(M": 3189,
  "èªŃ": 97399,
  "getPage": 96472,
  "å¹¶": 62926,
  "Ġtrue": 830,
  "versible": 64298,
  "_look": 24271,
  "ForKey": 14954,
  ".crop": 76278,
  "Ġdowns": 39191,
  ">('": 67638,
  "Ġkok": 89537,
  "ĠWenger": 76927,
  "Ġassoci": 4097,
  "obili": 94823,
  "Ġstudents": 4143,
  "_emb": 56864,
  ">B": 36721,
  "æİ§": 99332,
  "æĽ¸": 102171,
  "è½©è¾ķ": 118185,
  "éĶĩ": 120960,
  "ĠAppl": 57845,
  "åįī": 103216,
  ".Date": 8518,
  "Ġhistorically": 34801,
  "åĲĲæ§½": 108761,
  "Ġcausing": 14381,
  "èĩªåŃ¦": 112538,
  "Codes": 20871,
  "Ġdiscrimination": 21240,
  "utom": 58624,
  "å´Ľ": 102820,
  "å²į": 122221,
  "Ġfunky": 73888,
  "æĸĩåĮĸåĴĮ": 108444,
  "æģ»": 120241,
  "ĠCruise": 46377,
  "Ġrelies": 33644,
  "ĠPruitt": 77806,
  "åıĳå£°": 111535,
  "æ³¢åħ°": 112020,
  "gio": 45145,
  "_likes": 89178,
  "éĶ¦ç»£": 118278,
  "_proc": 24436,
  "è¨Ńå®ļ": 113654,
  "ĠLIABLE": 17386,
  "gements": 83027,
  "çļĦå·¥ä½ľ": 104066,
  "ĠCal": 3319,
  "+-": 21473,
  "}=": 51185,
  "_exe": 76074,
  "Ġtimp": 76645,
  "Ġlaser": 20486,
  "ACP": 61295,
  "ĠEventType": 63128,
  "æł¼å¼ı": 68805,
  "Assignment": 41613,
  "plugins": 18716,
  "é²¢": 121649,
  "éĿĵä¸½": 116332,
  "çłĶç©¶æĪĲæŀľ": 113352,
  "Ca": 22571,
  "æĭĽåĳ¼": 103578,
  "é¢Ģ": 120444,
  "agate": 46836,
  "åıĳçĹħçİĩ": 116382,
  "Ġcmp": 26089,
  "ensions": 4664,
  "ĠSOCK": 34551,
  "éĵħ": 108633,
  "xml": 6455,
  "ä¸Ģå¤´": 108535,
  "ATO": 58108,
  "Messenger": 87626,
  "FromArray": 74679,
  ".tcp": 85253,
  "ĠSvg": 81055,
  "fu": 32621,
  "ĠColt": 90384,
  "Ġkole": 58019,
  "enticated": 17942,
  "bug": 2313,
  "æĺ¾ç¤ºåĩº": 114956,
  "justice": 38768,
  "Ġaloud": 70411,
  "aleza": 79152,
  "winter": 82928,
  "(strings": 51442,
  "ä¹ĭåľ°": 106316,
  "ĠDog": 14254,
  "ksen": 85261,
  "ã§Ł": 119809,
  "Ġmoreover": 43543,
  "é£Łåĵģ": 101083,
  "åĲĪåĬĽ": 106754,
  "nie": 10810,
  "Working": 33978,
  "ĠDummy": 50567,
  "_REGION": 39179,
  "åĪĽæĦı": 102343,
  "éº»çĹ¹": 118839,
  "Ġconductivity": 97871,
  "äºĭä¸ļåıĳå±ķ": 110126,
  "\"][$": 70316,
  "æ²¿æµ·": 107815,
  "æĭ³å¤´": 114441,
  "Ġ<*": 86202,
  "scaling": 93052,
  "Ġbrute": 64098,
  "ĠAJAX": 57316,
  "Ġhalves": 74112,
  "string": 917,
  "DATE": 7097,
  "Ġforeground": 39305,
  "çĽĳçĿ£": 101116,
  "Ġexplain": 10339,
  "Ġgunfire": 76795,
  "Ġorally": 97022,
  "ä½¬": 103602,
  "ocks": 25183,
  "//*": 21417,
  "åĪĨè¾¨": 103685,
  "ezier": 98616,
  "Ġcommand": 3210,
  "brief": 6658,
  ".Rad": 74390,
  "ĠFollowers": 85550,
  "ä»ĸå¯¹": 108484,
  "ï¼Ĥ": 145179,
  "tell": 72357,
  "åħ´è¶£": 100565,
  "Ġ}": 335,
  "Ġeach": 1817,
  "æľ¬æľŁ": 110598,
  "[num": 23265,
  "Ġappe": 2642,
  "Ġjane": 98606,
  "ĠQVector": 54255,
  "Sibling": 35643,
  "èįŀ": 120038,
  "London": 39572,
  "_UPLOAD": 63036,
  "ç¼ī": 115097,
  "Ġdomin": 11111,
  ",application": 98613,
  "ï¼Įè¯·": 37945,
  "Questions": 35249,
  "æīĵäºĨ": 106677,
  "åħļçļĦåįģä¹Ŀ": 111925,
  "æĭĴ": 100500,
  "Firefox": 87650,
  "ĠSL": 16797,
  "Ġretire": 15800,
  "Ġfilings": 67148,
  "ĠGian": 78604,
  "Ġrotation": 12695,
  "Ġrent": 8016,
  "ĠMarketplace": 57258,
  "Ġroles": 12783,
  "æŀ¥": 119833,
  "éķ±": 123685,
  "ĠPayment": 20453,
  "Ġreef": 70045,
  "Ġsweeping": 40971,
  "ĠR": 431,
  "BackPressed": 50574,
  "forward": 13435,
  "_plugin": 23110,
  "ç¼ŀ": 123284,
  "Ġexplor": 47439,
  "Ġconvoy": 79461,
  "azine": 9918,
  "Ġexplode": 15758,
  "_login": 13681,
  ".ReadFile": 78976,
  "Ġpale": 27539,
  "_quality": 55074,
  ".SplitContainer": 92398,
  "ĠBella": 54500,
  ".getExternal": 81233,
  "æį¢åı¥è¯Ŀè¯´": 118229,
  "Ġcubes": 54104,
  "ungan": 51188,
  "çłĿ": 120346,
  "ĠGenuine": 82882,
  "Ġhail": 64250,
  "ĠSkin": 26951,
  "æ®³": 122130,
  "Ġwidth": 2374,
  "Ġvolunte": 13376,
  "arter": 5295,
  "å¤§å¤ļæĺ¯": 114089,
  "ownt": 12901,
  "ĠMozart": 94669,
  "Agents": 91804,
  "Ġsubt": 41029,
  "('<?": 65611,
  "ETHOD": 8758,
  "æĤ²ä¼¤": 110597,
  "(cn": 92456,
  "Eu": 54118,
  "Ġraids": 51481,
  "Play": 9137,
  "cion": 22613,
  "ĠWINDOWS": 75165,
  "Ġattr": 6376,
  "Ġwax": 36023,
  "Ġindirect": 24614,
  "ĠHerman": 60238,
  "Ġfol": 9443,
  "Clar": 98969,
  "åħģ": 101438,
  "nums": 26350,
  "ĠORM": 53590,
  "ä»įçĦ¶æĺ¯": 111220,
  "é½ĩ": 123789,
  "ç¬¥": 120719,
  "(lista": 52797,
  "_remove": 18193,
  "Ġquotation": 54231,
  "çĤ½": 118379,
  "Ġkort": 66821,
  "(password": 22768,
  "Ġspeedy": 65483,
  "pend": 3740,
  "rende": 85527,
  "Ġtk": 17162,
  "ç¼©æ°´": 118391,
  "ĠChart": 21266,
  "ĠKra": 61067,
  "Envelope": 62712,
  "_dimensions": 59699,
  "åįłæ¯Ķ": 104955,
  "Ġitm": 84237,
  "åł¡åŀĴ": 113118,
  "Ġrelief": 15957,
  ".DropDownList": 75579,
  "categorie": 86695,
  "Ġfitte": 66455,
  "(gulp": 52699,
  "Ġjudicial": 30652,
  "Ġnya": 75189,
  "-ste": 96326,
  "åĬªåĬĽ": 101066,
  ".setRotation": 86290,
  "åľ¨ä¸Ģ": 114846,
  "ĠTuring": 94430,
  "Ġskating": 64404,
  "è§īå¾Ĺèĩªå·±": 107247,
  "Ġscreening": 22265,
  "Ġsurname": 39753,
  "_pulse": 83645,
  "Ġtook": 3867,
  "specific": 51240,
  "ĠThanks": 11114,
  "å«ł": 121350,
  "ragments": 41956,
  "Ġtrouve": 70351,
  ">/<": 67772,
  ".ImageView": 35630,
  "Philadelphia": 89424,
  ".dest": 21489,
  "\\-": 50342,
  "HEME": 39432,
  "é²į": 108587,
  "LinkId": 66396,
  "ALL": 3919,
  "Ġscam": 34626,
  "plaintext": 71223,
  "ĠEnvironment": 11586,
  "Former": 30845,
  "Ġsor": 24534,
  "ĠElo": 99069,
  "Ġlockdown": 50135,
  "triangle": 55114,
  ".components": 20040,
  "ĠColors": 9526,
  "\\u": 3770,
  "å®¡è®®": 103065,
  ".Reg": 8989,
  "CARD": 59219,
  "ĠDiff": 28369,
  "Ġaudio": 7699,
  "åĲĦä½į": 104280,
  "Ġtph": 73779,
  "Ġ'');": 91515,
  "(set": 14171,
  "åĬ²": 101270,
  "Ġplataforma": 91208,
  "pest": 29123,
  "çľģ": 65770,
  "ormsg": 82027,
  "-Un": 82245,
  "ä¸īåĢĭ": 116524,
  "ToLocal": 96856,
  ".Imp": 85835,
  "uteur": 38995,
  "Money": 24786,
  "å½±çīĩ": 104869,
  "Ġregiment": 74441,
  "Ġabandonment": 90302,
  "ãŁģ": 150791,
  "ĠContents": 35862,
  "æĭĻ": 114374,
  "è§ģ": 88970,
  "æĢ¥è¯Ĭ": 116480,
  "è±Į": 119482,
  "Ġviene": 55404,
  "_dtype": 64886,
  "prefer": 80060,
  "Ġlicences": 91984,
  "Weights": 55630,
  "ĠInfluence": 74940,
  "å¥½è¯Ħ": 102959,
  "raud": 97957,
  "AIN": 6836,
  "Ġservings": 77949,
  "-person": 28045,
  "-force": 80049,
  "æĬ¥éģĵ": 86227,
  "éĹº": 103606,
  "äºĶåįĥ": 113071,
  "ĠEasily": 45991,
  ".True": 32443,
  "æĹ¥è®¯": 107341,
  ".Re": 2817,
  "åıĳçĶŁçļĦ": 106806,
  "çĮľæĥ³": 118679,
  "\")),": 35674,
  "è±ªè½¦": 118993,
  "lijke": 81934,
  "_altern": 79728,
  "weathermap": 90862,
  "å¤įåį°": 110704,
  "Predicate": 36329,
  "ĠOA": 80442,
  "ĠOutreach": 96450,
  "IBE": 49306,
  "ĠLetter": 26659,
  "ibu": 56982,
  "UnderTest": 84662,
  ".ed": 10059,
  "Ġdecade": 13212,
  "elly": 11896,
  "ĠHardy": 57274,
  "è¿¸": 120213,
  "åĮħåŃĲ": 112258,
  "Ġlegislature": 38756,
  "=B": 54526,
  "are": 546,
  "ĠLaden": 51384,
  "Ġfoundations": 40482,
  "Inner": 31597,
  "Ġflats": 60357,
  "gf": 45124,
  "ĠAin": 81151,
  "TCHA": 70158,
  "attern": 3227,
  "WebSocket": 61238,
  "NN": 9745,
  "-library": 52421,
  "ĠNec": 63124,
  "Ġretros": 48358,
  "Prostit": 92808,
  "Ġinsure": 69532,
  "ĠWorking": 22150,
  "SCO": 76365,
  "æĶ¹èī¯": 112901,
  "ĠALL": 13097,
  ".micro": 61802,
  "ĠFederal": 12137,
  "Ġvastly": 52008,
  "ologi": 85635,
  ".geom": 55205,
  "Ġuninstall": 53635,
  "Ġinterpreter": 39299,
  "tap": 30047,
  "Ġdru": 142231,
  "ĠSung": 59571,
  "çīĴ": 121240,
  "åĳ¼åĴĮæµ©": 114828,
  "Ġshortest": 39143,
  "æīįèĥ½å¤Ł": 106952,
  "ĠChief": 14344,
  "èĩ´ä½¿": 109976,
  "sgi": 51612,
  "Ġgh": 36124,
  "åŃĲå®«": 110556,
  "erequisites": 82301,
  "Cd": 90200,
  "Ġ**": 3070,
  "recur": 75762,
  "ĠLAB": 30974,
  "Ġluxe": 96100,
  "èī®": 119647,
  "Ġstad": 86123,
  "åĲįèªī": 113785,
  "éĩįæ¸©": 118649,
  "bounded": 65686,
  "CHILD": 99119,
  "Ġcaveat": 86051,
  "æŃ¦å£«": 118912,
  "ĠAvg": 62080,
  "Ġdisciplines": 48155,
  "-label": 6942,
  "ĠWr": 31630,
  "Ġplc": 96462,
  "ç¡ļ": 122792,
  "sockets": 76729,
  "æŁ¥å°ģ": 117579,
  "blings": 97463,
  "ï¼īãĢģ": 64359,
  "åĲĳè®°èĢħ": 114653,
  "Ġtanker": 92394,
  "Ġpartly": 27037,
  ",int": 9871,
  "Ġmundial": 97087,
  "æľīåĲįçļĦ": 111543,
  "ĠEconomic": 22546,
  "Ġeggs": 18805,
  "<App": 55668,
  "Participant": 67504,
  "!(\"{}\",": 79878,
  "ustomed": 49686,
  "<E": 23835,
  "å·¥åħ·": 102011,
  "ĠBayesian": 98134,
  "VisualStyleBackColor": 13715,
  "Ġbeneficial": 23699,
  "Ġpopcorn": 69705,
  "JEXEC": 95045,
  "enti": 22396,
  "ĠDefinition": 19709,
  "è¿·ä¿¡": 115110,
  "çĥ§": 100228,
  "oji": 26902,
  "pattern": 14339,
  "Ġvalidate": 9593,
  "ĠgetData": 27616,
  "ä¿¡æģ¯å®īåħ¨": 115333,
  "ContentSize": 90625,
  "åĵ¢": 122622,
  "å¤§éĿ¢ç§¯": 111589,
  "å¤§å¹ħæıĲåįĩ": 115350,
  "Ġunlink": 47479,
  "alpha": 7141,
  "-application": 92479,
  "ost": 535,
  "bis": 53581,
  "oscopic": 83567,
  "Ġdealings": 65929,
  "åıªæĥ³": 109254,
  "ĠBios": 76848,
  "@\\": 66339,
  "assume": 45051,
  "çĭ®": 102849,
  "Ġness": 85396,
  "Ġcontestant": 87222,
  "]<<\"": 66747,
  "èµ¶åĪ°": 108186,
  "Ġwooded": 93371,
  "ĠGos": 62381,
  "IPC": 62119,
  "ç¯ĩç«ł": 103798,
  "Ġ');": 83853,
  "Ġchange": 2297,
  "Ġxu": 92654,
  "home": 5117,
  "Registro": 53798,
  "oho": 95286,
  "ĠBehavioral": 71984,
  "Ġtort": 16426,
  "Ġopera": 42416,
  "çĳ¬": 123493,
  "ĠNer": 65804,
  "ĠChampagne": 87539,
  "Ġunt": 13065,
  "å®ŀè·µç»ıéªĮ": 118577,
  "Ġbytearray": 95603,
  "ĠFACE": 58227,
  "^{-": 87210,
  "Ġcapita": 52055,
  "Ġmirrors": 40485,
  "ĠPreferred": 62503,
  "Ġmitt": 47332,
  "Nickname": 74908,
  "åħĦå¼Ł": 104212,
  "Ġ\"./": 5924,
  "Ġnuma": 92094,
  "_REPO": 82479,
  "è¶³å¤Ł": 101447,
  "ElementException": 62738,
  "å°Ĭ": 100474,
  "oid": 588,
  "Ġlz": 95982,
  "COR": 52320,
  "Ġchars": 23000,
  "çŃīåĢĻ": 111801,
  "Speed": 11056,
  "COORD": 97608,
  "ĠRica": 51949,
  "Ġrevolving": 86026,
  "ĠAdvisor": 53332,
  "Ġvandalism": 88852,
  "ĠConfederate": 56357,
  "raised": 92513,
  "ĠExecute": 20848,
  "ĠHispanics": 83832,
  "ĠConstraint": 44264,
  "ï¨Ļ": 147154,
  "åĽŀæĿ¥äºĨ": 109344,
  "Ġbios": 48454,
  "VECTOR": 43687,
  "åħħåĪĨåıĳæĮ¥": 104942,
  "Ġpaycheck": 76979,
  "Ġfacets": 61714,
  "Ġsou": 5822,
  "Ġgrotes": 95179,
  "ĠLIKE": 20529,
  "(tx": 27301,
  "Ġisol": 13098,
  "TIMER": 89195,
  "å¾®ä¿¡åħ¬ä¼Ĺ": 107805,
  "Ġhoneymoon": 83793,
  "matched": 36734,
  "ĠApost": 46759,
  "è£¾": 121323,
  "Ġcameo": 94056,
  "Ġphotographers": 47177,
  "-edge": 47348,
  "Ġvids": 70512,
  "thritis": 39385,
  "å²ĳ": 118500,
  "_coef": 63929,
  "bei": 62401,
  "_quantity": 32097,
  "_cluster": 28441,
  "ĠJSON": 4718,
  "èĩ»": 112542,
  "adioButton": 17253,
  "èĩªåľ¨": 109613,
  "é¢¢": 121973,
  "#c": 92253,
  "çĮ¥": 121009,
  "Ġbranching": 85467,
  "=user": 30164,
  "Ġlookahead": 86745,
  "Ġimg": 4964,
  "Ġlikelihood": 28636,
  "arges": 58240,
  "/button": 54308,
  "èĪŁ": 102748,
  ".ENTER": 97193,
  "Ġpan": 7215,
  "è°´": 103845,
  "}`,": 28350,
  "arias": 47113,
  "riage": 8775,
  "Ġconst": 733,
  "oooo": 25761,
  "Ġmechanics": 29026,
  "Azure": 78107,
  "ãĢķ": 103919,
  ".decorators": 58121,
  "erez": 33786,
  "_insn": 79799,
  "ĠlistOf": 35891,
  "egan": 15756,
  "ORN": 45952,
  "_player": 15524,
  "Ġcrawled": 92170,
  "requ": 11019,
  "ĠDyn": 43938,
  "Loan": 71255,
  "ĠUB": 73061,
  "-at": 28783,
  "rab": 50105,
  "_fore": 35563,
  "ĠClip": 29692,
  "ĠBasics": 67176,
  "SHA": 33145,
  "OURCES": 48448,
  "Ġworldwide": 15245,
  "='.": 51786,
  "Ġunravel": 73973,
  "owards": 70739,
  "çĶŁæĢģçİ¯å¢ĥ": 104966,
  "xB": 14377,
  "ĠMustang": 52779,
  "ĠFragment": 19034,
  "enie": 61558,
  "Ġpave": 93023,
  "ĠReflect": 34598,
  "/at": 80730,
  "login": 3673,
  "ĠMountains": 40014,
  "èĮĦåŃĲ": 118866,
  "readOnly": 87703,
  "åģļåĩºäºĨ": 107759,
  "èłķ": 119526,
  "Ġula": 129679,
  "ĠSEA": 77811,
  "Ġsans": 15510,
  "éĹªèĢĢ": 116106,
  "å·´å£«": 113010,
  "Ġdiscovery": 18335,
  "\"You": 21608,
  "opo": 55709,
  "Ġpromin": 44802,
  "tooltip": 21539,
  "(bin": 49669,
  "Ġsocialism": 50518,
  "-settings": 40032,
  "å®īéĺ²": 111265,
  "Alignment": 7033,
  "æ¢ħèĬ±": 112128,
  "Ġantioxidant": 69239,
  "LTE": 58733,
  "åĿļæĮģ": 100356,
  "åīĸæŀĲ": 109321,
  "ĠWei": 52448,
  "marshal": 27121,
  "çļĦçľŁå®ŀ": 103277,
  "born": 15998,
  "Ġmodules": 13454,
  "dao": 41521,
  "æľīåĬĽ": 102301,
  "hel": 49122,
  "Ġwiden": 93315,
  "Ġgiveaways": 86226,
  "Ġalleviate": 60605,
  ".Remove": 13270,
  "_Show": 79665,
  "uforia": 69754,
  "ä¿Ŀé©¾æĬ¤": 116429,
  "ĠgetStatus": 56424,
  "LinkedList": 33915,
  "Ġprove": 12118,
  "escort": 78652,
  "Ġrept": 63773,
  "persona": 70594,
  "ä¸°ç¡ķ": 116782,
  ",I": 37768,
  "Fo": 91879,
  "_Pin": 35453,
  "(Transaction": 76627,
  "*>*": 88867,
  ".foundation": 75595,
  "éĩĳä»·": 113928,
  "(Console": 33645,
  "(control": 44973,
  "Ġzes": 137584,
  "setColor": 54091,
  "/f": 6663,
  "ĠEf": 94089,
  "_PRED": 92180,
  "è¥¿è£ħ": 114319,
  "åľŁèĢ³åħ¶": 109236,
  "ĠStadt": 54092,
  "æĭİ": 115232,
  "Female": 40718,
  "çĶ¬": 119125,
  "verbatim": 84005,
  "_slice": 26488,
  "Ġenvironmental": 12158,
  "ä½ĨæĪĳä»¬": 111207,
  "åı¯éĿłæĢ§": 110388,
  "Ġassigns": 49912,
  "Ġarchives": 38004,
  "questions": 17348,
  "ĠKob": 59148,
  "Ġwee": 74065,
  ".pi": 24259,
  "ĠOPS": 82855,
  "Ġchants": 87487,
  "fl": 1489,
  "_USERNAME": 42696,
  "Ġplates": 24477,
  ",\"": 1335,
  "ĠMen": 11012,
  "Od": 66308,
  "ĠMarkets": 46810,
  "æ·±åıĹ": 106902,
  "/*------------------------------------------------": 73062,
  "_init": 6137,
  "_Execute": 83453,
  ".workflow": 72774,
  "è¡Ģç®¡": 102890,
  "èī¾æ»ĭ": 114166,
  "_CUSTOM": 36314,
  "hipster": 95988,
  "Ġframing": 57949,
  ".mkdir": 30163,
  "ate": 349,
  "Ġears": 24230,
  "ĠBoone": 90595,
  "åľ°æ¯¯": 112110,
  "ĠEduc": 10145,
  "ĠScript": 13710,
  "/build": 30593,
  "Ġcoinc": 22970,
  "rei": 55314,
  "DataReader": 32707,
  "åİŁä»¶": 111775,
  "QWidget": 87184,
  "éĢīæĭ©äºĨ": 106049,
  "_export": 27114,
  "Ġcryst": 34342,
  "Ġyii": 20788,
  "ĠButterfly": 77720,
  "æİ¡": 103392,
  ".Country": 62413,
  "Ġodby": 140993,
  "ĠJAXBElement": 80140,
  "ergic": 74339,
  "Ġmayor": 16923,
  "ndern": 93016,
  "Ġexcellent": 9073,
  "Ġselect": 3293,
  "çłĶç©¶è¡¨æĺİ": 116827,
  "Ġsystemd": 74966,
  "Ġconduct": 6786,
  "åĲįç§°": 29991,
  "è¨Ģ": 77144,
  ".getAction": 50047,
  "Ġentrepreneur": 28249,
  "cki": 97738,
  "_middle": 62580,
  "ĠAD": 9630,
  "ĠentityId": 93042,
  "Ġcruelty": 53580,
  "ä¸įä¸ĭ": 108290,
  "ĠTeuchos": 85089,
  "Ġprime": 10250,
  "ĠMask": 19924,
  "Ġsewer": 61920,
  "Jim": 36634,
  "æ°ĳæĶ¿å±Ģ": 117558,
  "aturday": 6970,
  "DefaultValue": 41533,
  "_window": 12571,
  "Ġhackers": 40367,
  "utures": 74606,
  "bec": 16692,
  "ĠMonster": 27973,
  "(()": 5065,
  "ĠFlynn": 39386,
  "complexContent": 97715,
  "_FETCH": 57925,
  "ody": 1076,
  "VOID": 24053,
  ".Html": 43132,
  "hoe": 75935,
  "bool": 2641,
  "arch": 1113,
  "lays": 63359,
  "ç¿Ł": 116078,
  "ltre": 78758,
  "ä¸įæĸ¹ä¾¿": 113897,
  "()='": 97923,
  "Ġsprawling": 70892,
  "ä¸ŃåŃ¦": 104418,
  "OnClick": 56003,
  "ĠVictor": 32312,
  ".drive": 91704,
  "Ġinhib": 20142,
  "æ¡ĳ": 102218,
  "markers": 60773,
  "Ġstagger": 39156,
  "_java": 77323,
  "Ġcircus": 67024,
  "å°±åľ¨": 104158,
  "mini": 36411,
  "cosa": 97456,
  "ä¸ĩåĲį": 110901,
  "HZ": 61759,
  "Ġmarketers": 54472,
  "Contacts": 36784,
  "éĩĳå¥ĸ": 115868,
  ".pass": 34486,
  "MediaPlayer": 70381,
  "ĠLoop": 21359,
  "ĠtagName": 62367,
  "zzo": 45648,
  "æģ¶éŃĶ": 112257,
  "helm": 51899,
  "Ġcabel": 95599,
  "utto": 55472,
  "Ġima": 92693,
  "åŀ¸": 120304,
  "ĠFUNCT": 62355,
  "Ġpv": 33491,
  "Ġhypers": 86652,
  "_menu": 10403,
  "ĠF": 434,
  "estinal": 63950,
  "bike": 55155,
  "æĶ¯ä»ĺ": 68262,
  "afety": 38618,
  "zer": 7070,
  "è¹Ī": 102739,
  "obil": 27929,
  "Ġbij": 22424,
  "Ġorb": 36366,
  "Ġfourteen": 62260,
  "ä¸¾åĬŀçļĦ": 108685,
  "ĠOPTIONS": 51280,
  "ĠResistance": 39880,
  "bble": 59880,
  "loss": 9379,
  "Ġmilit": 5327,
  "åĲįå½ķ": 114230,
  "umbling": 41632,
  "boundary": 65180,
  "Ġparticipant": 24880,
  ".getResult": 44301,
  "DB": 3506,
  "ĠPey": 72880,
  ".ToDouble": 43533,
  "GF": 36332,
  "\\DB": 50118,
  "ç¥Ł": 119396,
  ":UIControlStateNormal": 34029,
  "Ġeks": 89662,
  "Ġpropor": 70908,
  "æµĭç®Ĺ": 113171,
  "_semaphore": 90255,
  "çļĦåĬŁèĥ½": 106744,
  ":I": 57155,
  "Inicial": 81765,
  "ĠNCAA": 33160,
  "Ġfamilial": 97204,
  ".WebControls": 32557,
  "ãĢĤ\\": 66898,
  "å±ģ": 103352,
  "ĠSubmission": 58734,
  "Kon": 77466,
  "pillar": 76502,
  "smith": 33017,
  "Ġtacos": 84401,
  "[vertex": 93484,
  "åĨľä¸ļ": 100174,
  "Ġpatiently": 78161,
  "é¸°": 122670,
  "çħĻ": 115198,
  "ĠGrab": 36194,
  "Ġtuned": 32419,
  "ToMany": 27361,
  "Ġeventually": 9583,
  "æĶĿ": 119043,
  "ĠJu": 21671,
  "ĠContainers": 98293,
  "]+=": 48705,
  ">;": 65795,
  "cdf": 58348,
  "æľĢåŁºæľ¬çļĦ": 114478,
  "åĥµ": 103390,
  "å£½": 116349,
  "Ġmeiner": 71126,
  "_median": 83003,
  "åĸ®ä½į": 109555,
  "åĶĲæľĿ": 115099,
  "/max": 62599,
  "åĨĻä¸ĭ": 111435,
  "Ġjog": 30125,
  "_resolver": 91578,
  "Ġdealers": 26199,
  "vincia": 57164,
  "æĮĩçĿĢ": 112014,
  "å§ĭå»º": 117567,
  "Ġwaren": 43303,
  "ĠShortcut": 95465,
  "Ġfend": 94027,
  "zier": 37968,
  "è¨Īç®Ĺ": 118460,
  "æīĢè¯´": 103055,
  "çĩĶ": 121828,
  "uce": 10521,
  "ToWorld": 85149,
  "ĠDifferent": 33396,
  "åįķçĭ¬": 105818,
  ".posts": 49532,
  "åıĤèĤ¡": 114536,
  "EmptyEntries": 89997,
  "Ġscripture": 72788,
  "emic": 8111,
  "ĠBalk": 59869,
  "é¢Ľ": 121624,
  "Ġviral": 28862,
  "å¯¹ä½ł": 105988,
  "NSSet": 92892,
  "ĠEsto": 92025,
  "åıĨ": 121351,
  "ä¸ĬåįĪ": 102449,
  ".manual": 90223,
  "æľī": 18830,
  "ĠLag": 32371,
  "çĲµ": 120842,
  "åĬł": 20929,
  "Steps": 33951,
  "Ġenables": 20081,
  ".Schema": 21105,
  "large": 16767,
  "Worksheet": 96634,
  "Ġtilt": 36200,
  "Ġrusse": 91539,
  "website": 19485,
  ")?.": 43507,
  "Ġflowed": 84650,
  "æĦŁæģ©": 106278,
  "ĠKron": 96560,
  "æıį": 118634,
  "Ġunderestimated": 86036,
  "Ġunsere": 44367,
  "Pair": 12443,
  "ã³ļ": 122520,
  "ĠMehr": 54412,
  "åħ´å»º": 115943,
  "Ġmonet": 57091,
  ".DisplayStyle": 93440,
  "æľīæľºä¼ļ": 106211,
  ".JPG": 64821,
  "dh": 30621,
  "MySQL": 59224,
  "Ġaviation": 45530,
  "è¿ĩåĲİ": 106735,
  "_STRUCT": 30474,
  "Ġ![": 97060,
  "Ġshocks": 67160,
  "çķľçī§ä¸ļ": 118553,
  "ologne": 67444,
  "ĠPax": 70321,
  "izon": 16973,
  "Ġfiss": 94059,
  ".cpp": 7208,
  "ç¥Ĥ": 114801,
  "ehicle": 15970,
  "ĠWellness": 60183,
  "Ġimmigr": 15285,
  "DataStream": 88062,
  "Device": 6985,
  "Arizona": 81491,
  "Ġecommerce": 84143,
  "_Selection": 88435,
  "conference": 78490,
  "drops": 90512,
  "Ġsos": 60877,
  "Ġacademic": 14250,
  "-secret": 68892,
  "åīįåı°": 116061,
  "iction": 2479,
  "YYY": 52309,
  "ĠTabs": 52614,
  ".segments": 95331,
  "ĠNotificationCenter": 83335,
  "_simulation": 82487,
  "åľ¨å¸Ĥåľºä¸Ĭ": 112524,
  "è§īæĤŁ": 118835,
  "åºĳ": 119737,
  "Ġaffordability": 77910,
  "-insert": 74550,
  "ç£ĭ": 103891,
  ".go": 18002,
  "Ġtrainable": 87661,
  "TRL": 15881,
  "æ´Ĺæ¶¤": 115218,
  "é¢§": 122108,
  "ummy": 8574,
  "Ġfil": 1461,
  "_from": 5673,
  "CanBe": 69585,
  "ç»ĵçŁ³": 113801,
  ".Network": 30149,
  ".getInstance": 9554,
  "Movement": 38050,
  ".activ": 57490,
  "å¾ĹçĽĬäºİ": 110771,
  "-watch": 84296,
  "uali": 51166,
  "-logo": 33797,
  "Ġdisclaimer": 17673,
  "Cover": 30896,
  "Ġprostate": 46347,
  "åĨħ": 31843,
  "ĠGUIDE": 94657,
  "ĠFLAGS": 47239,
  "dialogs": 41454,
  "ĠLoginForm": 69995,
  "Ġpurchased": 14733,
  "ĠCleanup": 53512,
  "ACE": 5576,
  "SEL": 29365,
  "udent": 4881,
  "Ġusado": 97343,
  "Ġfigured": 24692,
  "pps": 59543,
  "ĠRally": 58700,
  "ONG": 7539,
  "çŁ³æ¦´": 116859,
  "å¸ĮæľĽéĢļè¿ĩ": 111789,
  "å±Ĥæ¬¡": 100920,
  "_BREAK": 63841,
  "_COMMAND": 22723,
  "Ġtroch": 135218,
  "è¯ģ": 33477,
  "cam": 11599,
  "Ġrocker": 95126,
  "ĠInvocation": 78493,
  "åºķ": 99413,
  "-default": 13672,
  "Ġdistinction": 29196,
  "groundColor": 56716,
  "ç»Ħè£ħ": 113968,
  "ĠIsa": 28005,
  "nez": 54406,
  "éĿ¢çĽ®": 114079,
  "åĪ©å¥½": 108937,
  ",M": 27014,
  "mobile": 14933,
  "loh": 82348,
  "Ġcardboard": 53943,
  "Ġsufficient": 14016,
  "Ġflight": 10971,
  "æĤ¨çļĦ": 101214,
  "elden": 57588,
  "éħįèµĦ": 114631,
  "Ġhelicopter": 35025,
  "ç¾¤": 99430,
  "_ro": 26608,
  "CALLTYPE": 47002,
  "_SUPPORT": 24292,
  "éķĢéĶĮ": 117757,
  "avatars": 74814,
  "Walk": 48849,
  "Mine": 63495,
  "Ġreinforced": 48580,
  "ĠBrook": 15605,
  "ĠOccupational": 84155,
  "Ġxx": 20908,
  "å¤§å§Ĳ": 112047,
  "èİ¿": 122767,
  "batch": 14049,
  "ov": 859,
  "-enabled": 54192,
  "è´Ńçī©": 102297,
  "Ġsendo": 61346,
  "åħ¨èµĦ": 111040,
  "Physics": 33899,
  "very": 1204,
  "ç¡į": 122794,
  "æĿ¥ä¸´": 108103,
  "sharing": 83646,
  "_ordered": 75272,
  "_TAC": 48221,
  "åħ¬å¯ĵ": 105517,
  "ĠCAR": 27776,
  "pressions": 39873,
  "Ġforming": 29064,
  "åįĩçº§": 100402,
  "Ġpulse": 27235,
  "_interest": 62527,
  "cook": 86795,
  "Sep": 41114,
  "Ġwhim": 73471,
  "Insn": 26100,
  "::_('": 35410,
  "arily": 6613,
  "(Menu": 34203,
  "ĠLogout": 46285,
  "Ġcountertops": 84213,
  "ä¸Ģæ±½": 110775,
  "æī¦": 119587,
  "ĠsetDescription": 68325,
  "(shader": 54597,
  "tere": 54604,
  "_candidates": 73553,
  "ĠEXPRESS": 16427,
  "ĠDut": 43536,
  "çĴĭ": 119109,
  "Ġadvancing": 43069,
  "Ġsmash": 51906,
  "Ġnerve": 30915,
  "iful": 4985,
  "ĠprogressDialog": 57438,
  "(Window": 43305,
  "ĠShuttle": 77687,
  "/pro": 18008,
  "è¿Ļä¸ĢåĪĩ": 108802,
  "Mask": 12686,
  "ĠtemplateUrl": 13031,
  "Ġemptied": 93872,
  "ä¸įçĪ±": 111017,
  "invest": 42014,
  "pecia": 79960,
  "Ġdatingsider": 84865,
  "ĠBakery": 90615,
  "ĠNST": 38542,
  "é²Ĳ": 121263,
  "_arch": 34330,
  "arie": 66445,
  "è£¤": 102693,
  "ycz": 38134,
  "acht": 15938,
  "Ġstimulation": 40859,
  "Ġinadequate": 45479,
  "ä¸ĩåħĥä»¥ä¸Ĭ": 114907,
  "(ws": 57786,
  "(Main": 26496,
  "Ġcalculus": 82668,
  "whereIn": 85493,
  ".Complete": 93573,
  "Ġspiral": 41097,
  "uri": 6070,
  "Ġjoints": 34258,
  "Ġpriest": 27086,
  "ĠPassage": 98475,
  "-basket": 94675,
  "è§Ĥçľĭ": 105208,
  "'utilisateur": 85409,
  "Ġdescr": 56217,
  ".Std": 36086,
  "ĠPhillips": 36414,
  "ĠLat": 9926,
  "æĸĻ": 41406,
  "Ġcasualties": 47888,
  "éľĨ": 103523,
  "Ġforthcoming": 44664,
  "Ġcriticize": 60630,
  "ilians": 25625,
  "Ġrelationships": 11871,
  ".Then": 97965,
  "Ġhospitals": 23551,
  "lush": 34604,
  ".Roll": 71212,
  "Ġinstantly": 21818,
  "itet": 41538,
  "ĠCassidy": 91797,
  "Ġ.=": 5324,
  "äºĴåĬ©": 110820,
  "ForEach": 91392,
  "ĠIntersection": 79014,
  "åľ°è´¨": 107112,
  "ãĻį": 122762,
  "åħį": 99506,
  "Ġoct": 18491,
  "Ġdisturbances": 84060,
  "Pdf": 67596,
  "Applied": 75856,
  "dst": 15658,
  "REATED": 37025,
  "ĠShaw": 35185,
  "Ġoutr": 17852,
  "å¾ĹçĽĬ": 110770,
  "_SHA": 38096,
  "-private": 65277,
  "ĠEXCEPTION": 80452,
  "çĶ³æĬ¥": 104664,
  "èļģ": 103372,
  "?a": 98461,
  "(pin": 56065,
  "Ġantigen": 81989,
  "ç±³åħ°": 109049,
  "Catalog": 41606,
  "[start": 28463,
  "éĶħçĤī": 108409,
  "èĮº": 122423,
  "å¼ķåıĳ": 102361,
  "Ġsaline": 98007,
  "ĠADMIN": 50235,
  "Ġapprentices": 71251,
  "å¾Īåĸľæ¬¢": 108295,
  "ĠPump": 33726,
  "ĠResidence": 71760,
  "(cos": 88830,
  "èīĭ": 121469,
  "å¾Īæ£Ĵ": 114916,
  "ĠDrew": 40108,
  ".street": 73227,
  "Ġmain": 1887,
  "trs": 85385,
  "Ġvarieties": 35580,
  "isons": 19379,
  "äºĨå¤ļå°ĳ": 110599,
  "picked": 93499,
  "èħĲè´¥": 105148,
  "ĠNowadays": 86481,
  "ETS": 43167,
  "ĠDept": 50221,
  "éĩĿ": 103594,
  "åĪĬ": 100296,
  "pie": 20283,
  "zahl": 46728,
  "Ġattraction": 32364,
  ".By": 48906,
  "-source": 30774,
  "çĶŁçĮª": 110129,
  "ä¸ĩäº©": 106478,
  "-actions": 51321,
  "Ġoutput": 2550,
  ".isTrue": 82526,
  "_preds": 65983,
  "_mapped": 91933,
  "Ġcooled": 64310,
  "(ff": 80156,
  "xr": 50997,
  "Ġoffender": 46653,
  "opies": 75541,
  "äºĨåįĬå¤©": 117498,
  "uros": 43386,
  "ĠAustralians": 55837,
  "omat": 80768,
  "only": 3243,
  "MM": 8035,
  "(bar": 54630,
  "è¡¨": 20742,
  "opyright": 2171,
  "aya": 12589,
  "filt": 87631,
  "Ġlonging": 78322,
  ".defer": 60043,
  "_inp": 78887,
  "anh": 27924,
  "ĠmarginBottom": 32036,
  "(groupId": 98385,
  "çļĩåŃĲ": 117827,
  "å¤§å¤§": 102584,
  "èĶ½": 101839,
  "Ġgx": 61033,
  "ĠDamon": 72249,
  "Ġboolean": 2710,
  "çĳħ": 123124,
  ".extensions": 48439,
  "$:": 62546,
  "Ġcrowned": 78643,
  "çªģå¦Ĥåħ¶": 115322,
  "ĠPrometheus": 97137,
  "åŀĤçĽ´": 107422,
  "ç®«": 117921,
  ",no": 84198,
  "ĠBurn": 18039,
  "ĠLive": 11158,
  "ĠfromDate": 79616,
  "ĠHavana": 85875,
  "jquery": 26836,
  "Ġcertification": 27606,
  "(',')": 91301,
  "ĠModelAndView": 35068,
  "Ġpretending": 54806,
  "Ġhello": 23811,
  ".T": 836,
  ".shapes": 98981,
  "æĥĩ": 120795,
  "inalg": 33231,
  "Ġdistance": 6010,
  "äººåĿĩ": 106372,
  "-spinner": 70110,
  "Ġphysiological": 52094,
  "/world": 78892,
  "pler": 12910,
  "nh": 16719,
  "çĹħæ¯ĴæĦŁæŁĵ": 115275,
  "ĠTop": 6909,
  "ĠRound": 17097,
  "æīĭæ®µ": 104085,
  "\"id": 28700,
  "ild": 695,
  "Ġsense": 5530,
  "ĠLabor": 14930,
  ">[": 30768,
  "çļĦæ¦Ĥçİĩ": 114568,
  "ĠAlabama": 20623,
  "åĭīå¼º": 109722,
  "çĵ¢": 119500,
  "GR": 8626,
  ".orders": 63544,
  "OPTIONS": 56929,
  "Ġreson": 28180,
  "Ġtranslations": 36693,
  "æ³¨æĺİåĩºå¤Ħ": 116621,
  "Ġllen": 78831,
  "totalCount": 97036,
  "ĠTrainer": 46055,
  "jax": 14518,
  "ceipt": 24130,
  "ĠProviders": 69929,
  "ĠExport": 22191,
  "_CHANGED": 48099,
  "et": 295,
  "ĠUser": 2657,
  "æ³¡": 100454,
  ".mass": 67371,
  "OptionsMenu": 47711,
  "Ġvoc": 11984,
  "onder": 14184,
  "ç»ĵå°¾": 114903,
  "Ġinterpersonal": 73858,
  "umberland": 68759,
  "åĽ«": 119711,
  "ĠThere": 2619,
  "Ġconsole": 2339,
  "çľŁå¯¦": 114682,
  "ROSS": 44484,
  "Ġgrant": 13198,
  "bitrary": 87851,
  "_greater": 97994,
  "ĠisConnected": 98796,
  "Ġcham": 33709,
  "_archive": 42873,
  "Ġprofiles": 20872,
  "æ²ŁéĢļ": 104063,
  "æĥłåıĬ": 116032,
  "ç¦»å©ļ": 105209,
  "ĠRomania": 46049,
  "Ġpurposely": 89087,
  "Ġumb": 36681,
  "ĠborderSide": 97655,
  "ird": 2603,
  "Ġextracting": 59408,
  "èī°è¾Ľ": 112399,
  "æĿĳå§Ķä¼ļ": 112771,
  "ä¸ĭéĿ¢æĺ¯å°ı": 112919,
  "High": 11976,
  "Products": 17746,
  "_LONG": 19903,
  "éĹ¨åīį": 109967,
  "å°ıä¼Ļ": 103621,
  "har": 12982,
  "Ġnutzen": 77919,
  ")t": 78105,
  "CppMethod": 23574,
  "Ġsubordinate": 78163,
  "Ġchalk": 42359,
  "setDisplay": 76355,
  "_meas": 95786,
  "_COMM": 14025,
  "ĠKomment": 67489,
  "ĠThorn": 76924,
  "Ġsequel": 34761,
  "çĭŃ": 103465,
  "MLElement": 27334,
  "æ±ĩ": 99833,
  "Ġvein": 53244,
  "ĠOVER": 35464,
  ".className": 20010,
  "åĨ¬": 99949,
  "Ġpizzas": 87770,
  "é¸¢": 119853,
  "gam": 39329,
  ".getUserName": 91125,
  "_OBJC": 63804,
  "ricks": 77789,
  "å¾®ä¿¡åı·": 114147,
  "])[": 40005,
  "ä¸įèĪĴæľį": 110237,
  "ĠInstead": 12090,
  "acker": 9683,
  "ĠWrites": 53288,
  "Forms": 20593,
  "ĠAccident": 75504,
  "ĠYear": 9742,
  ".RemoveEmptyEntries": 90772,
  "HasKey": 83633,
  "Ġmilling": 45372,
  ".Summary": 92992,
  "Ġdrugs": 10975,
  "Ġdecorated": 36009,
  "neider": 47611,
  "xEC": 86599,
  "ĠShades": 80147,
  "Ġpenetr": 43705,
  "raquo": 85260,
  "youtube": 43978,
  "Teams": 60669,
  "etu": 94417,
  "ä¼½": 103502,
  "ä½łåĸľæ¬¢": 113540,
  "åįģæĿ¡": 113971,
  "urrect": 58000,
  "ä¸»ä¹īèĢħ": 117869,
  "Ġconcerns": 10520,
  "vf": 45241,
  "[end": 57208,
  "åħ¨æµģç¨ĭ": 117235,
  "Jar": 71735,
  "pii": 93921,
  "ĠMey": 83862,
  ".len": 19406,
  "ĠGranny": 88140,
  "Ġagricultural": 28049,
  "ON": 711,
  ".childNodes": 50038,
  "HAS": 78230,
  "lab": 14380,
  "nants": 62263,
  "ĠRanger": 48322,
  "å¤ªéĺ³èĥ½": 106751,
  "_xx": 95968,
  "ĠCardinal": 45914,
  "è¿ĺåĮħæĭ¬": 114735,
  "RESOURCE": 54260,
  "ç¬¬äºĮèĬĤ": 117430,
  "ĠEVE": 86635,
  "_lengths": 54416,
  "åµ©": 116627,
  "æ³¨éĶĢ": 111407,
  "Ġfeasible": 42203,
  "idot": 93269,
  "æĬ¥éĶĢ": 111238,
  "Ġrealized": 15043,
  "ä¸Ģè¾ĪåŃĲ": 106808,
  "åªĴä»ĭ": 111499,
  "Ġfab": 9570,
  "eparator": 91640,
  "Ġcongreg": 76315,
  "optgroup": 96330,
  "magnitude": 96264,
  "Ġwalks": 22479,
  "ĠImported": 72266,
  "Ġmanners": 69470,
  "ĠBobby": 37381,
  "å®¹æĺĵ": 100047,
  "\\Db": 72194,
  "ĠRI": 47497,
  "ĠEnhanced": 61449,
  "ç¤º": 19793,
  "ĠDAMAGE": 28204,
  "trie": 8927,
  "è§Ħæł¼": 106453,
  "(Collider": 50803,
  "Ġzespo": 137585,
  "éĻĲé¢Ŀ": 116363,
  "emente": 38861,
  "äººç±»": 103971,
  "Ġverdienen": 91440,
  "finance": 62675,
  "åĲĳ": 69041,
  "ativas": 51541,
  "terdam": 50129,
  "Ġjylland": 90978,
  "ĠCOLLECTION": 94076,
  ")obj": 64501,
  "éĩİ": 99924,
  ".stringify": 10052,
  "wealth": 30533,
  "borg": 24210,
  "åı²": 99497,
  "_alloc": 14802,
  "void": 1004,
  "Ġgenomes": 84281,
  "lista": 32660,
  "Ġlizard": 94811,
  "JO": 26145,
  "omega": 32696,
  "_UT": 87526,
  "Ġ'*.": 72718,
  "Ġstorage": 5819,
  "adapt": 88071,
  "[label": 67617,
  ".shiro": 74362,
  "Ġlands": 11835,
  "ĠStringUtil": 69280,
  "TY": 22098,
  "Ġcervical": 66727,
  ".HttpServletResponse": 39248,
  "Ġjihadist": 96044,
  ".weather": 45627,
  "èŀ¬": 121881,
  "æīĢèĩ´": 110562,
  "stop": 9495,
  "Ġconcise": 63594,
  "Ġdashed": 66722,
  "-hook": 33860,
  "Ġuw": 37343,
  "_Frame": 68403,
  ".setDefault": 76830,
  "Ġocean": 17951,
  "ustin": 44235,
  "å·¥ä½ľå®¤": 107019,
  "bable": 59051,
  "æ±ĩæĬ¥": 105032,
  "Ġchanged": 5497,
  "æ»ª": 121314,
  "Ġdirection": 5106,
  ".selection": 31542,
  "Ġantivirus": 79549,
  "ĠWallpaper": 70796,
  "Ġroadside": 79643,
  "-angle": 34381,
  "Ġclin": 9218,
  "ĠAccom": 52964,
  "Atl": 46250,
  "[i": 989,
  "Scheduler": 38878,
  "ä½łè¿ĺ": 108340,
  "æ¾¹": 121834,
  "ĠparamInt": 40750,
  "Ġmars": 47349,
  "ç»Ĩèĩ´": 107193,
  "éĢ¸": 104815,
  "Ġunanim": 39975,
  "Ġcollaborative": 39706,
  "éĥ´å·ŀ": 118608,
  "è¸ª": 100937,
  "è¡Ģç³ĸ": 110162,
  "æķĻç»ĥ": 102562,
  "annies": 93242,
  "æµĵ": 100113,
  "occupation": 58262,
  "Ġelders": 60676,
  "Ġdoesn": 3171,
  "éĸ£": 119180,
  "replaceAll": 55860,
  "Ġefficiently": 29720,
  "ĠSEAL": 87579,
  "<w": 15889,
  ".ViewModels": 38518,
  "ĠATH": 87089,
  "-await": 79738,
  "ĠGD": 39627,
  "Ġogr": 95261,
  "_ret": 21695,
  "åĢŁéĮ¢": 112291,
  "xs": 18561,
  "çŃĶæ¡Ī": 102349,
  "fstream": 30516,
  "Ġencuentra": 56168,
  "ĠAUD": 57580,
  "ĠVenus": 48976,
  "Ġava": 83664,
  "ĠFerguson": 37376,
  "cold": 87072,
  ".average": 61509,
  "vari": 29165,
  "bservable": 8293,
  "ĠforCellReuseIdentifier": 93856,
  "Ġpossibile": 79946,
  "ĠPrague": 67289,
  "/ayushman": 86923,
  "åŁĺ": 120295,
  "ĠEmail": 8299,
  "ĠLATIN": 92244,
  "_command": 10811,
  "Ġbladder": 61464,
  "ĠUs": 3985,
  "éŀĶ": 123514,
  "éª§": 122078,
  "Ġineligible": 95816,
  "Ġbp": 26685,
  "Crystal": 80938,
  "Ġduck": 35985,
  "Ġproudly": 44809,
  "Ġfier": 30518,
  "æµ·åºķ": 112002,
  "å¿ĥæĢĿ": 107195,
  "Ġagainst": 2348,
  "Jay": 63655,
  "ĠChris": 11266,
  "Ġaddress": 2621,
  "åĪĨç®¡": 110035,
  "abilit": 45400,
  "Ġkicking": 39194,
  "paths": 21623,
  "cate": 42772,
  "ĠNeck": 42955,
  "hay": 67312,
  "Ġsund": 50582,
  "uxt": 76400,
  "<Form": 77600,
  "åĶµ": 120649,
  "AUDIO": 95666,
  "Approx": 69520,
  "Ġjest": 13296,
  "Nit": 97447,
  "æĺ¯åĲ¦": 64471,
  "RouterModule": 44034,
  "ĠLanguage": 11434,
  "Ġaforementioned": 45652,
  "åįģå¤ļå¹´": 110894,
  "Mad": 37036,
  "Ġstrongest": 29905,
  "ç¬¬": 29437,
  "LOS": 37558,
  "Ġkidney": 37942,
  "åı¸": 64643,
  "xEB": 85211,
  "åīĲ": 120124,
  "Ġwastewater": 76581,
  "ront": 9411,
  "_disconnect": 67972,
  "å¥ĭ": 99870,
  "ä¿ĿèįĲ": 115759,
  "åįģå¹´": 100499,
  "_YES": 76730,
  "NSDictionary": 24711,
  "nP": 86749,
  "æľ¬é¢Ĩ": 111305,
  "ĠLands": 37423,
  "ĠMaximum": 26599,
  "è¯ļ": 100269,
  "Ġrenegot": 98677,
  "Ġoptim": 7553,
  "Ġathletes": 22742,
  "-water": 53951,
  "ĠOuter": 55197,
  "since": 11284,
  "Ġinter": 946,
  "Fil": 50140,
  "=%.": 89670,
  "ĠQDir": 83842,
  "Ġminiature": 56763,
  "çļĦå¸¦é¢Ĩä¸ĭ": 114026,
  "Ġstroke": 12654,
  "è¾ĥä½İ": 106551,
  "è¿ªå£«": 112756,
  "urtle": 21744,
  ".Output": 34246,
  "=value": 46538,
  "_quit": 72424,
  "æ¡¦": 119014,
  "ĠEVER": 73666,
  "èī³": 101428,
  "ĠBones": 71299,
  "Ġcough": 39600,
  "ĠSnapdragon": 82055,
  "_Tag": 78040,
  "minent": 46407,
  "ĠLEDs": 55572,
  "Ġsisters": 29293,
  "Experimental": 81330,
  "Ġ\"${": 10857,
  ".registry": 55568,
  "Ġdevastating": 32218,
  ".height": 5727,
  "æķĳæĬ¤è½¦": 117984,
  "å£°æĺİ": 82641,
  "ĠTrim": 44376,
  "Ġweapon": 10288,
  "trasound": 53765,
  "otechn": 44760,
  "=status": 55118,
  "_fifo": 56590,
  "rades": 59535,
  "åĳĪçı¾": 118341,
  "ĠPhilly": 65154,
  "blick": 83820,
  "environment": 23294,
  "licher": 50095,
  "Ġbureaucr": 36970,
  ").\"": 40318,
  "Ġyoutube": 27178,
  "ĠEduardo": 76554,
  "Ġly": 14528,
  "äº¤éĶĻ": 117526,
  "DED": 11490,
  "Ġwg": 63581,
  "ĠCongratulations": 70541,
  "such": 20805,
  "[word": 49736,
  "catch": 7173,
  "doctor": 36983,
  "ĠSuddenly": 57701,
  "ennen": 40193,
  "Ġintermediary": 94070,
  "Ring": 43466,
  "Ġinfinit": 81126,
  "regon": 17103,
  "/arch": 59973,
  "çĽ®çļĦæĺ¯": 108765,
  "Ġfunctions": 5746,
  ".middle": 80264,
  "/frame": 67991,
  "ĠAccuracy": 50175,
  "ayette": 48289,
  "èĩªä¸»": 100842,
  "Donald": 18234,
  "ä»Ģä¹Īåı«": 115794,
  ".ca": 24138,
  "ĠShelter": 74821,
  "Ġfit": 4946,
  "%(": 20320,
  "ĠTucson": 66852,
  "å¯¿åĳ½": 103136,
  "å£¤": 102685,
  "ç²¾ç¡®": 108639,
  "æ°´åĪĨ": 107021,
  "Ġimagery": 40445,
  "ategorical": 46047,
  "PCS": 72654,
  "ã¥Ħ": 122891,
  "Ġpract": 3771,
  "æĺ¯ä¸Ģé¡¹": 113360,
  "åŃĲåŃĻ": 114354,
  "_COD": 81505,
  "ĠXO": 98080,
  "Ġlinea": 53856,
  "_prov": 89648,
  "ĠCrisis": 45150,
  "icter": 79639,
  "repo": 23476,
  "èĶĵ": 103361,
  "èĳ°": 122964,
  "(-": 4080,
  "Ġcerr": 26878,
  "Ġfaucet": 71453,
  "çĭĢæ³ģ": 111163,
  "Ġ=\"": 17244,
  "èĨ¦": 121797,
  ".SelectedIndex": 24642,
  "è¿Ħä»Ĭä¸ºæŃ¢": 118626,
  "manufact": 97450,
  "ä¹Łä¸įæĺ¯": 104993,
  "ĠWholesale": 55416,
  "EATURE": 21361,
  "ĠRet": 10392,
  "DockControl": 69615,
  "è®¡": 37643,
  "soap": 35012,
  "åİķ": 102967,
  "authorization": 39554,
  "Ġdepth": 7990,
  "ĠMarvel": 22105,
  "ĠHolds": 65984,
  "Ġpuff": 62072,
  "Ġèİ·åıĸ": 40671,
  "ĠGemini": 85711,
  "_quad": 68631,
  "Ġflyers": 85008,
  "Skin": 37186,
  "è®¾ç«ĭ": 102116,
  "çĽ´è¨Ģ": 113389,
  "_exit": 16880,
  "Ġgoede": 98560,
  "-old": 6284,
  "Ġembodiment": 48397,
  "Ġkvm": 94748,
  "lake": 62110,
  "ssl": 24635,
  "_Enter": 91105,
  "manual": 19730,
  "Ġwebpack": 31179,
  "Ġdetained": 36893,
  "Ġcaptions": 77788,
  "ĠINCIDENT": 28167,
  "ĠHV": 48217,
  "Ġwinters": 84982,
  "æ¨ª": 101209,
  "Ġpiv": 41330,
  "éĵ¾": 63314,
  "æĽ´åĬł": 101896,
  "bindung": 90226,
  "Ġessence": 27491,
  "Ġdisparate": 84029,
  "ĠisNew": 87478,
  "æ±¨": 119752,
  "_y": 4178,
  "ĠmappedBy": 95074,
  "Ġtelecom": 59405,
  "_cu": 92045,
  "åĶ¤éĨĴ": 115151,
  "Ġhalfway": 41336,
  "antas": 76814,
  "ĠCarter": 24563,
  "oss": 3662,
  "å¦Ĥä¸ĭ": 104506,
  "Ġsalope": 18393,
  "_community": 97508,
  "æĪĳä»¬ä¸Ģèµ·": 111609,
  "è¿ĲèĲ¥åķĨ": 107199,
  "ç»Ŀå¯¹æĺ¯": 108159,
  ".argsort": 94973,
  "ĠpinMode": 90552,
  "ottenham": 49703,
  "Ġprofessionalism": 65329,
  "éªĲ": 120828,
  "ĠMiz": 71595,
  "ĠHib": 91736,
  "ĠWITHOUT": 6007,
  "udes": 28146,
  "/go": 25525,
  "ĠInitializes": 31882,
  "äºĪä»¥": 104744,
  "ĠWELL": 90152,
  "anoi": 72703,
  "ĠTrom": 93367,
  "ĠCCC": 91474,
  "Ġpossession": 18721,
  "åĽ¾ä¹¦é¦Ĩ": 106036,
  "çŀ°": 121751,
  "amily": 5174,
  "_Word": 96544,
  "Ġnichts": 59765,
  "isspace": 81770,
  "è¾ĸåĮºåĨħ": 113910,
  "åħ³éĹ¨": 115493,
  "Ġpoz": 40721,
  "_WINDOW": 24780,
  "ĠCommand": 7348,
  "ĠCristina": 99114,
  ".New": 7121,
  "Ġyogurt": 54475,
  "Ġlandmarks": 59924,
  ".cs": 18775,
  "åĨĻåŃĹ": 103526,
  "å¡ŀå°Ķ": 113595,
  "idents": 6880,
  "BootTest": 45054,
  ":path": 71796,
  "å¾ĴæŃ¥": 113982,
  "ĠfullName": 48008,
  "ĠTokenType": 56582,
  "Ġproceso": 49009,
  "[iVar": 96993,
  "Ġmilano": 41774,
  "(GET": 62918,
  "åıĸå¾Ĺ": 101094,
  "ĠNorway": 31503,
  "èĽ¾": 119241,
  "Ġaspiring": 59113,
  "åĮºåĿĹéĵ¾": 105228,
  "Ġincid": 61860,
  "-plane": 89549,
  "éĿ³": 117314,
  "ishops": 50109,
  "Ġratt": 56545,
  "æļĳæľŁ": 111970,
  "ĠPok": 22364,
  "ĠWorkout": 69142,
  "[j": 3809,
  "indered": 82203,
  "Ġdeze": 34223,
  "Ġmildly": 75849,
  "oday": 6289,
  "ĠPresent": 26642,
  "ĠVIA": 98427,
  ".XtraReports": 36516,
  "é¢Ĩå¯¼èĢħ": 114176,
  "ĠPartner": 31313,
  "agnost": 8208,
  "Ġgrads": 69481,
  "Ġsidl": 85791,
  "ĠmaxHeight": 58109,
  "æľīéĹľ": 111024,
  "Ġgasoline": 45495,
  "Restore": 56284,
  ".next": 4529,
  "\\Repositories": 57283,
  "abort": 46699,
  ".Runtime": 16706,
  "åĦ¡": 121909,
  "æĹłçº¿çĶµ": 117960,
  "usal": 35414,
  "Ġespacio": 65484,
  "Ġbiological": 23275,
  ".espresso": 97142,
  "attles": 90127,
  "æ·±åĬłå·¥": 113388,
  "Jvm": 70693,
  "Ġraj": 91428,
  "agram": 5745,
  "ä¾ĽçĶµ": 102957,
  "æĸĩçī©": 102609,
  "ĠRad": 20605,
  "ĠUnits": 35181,
  "Ġsaddle": 60758,
  "ĠCompetitive": 78050,
  "Opt": 21367,
  "åħ¥é©»": 106440,
  "Schema": 8632,
  "polate": 45429,
  "Ġnghi": 125021,
  "Person": 10680,
  "çĻĤ": 101836,
  "acus": 95305,
  "ç©·": 100572,
  "daily": 48074,
  "ĠNotifications": 52938,
  "ĠLegacy": 37887,
  "-ball": 67202,
  "nemonic": 70775,
  "Ġmonopol": 74153,
  "çĿĳ": 119214,
  "Fat": 68457,
  "ĠRib": 63105,
  "TableModel": 44112,
  "ĠpaddingTop": 48534,
  "pection": 16076,
  "SpaceItem": 81648,
  "Ġgab": 55879,
  ".seconds": 56343,
  "GetWidth": 95774,
  "Ġneutron": 72304,
  "å©«": 122918,
  "Ġethnicity": 56878,
  "edicine": 90901,
  "Ġelevate": 68630,
  "æ®µ": 37474,
  "expand": 32317,
  "ards": 2347,
  "EZ": 97278,
  "<pcl": 82891,
  "Stories": 92431,
  ".ForeColor": 16279,
  "Ġintox": 84017,
  "äĥħ": 123170,
  "ĠNetanyahu": 44642,
  "sit": 46865,
  "Prime": 32306,
  "ç«ĭæĸ¹": 103540,
  "acious": 19430,
  "Hide": 21692,
  "ville": 7919,
  ".goBack": 86754,
  "Ġimpl": 11605,
  "éķ¤": 123617,
  "Ġexcuse": 27291,
  "ĠArtists": 52104,
  "Ġtelegram": 67544,
  "Ġdistributes": 95735,
  "/cpp": 88201,
  "antis": 37866,
  "Ġtok": 9628,
  "()`": 54258,
  "-B": 7671,
  "olang": 37287,
  "_bel": 96761,
  "_cursor": 28601,
  "èĭ¦èĭ¦": 117969,
  "è¶ĬæĿ¥è¶Ĭå°ĳ": 117249,
  "é¢ĭ": 123040,
  "_ASSOC": 31593,
  "assuming": 65363,
  "Ġreclaimed": 88659,
  "çĶ¨æĪ·ä½ĵéªĮ": 112458,
  "ĠConstant": 19305,
  "ĠTer": 10127,
  "Joined": 41373,
  ".Gr": 61778,
  "ĠBuccane": 85770,
  "ned": 18694,
  "éĻªåĲĮ": 108143,
  "soup": 89542,
  "Ġpesos": 84147,
  "Ġactividades": 72979,
  "{n": 91362,
  "Captain": 61058,
  "Ġhometown": 43016,
  "_BRANCH": 71746,
  "ellant": 77141,
  "Always": 37095,
  ".Framework": 21056,
  "ĠAllen": 20060,
  "wm": 19557,
  "Ġslowed": 47846,
  "(Book": 80436,
  "æīĢè¿°": 113110,
  "aub": 43506,
  "Ġconcession": 68473,
  "Staff": 33211,
  "Ġfoto": 25575,
  "éĹºèľľ": 113006,
  ".dex": 78033,
  "threshold": 28902,
  "ä¸Ģåı°": 106621,
  "$h": 84963,
  "å£°": 70074,
  ">You": 54521,
  "_RD": 28694,
  "éĢĥç¦»": 114150,
  "æĸ½å·¥çİ°åľº": 115521,
  "ĠPHI": 84835,
  "decrypt": 73295,
  "ĠPediatric": 94836,
  "Ġmoi": 39991,
  ".rgb": 59189,
  "-production": 69566,
  "subject": 11501,
  "_featured": 79420,
  "æĻ¢": 122756,
  "olation": 34962,
  "ĠAmeric": 2288,
  "ĠMORE": 18447,
  "æĪĺäºī": 104304,
  ".map": 4770,
  ".resolve": 14691,
  "è¡·": 101806,
  "asts": 11757,
  "ĠLord": 10214,
  "åĨĻäºĨ": 108729,
  "SECTION": 58778,
  "æ¾ª": 123582,
  "&(": 52629,
  "Ġhttps": 3703,
  "sea": 36441,
  "=s": 14149,
  "iefs": 29821,
  "æ´ĵ": 122518,
  ".DecimalField": 86397,
  "_chars": 37418,
  "XmlAttribute": 82366,
  "/mobile": 69925,
  "=json": 37507,
  "Ġunconstitutional": 52825,
  "Ġcharacterize": 69655,
  "Ġencountered": 23057,
  "mgr": 48292,
  "Ġning": 45507,
  "************************************************************************": 5596,
  "ĠBureau": 21802,
  "ĠEther": 34878,
  ".sum": 13183,
  "_HIDDEN": 80921,
  "æ²Ľ": 103725,
  "ä»»": 48888,
  "_xy": 40920,
  "scriber": 20351,
  "ĠVisible": 70296,
  "ĠLW": 55741,
  "çĻ½äºĳ": 107965,
  "ç¿Ľ": 123049,
  "æ¡Ĥ": 100877,
  "ĠTimber": 44148,
  "çľŁæĥħ": 112274,
  "Ġunilateral": 85878,
  "Ġnto": 61818,
  "Ġnip": 98470,
  "Ġlead": 2990,
  "Ġbleibt": 93985,
  ".ibatis": 50897,
  "conomy": 70071,
  "Ġweld": 32766,
  ".instructions": 80599,
  "Ġtraceback": 46058,
  "ĠMENU": 35697,
  "Separator": 16409,
  "ĠContin": 20297,
  "ĠSpielberg": 93616,
  "Ġafect": 67264,
  "ILER": 45768,
  "Ġspl": 12503,
  "éģ©åĲĪ": 113452,
  "åĤī": 123048,
  "çĮ«": 100472,
  "ĠJoyce": 53626,
  "Ġanunci": 90833,
  "_is": 6892,
  "Ġlets": 15354,
  "ĠBRA": 73763,
  "è·¨": 99960,
  "Ġnullable": 13258,
  "<context": 34528,
  "æĦŁè§īåĪ°": 105849,
  "åĦª": 103244,
  "_sl": 11886,
  "èºľ": 122109,
  ".startActivity": 57331,
  "ĠNeuro": 31259,
  ".cards": 44718,
  "è½¦åŀĭ": 102236,
  "ĠDOMAIN": 84586,
  "Ġimpoverished": 87298,
  "(mapping": 81057,
  "Ġcombinations": 27459,
  "ĠHornets": 95327,
  "Qty": 40664,
  "è¯¦ç»ĨçļĦ": 109648,
  "pair": 12670,
  "Ġttl": 53932,
  "èļº": 122812,
  "](": 9533,
  "Ġcomposer": 39450,
  "ç¯¾": 121904,
  "åºĶæ³¨æĦı": 115979,
  "Ġutterly": 37531,
  "Rendering": 36056,
  "Qu": 2183,
  "åŁı": 122404,
  ".csv": 11219,
  "çĿ¡çľł": 105552,
  "\\Redirect": 91947,
  "ä¸»åľº": 107760,
  "Exceptions": 65580,
  ":*": 53386,
  "Ġinmates": 41612,
  "éĬĢè¡Į": 106999,
  "_res": 4918,
  "Ġflashy": 95467,
  "ĠCached": 74205,
  "Ġsuitability": 80628,
  "aaa": 32646,
  "Ġpygame": 14699,
  "ĠXCTestCase": 62810,
  "Ġextravagant": 94850,
  "ĠMaharashtra": 67419,
  "æľ¬åľºæ¯ĶèµĽ": 118729,
  "çļĦå¼ºå¤§": 110087,
  "Ġstoring": 27572,
  "getColumn": 53909,
  "åīĬå¼±": 113277,
  "Declare": 78455,
  "odef": 97577,
  "Ġhoused": 51158,
  "enden": 19875,
  "dition": 2345,
  "Ġargent": 88144,
  "ĠSeeing": 55024,
  "eggies": 55560,
  "Ġhemorrh": 70317,
  "ĠDialogInterface": 46308,
  "ĠUILabel": 16238,
  "Ġpresumed": 61257,
  "makt": 126389,
  "ĠSingleChildScrollView": 88554,
  "éĴ±": 99428,
  "/crypto": 84229,
  "æľīå¤ļ": 101534,
  "åħ³æ³¨åº¦": 116590,
  "ä¼¤": 99616,
  "Ġinc": 3625,
  "æĺ¥å¤ı": 117358,
  "Ġnause": 48294,
  "Ġley": 60415,
  "ç¨³å¦¥": 115896,
  "çªģ": 99624,
  "åĩºåĽ½çķĻåŃ¦": 117307,
  "samples": 41118,
  "amed": 3606,
  ".Companion": 94483,
  "Structure": 22952,
  "veal": 40611,
  "-thumb": 66196,
  "Ġunwrap": 79813,
  "(Api": 65830,
  "ĠMaking": 24288,
  "-css": 47859,
  "ĠCarr": 29374,
  "Ġ'./../": 55100,
  "ä¸Ńç¾İ": 107545,
  "Ġpage": 2150,
  "vit": 54811,
  "subs": 64798,
  "åĵªç§į": 113195,
  ".cmd": 25724,
  "ä¸»è¦ģä»İäºĭ": 115607,
  "Ġstrs": 57584,
  "cdr": 64170,
  "-oper": 58555,
  "é³į": 119521,
  ".PARAM": 75571,
  "NegativeButton": 75068,
  "ĠADDR": 80514,
  "-house": 35902,
  "Ġnewborn": 45297,
  "ificados": 90762,
  "æĤ²": 100302,
  "é¡ºçĿĢ": 111964,
  "Ġadmissions": 47811,
  "Were": 88453,
  "Ġshortcuts": 54920,
  "ĠProcessor": 43377,
  "Sell": 68533,
  "UP": 3124,
  "ĠScandin": 59180,
  "room": 2966,
  "leveland": 21478,
  "æķ°æį®ä¸Ńå¿ĥ": 109627,
  "èĶ·": 121365,
  "æĢ»ç»ıçĲĨ": 104266,
  "lider": 19118,
  "[element": 80102,
  "(action": 15306,
  "Ġ<--": 70386,
  "Ġdetermin": 6315,
  "Ġincess": 91847,
  "éĻį": 99457,
  "ĠSelection": 24145,
  "atie": 25852,
  "çķĶ": 114833,
  "namese": 43419,
  "æĺ¾ç¤º": 54021,
  "Ġted": 41223,
  ".Design": 51872,
  "<Test": 71273,
  "ĠPTS": 96261,
  "erd": 14348,
  ".hand": 34338,
  "çħ§é¡¾": 104987,
  "=edge": 35940,
  "spiracy": 69723,
  "Ġprevent": 5358,
  "ryption": 15597,
  ".GridView": 74656,
  "Ġbedding": 60153,
  "forums": 54059,
  ".Scan": 54874,
  "ĠIPPROTO": 86938,
  "-Nov": 70488,
  "_slave": 65320,
  "Ġregulators": 39142,
  "-*": 44903,
  "Ġbet": 1274,
  "ĠSuppose": 82610,
  ":eq": 62671,
  "ĠPlatforms": 95109,
  "ĠBey": 53892,
  "ĠTypical": 72925,
  "çĬ¶": 99762,
  "Ġkarma": 70442,
  "Ġdern": 35752,
  "ĠCaj": 95779,
  "-click": 28118,
  "*>(": 15157,
  "é»ĩ": 123515,
  "CEEDED": 47863,
  "ä¸ĢçĤ¹": 100380,
  "ĠDing": 79373,
  "frau": 96115,
  "Ġabducted": 83445,
  "qi": 40187,
  "Ġadditional": 5107,
  "ulled": 91022,
  ".startDate": 62257,
  "éĿłè¿ĳ": 106963,
  "ĠBSP": 60417,
  "-ton": 74635,
  "[source": 75647,
  "isis": 9479,
  "ĠTango": 98348,
  "Acts": 92224,
  "resize": 17347,
  "åħ¶æ¬¡": 102460,
  "Ġsummarizes": 93494,
  "Ġrgb": 17993,
  "Ġnine": 11627,
  "Ġnaming": 34948,
  "Ġforcefully": 85978,
  "inned": 20561,
  "Ġvamos": 69670,
  "ĠYuan": 68884,
  "Ġsummons": 74300,
  ".Parser": 58430,
  "Ġorth": 29199,
  "Ġinjunction": 60429,
  "_bot": 38883,
  "Ġsoup": 19174,
  "æŁ´æ²¹": 109124,
  "éħ¯": 112167,
  ".nextToken": 51531,
  "åĲŀ": 102840,
  "ransition": 84954,
  "ot": 354,
  "ĠJudge": 20207,
  "Ġmaxlen": 75448,
  "ĠIntro": 51986,
  "wechat": 78495,
  "ival": 3936,
  "-del": 47126,
  "Couldn": 38987,
  "ï¦´": 149468,
  "çº·çº·è¡¨ç¤º": 116495,
  "Ġstatist": 20115,
  "Ġstk": 55003,
  "çĤī": 101399,
  "constant": 18077,
  "è¦ģè¯´": 109399,
  "åľ¨ä»Ĭå¹´": 107360,
  "èĩºçģ£": 117306,
  "ĠSch": 5016,
  "ĠAMC": 74309,
  "ĠSubscribe": 27270,
  "CTest": 76434,
  "setSize": 96907,
  "åħ´æĹº": 116700,
  "Ġke": 1962,
  "vetica": 31212,
  ".bunifuFlatButton": 95234,
  "ĠBDSM": 84750,
  "åįĶåĬ©": 111172,
  "urred": 8130,
  "æºĥçĸ¡": 114222,
  "ĠExtras": 87917,
  "Ġmid": 5099,
  ".cuda": 37704,
  "Company": 14491,
  "-wide": 24472,
  "ningen": 72108,
  ".dgv": 43048,
  "Maps": 36562,
  "æ¶¨ä»·": 110584,
  "ĠLiz": 47199,
  "insn": 85817,
  "Ġexcessive": 26541,
  "ç¦ıçī¹": 111271,
  "_COPY": 35556,
  "omba": 76930,
  "-register": 63018,
  "ĠAuthService": 38598,
  "å±±è¥¿çľģ": 110072,
  "Ġgratuita": 95775,
  "?page": 42698,
  "cors": 53972,
  "Ġfoil": 46399,
  "Ġproducto": 34774,
  "_CHAIN": 70232,
  "Ġwinner": 13632,
  "=require": 62833,
  "èĤĩ": 101858,
  "Ġinev": 20659,
  "Ġfatigue": 35609,
  "Ġbride": 41347,
  "-close": 34462,
  "Ġtiempo": 28742,
  "Ġrainfall": 52858,
  "'],['": 84000,
  "éģĤ": 105858,
  "ĠTASK": 42979,
  "Ġexpressing": 36710,
  "Ġtienen": 46439,
  "_aug": 60411,
  "èĸ¹": 121856,
  "Ġutilise": 68052,
  ".lists": 94944,
  "ĠShoes": 38629,
  ".assertj": 85353,
  "Ġstares": 94402,
  "è®©äºº": 103973,
  "<nav": 54067,
  "Ġspecular": 85417,
  "_buttons": 41021,
  "Pres": 14367,
  "Ġincreasing": 7703,
  "ishop": 20158,
  "Ġpalette": 26308,
  "å¥ĸ": 99500,
  "ĠObama": 7105,
  "ĠCancel": 23542,
  "Ġjewellery": 62391,
  "ĠTiger": 35745,
  "Ġspacecraft": 41540,
  "Ġmediocre": 67380,
  ":relative": 84566,
  "å®īåħ¨": 99464,
  "èĢ±": 122094,
  "supports": 77709,
  ".tight": 75229,
  "ç¿Ĵ": 101619,
  "ĠkW": 77477,
  "ĠCWE": 50860,
  "æľīæķĪçļĦ": 104775,
  "ĠTottenham": 55548,
  "ĠGrinding": 38612,
  "èĨ¨": 103475,
  "TestCase": 16458,
  "æ´ĩ": 120224,
  "éī´": 100564,
  "Ġcb": 9858,
  "SSID": 75100,
  "aec": 71221,
  "Ġsuppression": 45635,
  "SR": 14557,
  "ĠTurnbull": 67846,
  "èľį": 121201,
  "Ġfilters": 13406,
  "Ġencoder": 23668,
  "Ġsympathy": 45984,
  "Ġcommas": 76602,
  "Ġnurs": 16996,
  "nym": 48121,
  "èĽĭ": 100464,
  "å±¬æĸ¼": 114573,
  "ç§ģ": 85027,
  "å¹³åĿĩæ¯ı": 116393,
  ">_": 67911,
  "/sec": 60071,
  "Ġnearest": 23480,
  "essment": 23391,
  "ĠValor": 61728,
  "éĨĮ": 121579,
  ":convert": 95615,
  "Ġdrinking": 16163,
  "åĹ¨": 112488,
  "ä¸įåľ¨ä¹İ": 114325,
  "ĠDumpster": 43264,
  "ĠInfer": 62658,
  "jur": 86877,
  ",sum": 68436,
  "åĪ¶ä½ľ": 103963,
  "lets": 9942,
  "Ġcl": 1185,
  "ewater": 47444,
  "å¥³ä¸»": 111938,
  "ĠAires": 64617,
  "irez": 59736,
  "ivalent": 11769,
  "YW": 98117,
  "åĨħå¤ĸ": 102938,
  "cript": 1228,
  "ç¾İæ´²": 109700,
  "Ġsums": 36398,
  "Ġajout": 88996,
  "FINE": 53877,
  "andExpect": 40793,
  "pte": 24151,
  ".DisplayName": 77574,
  "Ġ+%": 74524,
  "ĠArab": 10756,
  "ilters": 8612,
  "åı¦ä¸Ģä½į": 118217,
  "_interval": 20541,
  "Ġafar": 98278,
  "ĠDiablo": 73237,
  "ç»¿èī²éĢļéģĵ": 116359,
  "Ġdetect": 11140,
  ".slf": 20532,
  "åĵĪå°Ķ": 106426,
  "/audio": 71247,
  "/files": 33220,
  "Ġappliances": 33702,
  "/src": 13437,
  "\\P": 32705,
  "Acceler": 58182,
  "ĠWes": 36376,
  "ouchers": 52755,
  "ä¸ĩç¾İåħĥ": 106347,
  "è¡¨æĥħ": 102936,
  ".SH": 44108,
  "Ġia": 34824,
  "ĠFors": 49890,
  "Ġpolarity": 75690,
  "_GUID": 58648,
  "Ġboasted": 83212,
  "prite": 5734,
  "(ep": 52444,
  "Ġcontrovers": 13365,
  ".elements": 28277,
  "contra": 96743,
  "èŀŁ": 121766,
  "*@": 84306,
  "æľīåħ³è§Ħå®ļ": 108227,
  ":\\\"": 75035,
  "Ġnaw": 75916,
  "_players": 46721,
  "æīįå¹²": 117517,
  "äº«": 71743,
  "fake": 30570,
  "ĠOpp": 28610,
  "ĠNavigator": 26542,
  "Ġwidening": 84400,
  "åĲĮæĹ¶ä¹Ł": 104979,
  "ĠSelectList": 52902,
  ".te": 31853,
  "Ġxbmc": 82265,
  ".gl": 19787,
  "ĠMYSQL": 54197,
  "ĠWX": 77441,
  "woke": 95328,
  "Ġlob": 40153,
  "Insp": 73540,
  "-Based": 60339,
  "iena": 86651,
  "Ġfiber": 23788,
  "Ġsinc": 26241,
  "ĠFOR": 4613,
  "è¿Ħä»Ĭ": 103844,
  "inciple": 15996,
  "Ġcbo": 93677,
  "orThunk": 42844,
  "Ġpressing": 25352,
  "Ġshaft": 30368,
  "Ġtern": 71617,
  ".binding": 33169,
  "Ġcontinual": 76875,
  "-going": 64812,
  "_convert": 34910,
  "/search": 23167,
  "_ALLOWED": 73186,
  "<Transform": 84930,
  "ĠonPressed": 27002,
  "ĠRoundedRectangleBorder": 82957,
  "ãĢı": 35661,
  "Ġhyper": 17071,
  ".assertIs": 43073,
  "schlie": 138663,
  "Ġdiplom": 29521,
  "Ap": 10611,
  "collapsed": 42028,
  "ĠSit": 28408,
  "å¹²æ¶ī": 116403,
  "ĠMg": 72593,
  "éķ£": 121896,
  "éĽ¾": 102393,
  "_CLEAR": 39280,
  "ĠTypeInfo": 72452,
  ".circle": 41494,
  "æ¯Ķäºļ": 103451,
  "Ġtreffen": 51873,
  "ĠAnimals": 46866,
  "Ġglyphicon": 21997,
  "ParallelGroup": 18420,
  "_misc": 69350,
  ".widgets": 36227,
  "nm": 19638,
  "é¼¢": 121908,
  "ING": 1718,
  "Ġnotifies": 96589,
  "/mol": 38871,
  "ĠBing": 53487,
  "çĤº": 99731,
  "åĶ¿": 120668,
  "Here": 8420,
  "æĮĸ": 101413,
  "_storage": 23310,
  "Ġ]": 2279,
  "é½¿": 101577,
  "Telefono": 69559,
  "Ġclassifiers": 71291,
  "anges": 5520,
  "ĠCincinnati": 35139,
  "åī¯ä¹¦è®°": 103028,
  "Violation": 74971,
  "ĠKH": 80355,
  "_.": 4950,
  "æľĢå¥½æĺ¯": 113939,
  "braco": 96967,
  "_DATA": 7896,
  "(--": 39002,
  "Ġtranscend": 73709,
  "æıĲäº¤": 71971,
  "IL": 1715,
  "åĲ¬åĲ¬": 114238,
  "Ġsmiling": 36063,
  "Ġ'*'": 30701,
  "_CT": 72547,
  "ĠReviews": 19276,
  "å¥ķ": 108645,
  "Ġhttp": 1758,
  ">Description": 69171,
  "ĠFL": 12772,
  "perform": 28488,
  ".rec": 11199,
  "å¨£": 120536,
  "ĠSummon": 53906,
  "artic": 80887,
  "Ġconosc": 83069,
  "-US": 32340,
  "ANGLE": 37571,
  "{\"": 4913,
  "åİ¿": 24342,
  "åĿĩ": 99472,
  "Ġownership": 15278,
  "ĠCache": 19479,
  "Ġzoo": 40914,
  "meth": 68891,
  "teenth": 45387,
  "ĠgetValue": 31720,
  "akeup": 62744,
  "Ġsuspend": 26247,
  "_phi": 42009,
  ".finished": 82420,
  "\\'": 10169,
  "/Desktop": 48499,
  "å¾ģæ±Ĥ": 103382,
  "Ġinitials": 78437,
  "åĬ³ç´¯": 118945,
  "-[": 40995,
  "æľŁéĻĲ": 105362,
  "Deque": 73891,
  "Ġproprio": 65910,
  "ecera": 90227,
  "çĭĿ": 122345,
  "-between": 25959,
  "æ©«": 118571,
  "ĠtileSize": 93775,
  "Ġcrews": 42060,
  "ĠHerz": 52639,
  "(Context": 14001,
  "Scroll": 8425,
  "Ġpersecuted": 92598,
  "(resolve": 43234,
  "exampleInputEmail": 82001,
  "Ġdefine": 6979,
  ".panelControl": 82849,
  "Ġasteroid": 54379,
  "éıĪ": 119036,
  "_od": 51797,
  ".TimeUnit": 55881,
  "ViewControllerAnimated": 57840,
  "å³¤": 120140,
  "ĠMoms": 83295,
  "ag": 351,
  "Ġcyclic": 76002,
  "Ġpuedes": 58945,
  "ĠBerry": 43585,
  "ĠForCanBeConvertedToForeach": 79271,
  "è¿Ļä¸¤ä¸ª": 105932,
  "ĠEssentially": 70754,
  "Iterable": 50635,
  "ĠåĪĽå»º": 47758,
  "**,": 97219,
  "ĠMitgli": 77094,
  "ĠWEEK": 57429,
  "Ġflock": 48716,
  "(d": 1500,
  "LOCK": 8044,
  "èįĸ": 122416,
  "Ġisn": 4436,
  "_OVER": 32043,
  "æ¦ĥ": 123156,
  "slow": 35211,
  "è½¶": 120091,
  "destruct": 60268,
  "__);": 87569,
  "orted": 13595,
  "ĠGod": 4264,
  "ĠSpieler": 81574,
  "ĠMiranda": 58314,
  "_Price": 93234,
  "isce": 89268,
  "Ġuniqu": 28021,
  "ĠSETTINGS": 73991,
  "Ġirrational": 60654,
  "ĠSamoa": 87020,
  "BEGIN": 37588,
  "ĠPad": 25299,
  "Ġbothered": 45276,
  "isu": 62748,
  "Ġcorrelated": 48293,
  "_UNSUPPORTED": 89140,
  "åºļ": 110954,
  "(rank": 70876,
  "Ġunlaw": 38857,
  "èŁ¾": 122027,
  "æ¼·": 123259,
  "(reference": 66731,
  "Ear": 17813,
  "æĬĹæĭĴ": 116629,
  "ĠMessageBox": 10299,
  "ĠComputers": 68449,
  "ĠConan": 78812,
  "èĬĿåĬłåĵ¥": 118390,
  "_memcpy": 78038,
  "_prompt": 61421,
  "_slots": 54161,
  "trl": 9599,
  "ĠFiltering": 81531,
  "Ġenqu": 76707,
  "ç¥¾": 121070,
  "çŃ»": 123208,
  "é¾Ļå¤´ä¼ģä¸ļ": 107542,
  "beh": 29898,
  "é«Ģ": 121893,
  "åģļçĶŁæĦı": 113997,
  "Ġallotted": 91543,
  "Ġunk": 64431,
  "-(": 8013,
  "æĶ¶å®ĺ": 114344,
  "Ġadaptive": 47132,
  ".Prop": 42483,
  "ĠCube": 42592,
  "DetailsService": 72382,
  "ĠOutcome": 94609,
  "ç»ĪçĤ¹": 111557,
  "cents": 38328,
  "ĠExiting": 86262,
  "Ġde": 409,
  "ä¸įæĺ¯": 99520,
  ".tokens": 59549,
  "ĠBow": 18436,
  "/gpio": 96649,
  "aul": 4943,
  "Ġhva": 82766,
  "stime": 86094,
  "Ġexpectations": 16665,
  "thon": 4587,
  "paralle": 64761,
  "ViewModel": 12692,
  "Along": 49809,
  "dma": 44981,
  "åĪĨæĪĲ": 109245,
  "Ġparcels": 83927,
  "Ġcrusher": 7809,
  "Ġprank": 75273,
  "éĤĦæ²Ĵ": 117210,
  "ĠBLUE": 55892,
  "Ġescaping": 52654,
  "Ġtransgender": 27208,
  "ç¦Ĵ": 123272,
  ".Messages": 54445,
  "Participants": 77546,
  "/pkg": 22523,
  "-debug": 71051,
  ".AddListener": 80035,
  "ĠOLED": 70952,
  "Ġex": 505,
  "olver": 7921,
  "_install": 34245,
  "_approval": 95613,
  "Cog": 31784,
  "degrees": 69749,
  "çıĩ": 122392,
  "Ġpolarization": 82145,
  "ĠMelissa": 47048,
  "iku": 38242,
  "Ġspiritual": 17849,
  "brtc": 78536,
  "Ġmyster": 23329,
  "Ġsire": 85911,
  "Ġattributes": 8201,
  "aption": 10162,
  "ĠVector": 4196,
  ".Shared": 32969,
  "(py": 46827,
  "ĠWidow": 88020,
  "æĬ±æĢ¨": 107330,
  "landscape": 88391,
  "oundary": 72466,
  "ĠYa": 39384,
  "ĠQSql": 74988,
  "orry": 8468,
  "DOT": 32553,
  "Ġproud": 12409,
  "è®®é¢ĺ": 113994,
  "spacing": 23436,
  "ä¼°": 100079,
  "/plugins": 20797,
  ".ms": 39115,
  "_qual": 64391,
  "ĠDAYS": 82831,
  "allis": 95144,
  "åĬŀåħ¬åİħ": 109818,
  ".constants": 38227,
  ".dispatch": 19932,
  "To": 1249,
  "Ġuptime": 86689,
  ".\")": 38739,
  "å¤®è¡Į": 106216,
  "=<?=": 94640,
  ".White": 20723,
  "Ġore": 16144,
  "umn": 21371,
  "_POL": 33165,
  "Ġnie": 11316,
  "ĠEmirates": 48701,
  "éĽªèĬ±": 113561,
  "ĠFirestore": 94266,
  "åľ¨æĪĳçľĭæĿ¥": 116589,
  "Ġrestarting": 92524,
  "_b": 880,
  "ignal": 25719,
  "Ġcorrespond": 7866,
  "Ġinfant": 30283,
  "æī®æ¼Ķæ¸¸æĪı": 117104,
  "Ġae": 41856,
  "Allocation": 78316,
  "æĩĤäºĭ": 117045,
  "(\",": 12918,
  "çķĽ": 120373,
  "Detect": 57193,
  "Ġkeeping": 10282,
  "ĠCONFIG": 13202,
  ".Mockito": 45036,
  "ĠWars": 14968,
  "employer": 65201,
  "veled": 93964,
  "(N": 8204,
  "(encoding": 85863,
  "Ġalumnos": 97859,
  "Ġar": 796,
  "Ġcen": 64931,
  "Ġ*****": 41423,
  "æīįç®Ĺ": 118410,
  "ä¸įéľĢè¦ģ": 104689,
  "Texto": 94923,
  ".lst": 76740,
  "åĲĮè¡Į": 106034,
  "-final": 54862,
  "foundland": 76633,
  "Ġ>/": 61359,
  "Ġupdates": 8837,
  "ç²Ĺ": 102187,
  "Ġoccupancy": 65319,
  "éĿ¼": 121367,
  "yas": 81453,
  "ĠonCreateView": 41438,
  "çĶµåİĭ": 109353,
  "autop": 87321,
  "pired": 11724,
  "æ·¼": 119153,
  "ĠStraw": 56844,
  "race": 41183,
  "ĠIMP": 39440,
  "desktop": 36869,
  "global": 9752,
  "Ġ}}>": 45521,
  "èµĢ": 122621,
  "eni": 33129,
  "çŀ¬éĹ´": 102415,
  "Ġvolatility": 52738,
  "ĠFiesta": 93803,
  "ĠSCC": 79299,
  "Ġserge": 71201,
  "äº§åĵģ": 82700,
  ".RemoveAt": 53983,
  "ĠVeteran": 67526,
  "å°ı": 30709,
  ".SELECT": 88915,
  "ofs": 36081,
  "loquent": 20522,
  "Ġton": 8766,
  "cerr": 23960,
  "_MATERIAL": 92932,
  "dux": 12138,
  "éģ¸": 102456,
  "Miller": 88337,
  "éĤ£åĦ¿": 112358,
  "Ġappetite": 37475,
  "ĠSQUARE": 92282,
  "ĠNielsen": 63451,
  "(ByVal": 23530,
  "æĸ°åŀĭ": 102169,
  ".stream": 14958,
  "éĢĽ": 102946,
  "Corporate": 86528,
  "DidEnter": 92077,
  "party": 32957,
  "ä¸»èĲ¥ä¸ļåĬ¡": 108867,
  "arios": 10100,
  "ĠAppBundle": 69135,
  "æľīæľºç»ĵåĲĪ": 116239,
  "(ar": 37544,
  "åħ¬æĸ¤": 106301,
  "Ġcassette": 81258,
  "ĠCRA": 93667,
  "ĠGLUT": 69273,
  "_derivative": 95930,
  "åĨ³å®ļ": 103930,
  "ĠADM": 85001,
  "arks": 7193,
  "ĠSantana": 91695,
  "Ġguarda": 97385,
  "ĠRoutes": 22356,
  "Ġpropane": 90938,
  "/run": 48385,
  "Ġunwanted": 34921,
  "_detected": 98876,
  "èĢģèĻİ": 103364,
  "Ġmalls": 83368,
  "ĠIllustr": 38054,
  "ĠflexDirection": 29397,
  "ĠLeh": 62558,
  "Ġbrowsing": 31321,
  "æŃ£åĢ¼": 113859,
  "Ġdeciding": 29130,
  "SetBranchAddress": 65134,
  "(is": 9623,
  ",v": 14270,
  "Ġscrub": 44901,
  "elements": 21423,
  "ATEGY": 97221,
  "Ġfind": 1477,
  "Ġselectively": 81675,
  "å¸ķ": 105091,
  "Ġautomotive": 39408,
  "ĠRash": 59383,
  "åħ¥åĽ´": 111631,
  "Ġissu": 51966,
  "äººç¤¾å±Ģ": 118827,
  "InOut": 63265,
  "qc": 59833,
  "_sup": 23723,
  "åŃ©åŃĲä»¬": 104563,
  "/O": 17532,
  "æĦŁæ¿Ģ": 109136,
  "ĠLARGE": 76656,
  "Tem": 21988,
  "åĵ²": 102607,
  "ĠETH": 37742,
  "ĠTrans": 4058,
  "Ġphotons": 88135,
  "ãĢ¶": 149315,
  "Ġmeasurement": 18662,
  "(urls": 91182,
  "_ml": 76567,
  "éħı": 122604,
  ".sat": 93003,
  "ĠUnityEditor": 75417,
  "ĠRevenue": 37393,
  "uggle": 49328,
  "Ġfeminism": 52010,
  "_TEMPLATE": 34786,
  "ĠauthDomain": 97906,
  "Ġzx": 71322,
  "ĠLic": 32575,
  "é¦¥": 121988,
  "ĠLesson": 48915,
  "ä¸ī": 44991,
  "Ġsome": 1045,
  "SPA": 87192,
  "Coroutine": 32158,
  "=\"../": 6510,
  "ĠSoviets": 84289,
  "Ġevangel": 38053,
  "åĨĶ": 122628,
  "elijk": 32238,
  "Ġaltru": 92492,
  "_CONNECT": 33462,
  "æĻļéĹ´": 118126,
  "ĠEverest": 86478,
  "Ġmerge": 10880,
  "(route": 31436,
  ".mk": 35011,
  "_REDIRECT": 90279,
  "scale": 12445,
  "çĴ²": 123508,
  "Ġharmed": 68425,
  "tractor": 54766,
  "javascript": 14073,
  ".embed": 40441,
  "_STORAGE": 36024,
  "ows": 4241,
  "Ġdebunk": 77193,
  "UpdatedAt": 72279,
  "Ġprincip": 7394,
  ".ds": 60017,
  "Ġefficient": 11050,
  "lpVtbl": 55138,
  "çı¢": 122575,
  "Saved": 41133,
  "!:": 35575,
  "ĠApi": 13443,
  "Ġfeed": 5395,
  "Ġcontra": 31050,
  "Ġmathematic": 20976,
  "Ġchildish": 93171,
  "ä½ľæĸĩ": 104745,
  "Ġdancer": 63582,
  "ĠPAT": 44370,
  "Ġexpected": 3601,
  "Plug": 78012,
  ".merge": 25002,
  "Ġxmm": 57607,
  "ï¼īãĢĤ": 74276,
  "ĠSolutions": 22676,
  "@foreach": 70570,
  "difficulty": 71864,
  "ĠInvalidate": 95246,
  "èĹ©": 118959,
  "choice": 11746,
  "ĠBez": 96889,
  "<W": 86654,
  "Ġadjacency": 73849,
  "Ġtortured": 55934,
  "ounty": 36725,
  "quis": 9202,
  "Ġsonst": 95243,
  "(mac": 73611,
  "å¥½äºĨ": 104334,
  "ĠMilo": 84446,
  "toString": 6575,
  "Jud": 61713,
  "éļª": 101021,
  "src": 3548,
  "Ġjournalists": 22532,
  "éĿĴæĺ¥": 102247,
  "ĠUran": 79670,
  "ĠOro": 59729,
  "LinkedIn": 75203,
  "ĠUIAlertView": 84860,
  "Ġparler": 88404,
  "Ġ'|'": 84639,
  "Ġbehavior": 7709,
  "ucked": 39358,
  "ald": 4747,
  "ĠAnch": 71484,
  "igrations": 17824,
  "RESS": 7817,
  "reference": 16291,
  "åĲĮæĦı": 101185,
  "ï½Ģ": 144027,
  "å¤©åĽ½": 115962,
  "æ®ĭçĸ¾äºº": 107187,
  "æ°¾": 122142,
  "Ec": 50730,
  "Been": 25102,
  "åį°å°¼": 111348,
  "_math": 65561,
  "ĠSORT": 57376,
  "Ġ('\\": 88744,
  "-corner": 87595,
  "profil": 90992,
  "/home": 18215,
  "Ġbn": 40597,
  ".Generate": 57582,
  "Ġdecor": 10576,
  "Ġfirewall": 49877,
  "zh": 23815,
  "Ġperpetual": 65593,
  "çł´è£Ĥ": 114149,
  "ula": 5607,
  ".isPlaying": 77379,
  "æľ½": 119067,
  "ke": 440,
  "(print": 50928,
  "Ġconsulate": 98417,
  ",const": 32753,
  "Ġadopts": 85957,
  "Subscribe": 28573,
  "Items": 4353,
  "Seek": 39350,
  "ç¾İå®¹": 105157,
  "abcdefghijklmnop": 65102,
  "_POP": 55508,
  ".isPresent": 62462,
  "ç·Ĭ": 108082,
  "Ġsolo": 13529,
  "Ġorg": 1240,
  "å¦Ļ": 100279,
  ".Usuario": 73931,
  "ãĢĻ": 146990,
  ":UIButtonType": 86261,
  "'];?></": 43677,
  "éĶģ": 100504,
  "intel": 79543,
  "åĳ¨äºĮ": 115547,
  "RY": 11242,
  "Ġhighlights": 21314,
  "Ġdealt": 25934,
  "äº§çĶŁäºĨ": 106645,
  "ĠisFirst": 88521,
  "ä¸ĵæłı": 108102,
  ".ToArray": 33623,
  "å·ĩ": 123742,
  ".coordinate": 68905,
  "cmb": 95055,
  "æľīéĴ±": 106666,
  "ĠEN": 5190,
  "ĠHarbor": 39182,
  "æĸ°éĹ»ç½ĳ": 105094,
  "ĠMundo": 89823,
  "chmod": 56274,
  "database": 12216,
  "ĠLaravel": 64206,
  "éŃī": 121793,
  "ĠMySqlConnection": 81987,
  "è°¯": 121523,
  "DUCTION": 47546,
  "Ġspreadsheet": 45886,
  ".keyCode": 31575,
  "ĠNV": 24458,
  "-messages": 88142,
  "ĠKey": 5309,
  ".Out": 47178,
  "David": 22286,
  ".oauth": 57773,
  "åŃ¬": 120345,
  "ĠHttpRequest": 44049,
  "éĺ»æŃ¢": 107345,
  "ĠDefinitions": 46513,
  "Ġwiel": 63979,
  "Ġont": 14508,
  ".GO": 97574,
  "ideo": 1888,
  "ç¬¼": 101600,
  "Ġ&[": 44590,
  "Ġtekn": 80026,
  "Ġassembling": 80659,
  "_fk": 65886,
  "ROLL": 22284,
  "Ġ;;": 13667,
  "ADS": 49541,
  "Ġdz": 25718,
  "éħįå¥Ĺ": 102101,
  "Adult": 52030,
  "uges": 50159,
  "æľįå½¹": 118747,
  "levision": 10864,
  "Ġaccom": 5725,
  "igram": 49127,
  "upuncture": 68462,
  "ä¸ĸçķĮè§Ĥ": 118889,
  "$out": 58836,
  ".email": 9847,
  "neo": 51260,
  "\\xb": 47759,
  "DRAW": 77035,
  "(It": 62296,
  "Ġcoursework": 74433,
  "(Mat": 70759,
  "Ġinund": 91529,
  "åıĸæ¶Ī": 50350,
  "æ»¿è¶³": 115732,
  "ĠQtCore": 53347,
  "ĠTechnique": 77619,
  "ä¸Ńå¤ĸ": 107960,
  "ĠWent": 53759,
  "Ġsins": 39344,
  "å¿ĥçĲĨåŃ¦": 107825,
  "Ġserious": 6001,
  "ĠIID": 62121,
  "ĠEnforcement": 42956,
  "INSERT": 12698,
  "Ġparalle": 57030,
  "ajs": 23720,
  "UU": 86564,
  "els": 2010,
  "æļĸ": 99856,
  "Ġwrappers": 78094,
  "éĿĴçĿĲ": 107013,
  "é©¬è·¯": 109637,
  "Ġshift": 6407,
  "alar": 7934,
  "æħĪæĤ²": 115853,
  "Ġmente": 87062,
  "Ġchronological": 86534,
  "è¿½ç©¶": 103035,
  "qty": 29303,
  "(ofSize": 76895,
  "lace": 26536,
  "ä¸įåħģè®¸": 110263,
  "ĠLarson": 85078,
  "/LICENSE": 10845,
  "è¿½è¸ª": 110884,
  "YSTICK": 95796,
  "TRANS": 43103,
  "ĠAwakening": 93657,
  "(cors": 72476,
  "åıĸå¾Ĺä»¥åıĬ": 118076,
  "ç³¯": 103811,
  "åĲ¸çº³": 112874,
  "ĠRECEIVE": 88875,
  "ĠBergen": 78999,
  "åģ¥": 99386,
  "ĠGoose": 81107,
  "å¾ģä¿¡": 112699,
  ":'/": 70282,
  "unload": 92665,
  "Ġdout": 92520,
  "Ġdubbed": 41060,
  "Fmt": 93322,
  "Ġreferrals": 69301,
  "_geometry": 57022,
  ".Scroll": 48992,
  "_wp": 39287,
  "(tasks": 70339,
  "Ġkitchens": 65338,
  ".mousePosition": 81666,
  "lef": 59238,
  "ĠChad": 42030,
  "ader": 998,
  "params": 3519,
  "Ġlitt": 59542,
  "Ġmisunder": 37626,
  "Ġsonra": 84126,
  "Ġclinic": 27813,
  "<Client": 85899,
  "QObject": 73786,
  "ITA": 63186,
  "è¨Ĭ": 101572,
  "elligence": 8509,
  "ç´łè´¨": 100838,
  "ĠFIRE": 60463,
  "æıĲèµ·": 106787,
  "èĢģé¼ł": 111039,
  "ĠPOV": 74521,
  "(Content": 79352,
  "_registers": 78360,
  "ĠShadows": 66449,
  "ç¬¬ä¸ĢçĻ¾": 117328,
  "èĨĽ": 119491,
  "åºĶä»ĺ": 110557,
  "Ġpotentials": 94258,
  "TestData": 83920,
  "çĽĹ": 100591,
  "@\",": 18384,
  "(vertices": 65792,
  "_changed": 25213,
  ",this": 22416,
  "Ġ\"</": 8992,
  "Ġtad": 63806,
  "Ġnexus": 81401,
  "/datatables": 47370,
  "ĠAdministr": 32851,
  "Ġspin": 12616,
  "Ġblo": 14211,
  "åĬłå¤§å¯¹": 109451,
  "Ġunused": 20006,
  "ĠSailor": 97902,
  "é«ĺèĢĥ": 104372,
  "-o": 16022,
  "ĠAngels": 42045,
  "Spain": 74320,
  "æıĲ": 28072,
  "ĠUC": 30513,
  "Supply": 51296,
  "_func": 9596,
  ".union": 63251,
  "Ġaccustomed": 52084,
  "extensions": 27609,
  ".rem": 24072,
  "åĤ³": 101350,
  "ĠOrch": 54305,
  "çĭĻåĩ»": 118753,
  "ĠWyatt": 87462,
  "/app": 10640,
  "Ġlookup": 18615,
  "è¦ģåģļå¥½": 114063,
  "ernals": 89320,
  "Ġpisc": 67368,
  "å®ŀä½ĵåºĹ": 115644,
  "_blocked": 89223,
  "PCM": 88511,
  ".AspNetCore": 16757,
  "Ġmeny": 54425,
  "åĽŀåİ»": 104748,
  ".roll": 62614,
  "ĠBuzz": 37951,
  "èİħ": 120313,
  "è½¦ä¸»": 105854,
  "-pin": 74443,
  "='${": 98514,
  "åĨĻåŃĹæ¥¼": 111960,
  "!]": 68034,
  "FlatButton": 62348,
  "å»³": 103637,
  "cc": 638,
  ")':": 92763,
  "Ġsized": 29287,
  "=batch": 71798,
  "Ġprince": 41726,
  "ENUM": 68742,
  "ĠASE": 98867,
  "North": 25221,
  "ĠHorror": 51712,
  "æĪĳä»¬åºĶè¯¥": 111815,
  "Ġheightened": 59387,
  ".arc": 46056,
  "alis": 34865,
  ".ToolStripItem": 45615,
  "AL": 969,
  "_BLEND": 62763,
  "unix": 56646,
  "possibly": 53128,
  "è®¾è®¡å¸Ī": 105120,
  "Ġleadership": 11438,
  "èĥ½å¤Łè®©": 112617,
  "åħ¬å¼ı": 110322,
  "çĶľç¾İ": 114401,
  "ĠRunner": 44946,
  "ĠIan": 28235,
  ".nan": 37161,
  "Ġcheesy": 86747,
  "ĠRemoval": 56717,
  "flix": 17528,
  ">Type": 87065,
  "Ġzoekt": 43702,
  "ĠCss": 79214,
  "based": 29939,
  "(element": 11488,
  "_factor": 18588,
  "ewe": 87723,
  "AIR": 57161,
  "('''": 83434,
  "åİ»åĮ»éĻ¢": 112189,
  "Ġunderline": 51874,
  ".loc": 14664,
  "æĦİ": 121062,
  "Ġfloors": 25945,
  "Ġsensation": 36292,
  ",D": 27266,
  "Ġsummer": 7324,
  "ï¼£": 134557,
  "åįģä½³": 114745,
  "Che": 26843,
  "InstanceState": 8846,
  "Ġfrightening": 53639,
  "ensors": 26529,
  "-invalid": 39740,
  "åĽ½éĻħå¸Ĥåľº": 111457,
  "Ġmaiden": 73222,
  ".fillText": 76666,
  "-detail": 29572,
  "soever": 34554,
  "éĤĺ": 122133,
  "WHAT": 59860,
  "meld": 36601,
  "category": 5471,
  "multiline": 92760,
  "ĠEquipment": 20236,
  "untime": 4466,
  "Ġreplicated": 71380,
  "Ġmann": 37808,
  "lessly": 15740,
  "ĠhasNext": 82624,
  ",response": 79489,
  "Ġsino": 51804,
  "ĠiParam": 42048,
  "chi": 14604,
  "Ġexplosives": 56309,
  "ĠMaryland": 22652,
  "Ġfle": 12962,
  "Spl": 94159,
  "éĴĲ": 122321,
  "ĠObserver": 34041,
  "Ġdecl": 3963,
  "åĺī": 100731,
  "ĠChampions": 28808,
  "Ġestava": 77800,
  "ä»ħä»ħ": 102630,
  "Ġembry": 43381,
  "scanner": 67941,
  "çĥĻ": 119247,
  "Ġprovince": 16847,
  ".getLeft": 84618,
  "TableWidgetItem": 74093,
  "Ġcryptographic": 89129,
  "è¯ĦéĢī": 105494,
  "åĮĸçļĦ": 105302,
  "Ġdoctor": 10668,
  "ocity": 7453,
  "review": 19417,
  "é©Ĺ": 101798,
  "ĠCobra": 84475,
  "ĠSpear": 77437,
  "ĠMARK": 18018,
  "brew": 21632,
  ".statistics": 91684,
  "Ġpotency": 76129,
  "èĽ±": 120924,
  "lish": 1672,
  "-nil": 83248,
  "ĠDVD": 18092,
  "ĠTaiwanese": 92937,
  "Ġinstalled": 10275,
  "AccessorType": 81818,
  "dj": 77504,
  "pkt": 46775,
  "Area": 8726,
  "èĿĹ": 119486,
  "å¿łè¯ļ": 108334,
  "Ġenvelope": 34398,
  "Quantity": 17342,
  "ĠMasc": 88898,
  ".Since": 93404,
  "]))": 9365,
  "ĠHuffington": 63641,
  "Ġgrapes": 64908,
  "Ġbreathable": 89519,
  "ĠDixon": 63695,
  "Ġmasse": 57517,
  "éĿŀå¸¸": 99491,
  "Daemon": 89177,
  "Ġenvelopes": 86606,
  "Ġpostponed": 61620,
  "Ġdrawers": 61607,
  "texto": 57003,
  "éĻ¸": 103586,
  "riere": 84467,
  "_am": 22880,
  "éĢī": 30767,
  "ĠGeile": 76404,
  "ĠInformationen": 48842,
  "éĨ«": 100616,
  "_OWNER": 74323,
  "Ġbeige": 78265,
  "Ġicing": 75006,
  "ĠInsp": 29916,
  "æ³¡æ²«": 108027,
  "ĠgetWindow": 82461,
  "ç¤¾åĮº": 103935,
  "AGIC": 30864,
  "Ġphilosophy": 19128,
  "åħ¬æ°ĳ": 105618,
  "éĤ£ä½ł": 111596,
  "Ġflavored": 87240,
  "ĠBallet": 86636,
  "_APPRO": 75001,
  "ISR": 83615,
  "leet": 18973,
  "_proj": 49453,
  "Ġdispar": 28804,
  "ry": 884,
  "_actor": 54818,
  "_R": 2568,
  "åĽ¾çīĩæĿ¥æºĲ": 112430,
  "Ġstrerror": 43673,
  "Ġdoctrine": 32135,
  "COMP": 23707,
  "ä¼łè¾¾": 107707,
  "Ġprofitable": 33135,
  "Ġhappier": 43367,
  "ĠcellForRowAtIndexPath": 65889,
  "Independ": 63399,
  "Ġep": 4155,
  "Ġstrugg": 7930,
  "Ġlekker": 76547,
  "å¿«": 99234,
  "ĠMeghan": 79034,
  "<Any": 86712,
  ":inline": 67942,
  "èĸªæ°´": 116987,
  "å®Ŀè´µ": 103562,
  "ĠScripts": 63621,
  "æ¾³éĹ¨": 104946,
  "serialize": 24166,
  "æĭ¿åĩº": 105451,
  "skills": 53240,
  "ç¼ºåı£": 110995,
  "Ġfiltering": 29670,
  "ĠCut": 19649,
  "\\Abstract": 47426,
  "éģİ": 99751,
  "atted": 12127,
  "oltage": 26489,
  "ä¼Ī": 122165,
  "Ġmorb": 92044,
  "Ġden": 3371,
  "_Size": 45553,
  "ĠItem": 5739,
  "ightly": 71948,
  "ĠAntworten": 95817,
  "FLT": 79855,
  "ç§ģåĭŁ": 108868,
  "gorit": 86415,
  "èĴ¹": 121137,
  "_FINAL": 75872,
  "Pipeline": 34656,
  "enticate": 22661,
  "é²ĭ": 121262,
  "Represent": 65743,
  "Vel": 49506,
  "iego": 62287,
  "/control": 82667,
  "éĥ¨éĹ¨": 99667,
  "ä¸ĢçĶŁ": 104478,
  "é¥§": 119637,
  "Ġalma": 81480,
  "Ġspouse": 30980,
  ".RESET": 97452,
  "-human": 68995,
  "axies": 56988,
  "_gl": 34569,
  "(close": 68890,
  "éħ¸": 99918,
  "_less": 50747,
  "elter": 17872,
  "Ġsessuali": 94869,
  "å¢ī": 121360,
  "Claim": 45544,
  "ĠEveryday": 78616,
  "'ex": 57636,
  "rez": 22741,
  "_PCIE": 93061,
  ".Tipo": 92939,
  "ĠAssessment": 36257,
  "Ġdiscredit": 87019,
  ".BackgroundColor": 73432,
  "APER": 57567,
  "ĠautoFocus": 94481,
  "aggregate": 59606,
  "Ġbatting": 50810,
  "ä¸Ĭå®ĺ": 114663,
  "Province": 51074,
  "park": 28736,
  "Yesterday": 50277,
  "icense": 1545,
  "igy": 92493,
  "_rgb": 37407,
  ".proj": 82177,
  "éĵĭ": 120406,
  "Entering": 82867,
  "Ġmapa": 68110,
  "auc": 20436,
  "/Typography": 83539,
  "Ġunit": 4982,
  "åĿıäºĭ": 118353,
  "ĠALS": 38423,
  "ĠChili": 81415,
  "ĠShoppingCart": 90907,
  ".Green": 64010,
  "Ġentropy": 47502,
  "ĠFormula": 30822,
  "Ġnanop": 75207,
  "ĠLSM": 90474,
  "åĬ¡å·¥": 109508,
  "Ġscares": 96371,
  "ĠWORK": 31804,
  "Ġzo": 18741,
  "Ġpreg": 19978,
  "Ġestr": 29507,
  "ĠDF": 43376,
  "olta": 59854,
  ".contact": 32935,
  "ĠPowder": 43656,
  "abric": 28897,
  "Ġmeets": 20027,
  "ads": 7664,
  "isicing": 55946,
  "Ġtumblr": 45300,
  ".Core": 12777,
  "ç´«èī²": 111413,
  "åıįæĺł": 101279,
  "Ġsenators": 38920,
  "(String": 2242,
  "ĠMedic": 12566,
  "isms": 13664,
  "ikan": 22222,
  "Ġjuris": 45895,
  "ĠJsonResponse": 38263,
  "çľĭä¸įåĪ°": 108057,
  "Serializable": 29268,
  "ç¿»å¼Ģ": 117226,
  "<section": 30116,
  "('/:": 49475,
  "Maint": 66734,
  "=n": 21747,
  "ãĢĨ": 144909,
  "ä½Ī": 113778,
  "Ġlesen": 75182,
  "Ġquaint": 87508,
  "ABEL": 17114,
  ".reference": 50513,
  "ĠTic": 78426,
  "å¦¥åĸĦ": 111400,
  "ĠTribunal": 56971,
  "?).": 47266,
  "è¿½æį§": 113248,
  "åĪĽåĬŀ": 106786,
  "GPC": 69241,
  "Ġraspberry": 93702,
  ">H": 60500,
  "Ġavons": 55938,
  "sale": 32654,
  "äº§éĶĢ": 113104,
  "Ġmana": 30131,
  "Ġking": 11477,
  "ĠEmit": 61537,
  "#{@": 84154,
  "XC": 37946,
  "Ġindebted": 92898,
  ".TEST": 73501,
  "æ¿Ģèµ·": 117448,
  "identity": 16912,
  "ĠMosul": 61813,
  "CharCode": 63863,
  "gpio": 44877,
  ".walk": 51394,
  "Ġdeleg": 19854,
  "èĹĿ": 103411,
  "_image": 4954,
  "åķ¡": 102312,
  "æĭīèĲ¨": 113088,
  "åįŀ": 119548,
  "Ġlowering": 45201,
  "èŃ·": 101614,
  "ä»°": 102690,
  "ĠUnless": 10878,
  "æ¯ıä½į": 109567,
  "æĽ´å¥½åľ°": 105344,
  "Ġintensity": 20612,
  "Ġsquadron": 97280,
  "Ġstrongly": 16510,
  "äº¬": 46553,
  "IMS": 62464,
  "_rf": 65466,
  "Ġfitted": 28341,
  "åį±": 100087,
  "Deadline": 83593,
  "é£İéĻ©": 101052,
  "Ġmkdir": 30073,
  "benchmark": 79186,
  "Untitled": 99005,
  "ĠRocket": 39218,
  "å¤ªå¤ļäºĨ": 111759,
  "Ġimu": 92861,
  "ĠEmployer": 74852,
  "æĶ¶åĽŀ": 108948,
  "Du": 42074,
  ".setCursor": 80616,
  "çļĦåıĳçĶŁ": 107168,
  "ĠCarm": 34452,
  "ways": 2284,
  "å°ıåĦ¿": 113126,
  "Ġremaining": 9664,
  "xBC": 80979,
  "æĿĤçī©": 118402,
  "Ġinjuring": 85585,
  "Ġapk": 58033,
  "ç¦Ħ": 108815,
  "wood": 6660,
  "Ġbh": 42989,
  "ĠKelley": 73713,
  "ĠSept": 5375,
  "ĠNiagara": 77877,
  "è¹ĳ": 121877,
  "ĠFRIEND": 79343,
  "çīº": 102916,
  "Ġtranslator": 45488,
  "ĠFour": 13322,
  "ĠBUFFER": 52135,
  "/../": 78380,
  "ĠnextProps": 67322,
  "_flip": 56012,
  "è¯ļå®ŀ": 114886,
  "è¥¿åįĹ": 105325,
  "äººå¤§": 101012,
  "-bar": 15773,
  "ĠTalking": 60922,
  "akeFromNib": 69729,
  "Ġoctave": 73932,
  "iliation": 28009,
  "åıĳéħµ": 108279,
  "éĺ²æĻĴ": 113222,
  "embre": 22530,
  "minate": 34016,
  "Ġinfrastructure": 13737,
  "Ġhinder": 56680,
  "_WRAP": 45087,
  "ä¸įå¯¹": 105788,
  "isle": 40105,
  "Ġpaths": 12716,
  "Ġstiff": 30061,
  ".blocks": 48550,
  "ä¿Ħç½Ĺæĸ¯": 104084,
  "bourne": 21436,
  "(LOG": 24850,
  ".String": 6431,
  "/min": 44173,
  "ĠLook": 9192,
  "ĠPhillip": 58709,
  "ĠTal": 17589,
  "Cele": 54654,
  "Ġmyriad": 51809,
  "Psych": 68703,
  "rt": 3342,
  "Ġdatabase": 4625,
  "ĠIllinois": 18657,
  "anning": 5947,
  "æ¥¼çĽĺ": 105582,
  "Nh": 79759,
  "Ġtaxi": 32505,
  "èĭ±éĽĦ": 104182,
  "å§ŀ": 122547,
  "ĠWard": 26640,
  "(correct": 87964,
  ".ColumnStyle": 72308,
  "essenger": 40137,
  "ä¹ľ": 119533,
  "_STRIP": 90054,
  "Ġflare": 60263,
  ".btnClose": 76302,
  "åľĥ": 118857,
  "Ġloser": 58891,
  "ĠPrep": 48069,
  "Ġshaken": 65800,
  "Ġpurposes": 9895,
  "Ġsettles": 91918,
  "çĨµ": 121673,
  "çŃ¾ç½²": 102623,
  "Ġextremist": 55782,
  "ĠKavanaugh": 37183,
  "ĠRelation": 50024,
  "Ġwriteln": 80947,
  "ĠKaiser": 66965,
  "Ġarthritis": 54552,
  "Ġaz": 12376,
  "å¼ķèµ·äºĨ": 108904,
  "ĠTResult": 46940,
  ".splitContainer": 38701,
  "Ġpools": 33139,
  "_lot": 91849,
  "èĤĺ": 114262,
  "æºµ": 123258,
  "Ġbonus": 12037,
  "Ġdevastation": 81915,
  "äºĮæ¬¡": 105935,
  "ittal": 82123,
  "Ġbog": 34419,
  "Ġarrested": 12517,
  "å¶²": 123454,
  "Ġglob": 13206,
  "ç¦Ĭ": 121325,
  "Ġhandgun": 56805,
  "ROUGH": 60521,
  "ĠApache": 8914,
  "ĠMine": 30683,
  "lator": 21829,
  "çľĭæ³ķ": 103120,
  "Ġmast": 18700,
  "ĠBroadcast": 31965,
  "cancellationToken": 95470,
  "/windows": 75349,
  "Ġpas": 6368,
  "_scene": 37296,
  ".RIGHT": 51925,
  "/bit": 86644,
  "Ġstup": 90032,
  "Ġawhile": 50469,
  "éĽ¢": 101606,
  "xad": 55254,
  "inders": 31451,
  "ĠEntity": 10390,
  "Ġsparkle": 95070,
  "æīĭæĦŁ": 114945,
  "Ġgrado": 77645,
  "åģ·åģ·": 108600,
  "serv": 30775,
  "ersive": 52353,
  "Ġindividually": 31299,
  "EqualTo": 22759,
  "èĩªä¹ł": 118734,
  "ĠEve": 31360,
  "greso": 72156,
  "Ġpatt": 83067,
  "Ġthanks": 9339,
  "Mich": 19560,
  "letcher": 60520,
  "ĠGPU": 22670,
  "Ġyell": 64313,
  "Ġsuffice": 76156,
  ".Combine": 31124,
  "çİ°è´§": 107603,
  "Marvel": 82576,
  "å¥Ķé©°": 107482,
  "Ġdrank": 53144,
  "(extra": 83790,
  "peration": 91774,
  "ĠEssential": 47733,
  "åĲĮèĥŀ": 111582,
  "$type": 63607,
  "ĠNursery": 92185,
  "ustom": 1450,
  "Ġkarde": 136159,
  "(abs": 30523,
  "assing": 72832,
  "Ġbraces": 59191,
  "...\"": 21215,
  "-heart": 42244,
  "Ġembraced": 42503,
  "_pick": 58168,
  "æıĲçĤ¼": 113731,
  "Ġ'('": 37880,
  "Ed": 2715,
  "ä½Ĩè¿Ļ": 107607,
  "ä¿¡æģ¯åıĳå¸ĥ": 114722,
  "_ws": 50211,
  "èľĪ": 119458,
  "å¤ī": 124994,
  "rene": 46909,
  "Ġå¯¹": 69162,
  "ĠPropTypes": 9602,
  "Ġchance": 6012,
  "Prior": 49471,
  "basis": 88826,
  "Ġstu": 54754,
  "izzer": 93329,
  "Ġlenses": 34957,
  "çķ¶": 100053,
  "Flow": 18878,
  "_nd": 43544,
  "enderror": 41742,
  "-im": 36925,
  "erce": 25641,
  "Ġpilots": 35277,
  ".recv": 40433,
  "ETYPE": 63325,
  "Ġtcp": 28051,
  "å¿į": 100292,
  "latent": 50023,
  "Ġgemeins": 74354,
  "ĠHeat": 26070,
  "Ġvolver": 86362,
  "æľºç»Ħ": 109096,
  "åħ¥çĿ¡": 117336,
  "ĠTransmit": 97657,
  "åĹŁ": 120938,
  "ensus": 13626,
  "Precio": 69718,
  "Ġtg": 53188,
  "ĠCIT": 97477,
  "Ġheures": 75045,
  ".disconnect": 47224,
  "unik": 70449,
  ".INVISIBLE": 56531,
  "Customer": 12792,
  "Ġmunch": 98245,
  "_offset": 6917,
  "Ġcoat": 22875,
  "=\"--": 98298,
  "ev": 5120,
  "Ġhazards": 51542,
  "Leap": 96657,
  "Ġ?.": 79928,
  "åĸ·": 102125,
  ";<": 35058,
  "ĠCu": 26462,
  "ä¸ĵé¡¹": 100505,
  "ĠHass": 42022,
  "ceased": 94204,
  "ĠCl": 2435,
  "Ġsplitting": 44373,
  "Ġstacks": 39950,
  "<decimal": 98067,
  "åĹİ": 105793,
  "_speed": 16944,
  "ï¼ħ": 130696,
  "Ġcigarettes": 33476,
  "åĬŁçİĩ": 106934,
  "Ġrubbed": 66754,
  "è§Ĥæĳ©": 114252,
  "å¼Ģåĩº": 112076,
  ".Compile": 89323,
  "-writing": 96665,
  "ĠgetTotal": 74456,
  "Ġevil": 13962,
  "_ra": 59969,
  "çĥľ": 120488,
  "Ġblurred": 72400,
  "_LOADING": 63960,
  "ĠAgu": 76308,
  "Ġdepressed": 41542,
  "_found": 21480,
  "Ġfemme": 18195,
  "Ġgeb": 29167,
  "_race": 91317,
  "ä¸įè¦ģåĨį": 113673,
  "-pic": 82773,
  "_fast": 35743,
  "æĢİ": 99387,
  "icios": 25345,
  "äĮĢ": 150804,
  "_STENCIL": 85666,
  "ĠHH": 24756,
  "Ġinfertility": 94543,
  "_Top": 94819,
  "Amy": 75009,
  "ä¼Łå¤§": 101635,
  "ĠCosmos": 83424,
  "çĳ³": 123133,
  "ĠUnsupported": 33081,
  "Ġinfections": 28920,
  "\";}": 75091,
  "/plain": 36971,
  "Ġ?>/": 27967,
  "ĠNavController": 55762,
  "composite": 89504,
  "ç»Ĩå¿ĥ": 110222,
  "ä¸įå®¹æĺĵ": 102898,
  ".slim": 74257,
  "æ¯Ķä¸Ĭå¹´": 118564,
  "ĠimageData": 65958,
  "Ġcron": 46582,
  "ĠTir": 82555,
  "ĠQueen": 16259,
  "_RGB": 24815,
  "æī¶": 100086,
  "èĪ·": 120738,
  "æ¸²æŁĵ": 115876,
  "CTRL": 34440,
  "ĠAmateur": 37983,
  "Ġyeni": 98713,
  "Ġdav": 40769,
  "éĻĲéĩı": 112912,
  "hasMany": 48296,
  "è¯¤": 119987,
  "ä¸Īå¤«": 104683,
  "åĩºéĻ¢": 113873,
  "åı¯ä»¥åľ¨": 104964,
  "æĶ¹å»º": 114704,
  "Ġsudoku": 90809,
  "ponses": 22648,
  "ĠStringTokenizer": 71601,
  "-eight": 69715,
  "è¶³ä»¥": 106131,
  "Ġstuffing": 82516,
  "ĠVen": 18231,
  "è·ĳæŃ¥": 107530,
  ".pnl": 49167,
  "lingen": 76307,
  "éĿ¢èī²": 113906,
  "ker": 7052,
  "ĠBOOST": 21203,
  "PAIR": 82966,
  "èĪ²": 122850,
  "_sq": 47252,
  "åŁºç«Ļ": 116426,
  "embedding": 94611,
  "chs": 55457,
  "ĠPrev": 59001,
  "Ġcosm": 55654,
  "Thus": 44500,
  ".bootstrap": 23376,
  "Cumhurba": 138174,
  "æ°ĳæ£Ģå¯ŁéĻ¢": 113730,
  "ĠTunnel": 65601,
  "Ġpowering": 89900,
  "Hung": 89375,
  "[offset": 35806,
  "ĠVI": 29668,
  "missing": 30616,
  "loe": 34498,
  "çļĦçĲĨå¿µ": 107136,
  ".setInput": 79416,
  "ĠPoe": 81595,
  "********************************": 1689,
  "åĨľæľº": 110643,
  "Ġassociation": 15010,
  "æ§į": 117751,
  "ĠPradesh": 42358,
  "ä½´": 122325,
  "Signal": 26810,
  "æĭľ": 100090,
  "ĠLIABILITY": 14162,
  ".response": 11362,
  "Ġapproximation": 56204,
  "Ġdirections": 17961,
  "ĠOPTIONAL": 76232,
  "meet": 63410,
  "Ġexercises": 22932,
  "(prev": 31781,
  "çĥ¤": 102554,
  "_INSTANCE": 42587,
  "delay": 22263,
  "æĻļ": 99438,
  "æĢ»ä½ĵ": 102198,
  "Ġcalc": 10035,
  "éĭĨ": 121555,
  "ĠFibonacci": 79683,
  "ĠHC": 45828,
  "Ġextreme": 14226,
  "ĠPatreon": 65112,
  "ä¸įè®¤è¯Ĩ": 115629,
  "Ġdebit": 45353,
  "Sy": 34667,
  "æĳ§æ¯ģ": 113912,
  "_nums": 51875,
  "ĠmimeType": 71826,
  "Ġphilosophers": 60687,
  "=\"#\"><": 27590,
  "Ġformations": 61164,
  "Ġdriv": 39255,
  "Ġsublicense": 28787,
  ".Card": 48613,
  "_Vector": 61377,
  "talk": 35241,
  "In": 641,
  "Ġsuited": 31499,
  "ler": 1536,
  "æ°¢": 102858,
  "Ġmap": 2415,
  "ĠCasc": 95006,
  "Ġforfeiture": 89621,
  ".accessToken": 71792,
  "][\"": 9868,
  "Ġ(\"<": 90276,
  "_MARK": 36916,
  "Ġundergoing": 46297,
  "ĠPotato": 77603,
  "Word": 10879,
  "_save": 15376,
  "Ġpooling": 74410,
  "chie": 5467,
  "athroom": 77832,
  "Ġstimulating": 64692,
  "_office": 79604,
  "TERN": 10877,
  "ĠEINVAL": 76269,
  "Ġtempfile": 54819,
  "Ġailments": 81807,
  ".Ultra": 53223,
  "åĶĲ": 100181,
  "è°ĥåĳ³": 115024,
  "Ġjej": 62964,
  "Ġastore": 91807,
  "ä¿ı": 109535,
  "è¿Ľé£Ł": 115737,
  ".ListView": 46546,
  "ä½İ": 99285,
  ".path": 3875,
  "adiens": 82695,
  "Ġundoubtedly": 36948,
  ".degree": 89248,
  "Ġpeninsula": 65395,
  "ä½Ĩçİ°åľ¨": 114223,
  "ensing": 48105,
  "Ġwalked": 14858,
  ")p": 49248,
  "åĽº": 99549,
  "..<": 55672,
  "(asset": 50718,
  "-notes": 61867,
  "ĠPle": 32440,
  ".setMax": 63155,
  "çĶ·å¥³": 105569,
  "æ¯ıä¸Ģä¸ª": 104367,
  "Ġbooming": 67690,
  "Ġiar": 87721,
  "ĠBorg": 64482,
  "aire": 11998,
  "roducing": 59537,
  "åºķçº¿": 108185,
  "seconds": 17403,
  "ĠLand": 11426,
  "-shaped": 34731,
  "Medium": 40994,
  "ErrMsg": 75449,
  "Ġmaneuver": 44114,
  "radient": 66737,
  "etxt": 88900,
  "åºĨç¥Ŀ": 106919,
  "Ġelites": 55703,
  "Ġcomplied": 83764,
  "carrier": 65985,
  "Ġwhichever": 53684,
  "ĠMas": 19868,
  ":-------------</": 57408,
  "-phase": 81610,
  "ç«Ļåľ¨": 104224,
  "ĠonFailure": 48334,
  "å¾©": 107479,
  "æ¹ĺæ½Ń": 115243,
  "Ġcondiciones": 77658,
  "å«ª": 123418,
  "è¦ģåİ»": 107025,
  "followers": 65866,
  "Words": 23489,
  "ĠdB": 43768,
  ".sound": 47698,
  "åĲ¸åıĸ": 114643,
  "sorting": 67039,
  "éģĶåĪ°": 113555,
  "çģ«çĪĨ": 107292,
  "George": 38952,
  "(env": 16978,
  "boolean": 6117,
  "Ġsam": 9962,
  "éģĵè·¯ä¸Ĭ": 108945,
  "Ġdiscount": 11089,
  "Flutter": 97244,
  "ĠDerm": 75408,
  "Fan": 58277,
  ".ensure": 63065,
  ".use": 7397,
  "æĥĭ": 119422,
  "Ġque": 1709,
  "stats": 16260,
  "Ġnoi": 57110,
  "glas": 26383,
  "Ġopin": 7334,
  "è´¡": 101155,
  "childNodes": 75773,
  "Ġ@": 569,
  "åİ¿åħ¬å®īå±Ģ": 114579,
  "_inode": 46748,
  "Ġnominations": 59598,
  "æĿĪ": 119679,
  "agination": 10353,
  "æĹłäºº": 101475,
  "ĠInk": 41083,
  "ĠCAD": 47265,
  "(cb": 35653,
  "cek": 45700,
  ".value": 2824,
  "advertisement": 93148,
  "OLEAN": 23587,
  "é¡¶å±Ĥ": 118181,
  "shall": 19012,
  "ParticleSystem": 98454,
  "éģ²": 119015,
  "Ġrouters": 59175,
  "Ġprimarily": 15503,
  "éĿŀåĩ¡": 110577,
  "Ġmagically": 77725,
  "ĠMitch": 22586,
  "ĠTransactions": 55285,
  "Ġribbon": 44567,
  "æĤ«": 120580,
  ".FlatAppearance": 43620,
  "è¥¿èĹı": 105169,
  "Still": 23322,
  "ĠFax": 55364,
  "éĶ¬": 123200,
  "categoria": 43244,
  "()%": 53922,
  "Ġbudget": 8039,
  ".MoveNext": 86942,
  "laces": 76588,
  "Ġved": 27933,
  "èħĬ": 103126,
  "Ġcoronavirus": 32233,
  "Ġarrest": 8004,
  "Kind": 10629,
  "Ġhinted": 66369,
  "_Vert": 80810,
  "Ġserializer": 21759,
  "å·§": 100084,
  ";\"><?": 64081,
  "ä¸ľæµ·": 111903,
  "Ġexperi": 5747,
  "Ġrecess": 46762,
  ".PathVariable": 75646,
  "-air": 37535,
  "ĠUserManager": 56234,
  "eature": 15208,
  "RICS": 84172,
  "Ġnoktas": 143934,
  "(contract": 84413,
  "Ġvitality": 74616,
  "Ġagriculture": 28929,
  "().": 1005,
  "Ġiterative": 86875,
  "modifiable": 84079,
  "ĠRamadan": 81808,
  "_PLUGIN": 39935,
  ".alibaba": 48662,
  "ĠNoticed": 70134,
  "APPLICATION": 72092,
  "Ġderivatives": 42545,
  "erten": 50958,
  "Court": 75774,
  "éķ¯": 121987,
  "å®īå¾½çľģ": 107576,
  "_stage": 35238,
  "YS": 9394,
  "ĠHut": 66313,
  "(Buffer": 55574,
  "èĦĸåŃĲ": 107966,
  "_RETURNTRANSFER": 71165,
  "ĠBB": 18270,
  "fac": 22185,
  "Ġrall": 38819,
  "Ġipc": 60104,
  "scripts": 19831,
  "Ġteaser": 69553,
  "OMP": 51607,
  "chedules": 49613,
  "ä¸¤åľ°": 109415,
  "å¤§åĪĩ": 141218,
  ".rollback": 58011,
  "lining": 34881,
  "Ġine": 19116,
  "illegal": 75998,
  "æŃ¼": 111594,
  "Ġsovereignty": 45959,
  "è´«åĽ°äººåı£": 115212,
  "åĬ©åĬĽ": 104236,
  "nc": 1016,
  "æł½": 103239,
  "çı£": 120289,
  "Ġtrauma": 29888,
  "icycle": 26165,
  "ĠEB": 49142,
  "Ġdinosaur": 62889,
  "Ġportrayed": 44777,
  "-F": 7276,
  "Ġdialog": 7254,
  "èħĮ": 119122,
  "Ġbraz": 97986,
  "è½¦ä¸Ĭ": 108220,
  ".XtraPrinting": 49905,
  "Ġabsorption": 43125,
  "ĠUne": 38683,
  "å®ŀè®Ń": 113008,
  "åĴĨ": 119871,
  "restricted": 50797,
  "æĽ¿æį¢": 113952,
  "Ġ//////////////////": 46470,
  "itted": 3762,
  "æ¸ħæ°´": 107649,
  "Ġregistros": 63527,
  ".sponge": 97171,
  "iators": 80290,
  "GRAY": 57157,
  "print": 1350,
  "æ²īè¿·": 117924,
  ",double": 36267,
  "ĠBeing": 20690,
  "æľįåĬ¡äºİ": 112281,
  "ĠCOS": 72944,
  "äººãĢħ": 137422,
  "ĠJO": 10247,
  "-server": 26300,
  "é¢ĨåħĪåľ°ä½į": 116554,
  "æĪĺåıĭ": 115578,
  ".Max": 14535,
  "çºªå¿µé¦Ĩ": 114280,
  "Ġrho": 31381,
  "ĠENABLE": 33240,
  "ĠPb": 97354,
  "è¿ħçĮĽ": 113157,
  "Fonts": 55369,
  "Sen": 19617,
  "2": 17,
  "iagnostics": 18938,
  "è·ĳåİ»": 114996,
  "Google": 14444,
  "èª¤": 103607,
  ".TabStop": 25695,
  "èĥ½å¤Ł": 100006,
  "ĠDist": 27604,
  "cum": 59253,
  "hapus": 67955,
  "ĠMcCabe": 84958,
  "ĠNASCAR": 64590,
  ".run": 7634,
  "ä¼ļæľī": 104330,
  "-fontawesome": 95848,
  ".OR": 77897,
  "OWER": 19897,
  "Ġupon": 5193,
  "ã¢¨": 150793,
  "(cat": 53600,
  "ĠWS": 24906,
  "<location": 88313,
  ".eye": 72740,
  "Ġenerg": 4501,
  "Ġsealed": 19046,
  "UPDATED": 69742,
  "ĠCliente": 40831,
  "ĠisNaN": 77867,
  "åĳľ": 119176,
  "è¿Ļåĩł": 112279,
  "/group": 53389,
  "<Box": 79852,
  "Ġtwitch": 59413,
  "caption": 23347,
  "Ġbeberapa": 84938,
  "RequestParam": 25729,
  "ç§īæĮģ": 114706,
  "VertexArray": 63987,
  "-vous": 44225,
  "å¢Ĵ": 121361,
  "ĠMutex": 66215,
  "Ġthread": 4516,
  "departureday": 95637,
  "pf": 15897,
  "_land": 60506,
  "ĠMiche": 62700,
  "ĠFernando": 50385,
  "è§ģè¯ģ": 103021,
  "mask": 11258,
  "Ġellas": 97660,
  "ĠLou": 9729,
  "Ġzend": 78568,
  "IsRequired": 58541,
  "éŃħåĬĽ": 102550,
  "ohen": 26440,
  "raft": 2944,
  "ĠOd": 24560,
  "å®¶åĸ»": 118595,
  "ĠAbby": 84448,
  "vanized": 67124,
  ">Title": 85279,
  "ĠMartial": 71261,
  "omap": 74811,
  "asley": 73011,
  "goods": 19693,
  "ĠDig": 37969,
  "çļĦéĤ£ä¸ª": 108819,
  "ĠfieldName": 38538,
  "åıĤè§Ĥ": 104682,
  "Ġasoci": 68996,
  "Ġbelang": 83246,
  ".FC": 40125,
  "iti": 12303,
  "Ġvisa": 26655,
  ".intersection": 97075,
  "ĠonClick": 5697,
  "Ġoptimizer": 25632,
  "æĳ©æĵ¦": 108916,
  "(CC": 74071,
  "çİļ": 122184,
  "ABB": 44322,
  ".TIME": 86201,
  "Ġscores": 12205,
  "(Cl": 43644,
  "Ġslow": 6301,
  "ĠParan": 97284,
  "ĠDrill": 76874,
  "ç»¨": 120546,
  "ĠLauncher": 52230,
  "Ġpivot": 26045,
  "Ġassaulted": 45571,
  "ATAR": 89608,
  "Ġbootstrap": 26925,
  "æŁĲäºĽ": 104760,
  "Ġconversations": 20959,
  "AspectRatio": 70510,
  "è¿Ļåº§åŁİå¸Ĥ": 115889,
  ".cross": 52761,
  "ç¥²": 122902,
  "ĠVita": 54624,
  "clear": 7422,
  ",long": 74903,
  "Ġwarmer": 44939,
  "çĩĥæ°Ķ": 106861,
  "LM": 10994,
  "è®³": 117533,
  "éĹ½": 107509,
  "Ġobscured": 95701,
  "Ġdefeats": 68769,
  "_minutes": 67655,
  "Ġproduct": 1985,
  "IMPLIED": 93859,
  "ĠæĪĸ": 92313,
  "ĠGa": 18373,
  "ĠPhar": 87571,
  "CV": 19589,
  "ĠMerrill": 87683,
  "emp": 3262,
  "_major": 47916,
  ".Verify": 54853,
  "æĦıæĦ¿": 107869,
  "ĠLev": 27022,
  "Ġbranded": 45835,
  "Ġfertilizer": 64291,
  "FI": 19426,
  "Ġgenerics": 95545,
  "ä¸įæĩĪ": 103749,
  "ĠRecover": 76112,
  "KeyUp": 80754,
  "_poly": 36133,
  ".article": 51416,
  "Ġloft": 58427,
  "Ġintellig": 59438,
  "jualan": 81925,
  "ä¸īèı±": 117254,
  "ftar": 46201,
  "htmlspecialchars": 79596,
  "çĭº": 120461,
  ".cache": 20087,
  "ĠkeyCode": 64432,
  "sequ": 6603,
  "æī°ä¹±": 117000,
  "ĠLLVM": 52339,
  "ĠIBOutlet": 22347,
  "Ġhomes": 10415,
  ".major": 75412,
  "ĠSem": 14248,
  ".Cryptography": 53858,
  "Ġcont": 683,
  "Ġnav": 8075,
  "(date": 11970,
  "tok": 29594,
  "Ġgulp": 29779,
  "ukes": 64750,
  "creator": 32398,
  "Ġgrams": 33319,
  "(TYPE": 69227,
  "uncture": 62874,
  "history": 18844,
  "-black": 36946,
  "åĺĢ": 119471,
  "_PAIR": 65765,
  "åħ¨éķ¿": 114213,
  "ĠCapt": 16603,
  ".D": 909,
  "ĠBicycle": 78347,
  "ç²ĺ": 104957,
  ".best": 51276,
  "_truth": 49186,
  "çĲŃ": 122937,
  ".Process": 29012,
  "::::::::": 50572,
  "ĠSurely": 64188,
  "(U": 12317,
  "Ġlash": 97281,
  "Triangle": 51942,
  "-can": 71214,
  "Counter": 14099,
  ".width": 5441,
  ".prob": 92738,
  "æĭ®": 120016,
  "Ġcaller": 19865,
  "åĲĪèµĦåħ¬åı¸": 118896,
  "sez": 51970,
  "æĶ»åĬ¿": 116525,
  "éĢĥ": 100248,
  "Ġrnn": 86400,
  "å®ĩå®Ļ": 105339,
  "fahren": 96922,
  "-shop": 74914,
  "shopping": 50566,
  "_hard": 77712,
  "Thread": 6855,
  "_games": 67370,
  ").": 568,
  "æľª": 38342,
  "æĮīä¸ĭ": 114086,
  "Ġunfolds": 89665,
  "ä¹ħ": 99379,
  "Actor": 18870,
  "ĠPA": 12878,
  "telegram": 81669,
  "ONTAL": 36849,
  "recommend": 66589,
  ".Retrofit": 95227,
  "linkplain": 68640,
  "_marks": 74204,
  "ĠMonthly": 44334,
  "ĠTranslation": 38041,
  "flush": 21664,
  "Ġbeetle": 97386,
  "whatever": 68286,
  "ï¦¶": 146809,
  "Ġnano": 50493,
  "Ġcommitments": 41256,
  "Ġmare": 54218,
  "Ġrefunds": 72518,
  "info": 2733,
  "ä¾Ľåħ»": 116034,
  "stim": 53654,
  "åĬŀäºĭ": 102715,
  "Ġpapel": 69157,
  "ĠVoyager": 85160,
  "Ġseventy": 69949,
  "':['": 79719,
  ".tolist": 55012,
  "ĠMILL": 82485,
  "$args": 58571,
  "tsy": 58960,
  "LayoutParams": 60867,
  ".until": 76072,
  "ĠFish": 16608,
  "(st": 5895,
  "Ġautonomy": 50260,
  "ä¼ļéķ¿": 100990,
  "(raw": 22460,
  "/C": 11295,
  "ĠScores": 69994,
  "æĶ½": 122340,
  "ĠAllocate": 44625,
  "]string": 30953,
  "å¤ļåĲĥ": 108851,
  "ĠTJ": 72957,
  "èĢģé¾Ħ": 118017,
  "æ¶¢": 122700,
  "çıį": 100861,
  "Ġpixel": 12955,
  "-grid": 28083,
  "ĠHeads": 70507,
  "disc": 16822,
  "quals": 2366,
  "ĠCompiled": 96471,
  "æĬĬèĩªå·±çļĦ": 111300,
  "è½¦åŃĲ": 108920,
  "è´¿èµĤ": 117043,
  "/items": 61259,
  "Ġintimate": 31387,
  "Ġ@\"\\": 67976,
  "çģµæ°Ķ": 118702,
  "ĠAppearance": 60616,
  "uples": 28323,
  "@Test": 18229,
  "èµľ": 121572,
  "\\Mapping": 65255,
  ".didReceiveMemoryWarning": 65074,
  "(\":": 18893,
  "(node": 6958,
  "*-": 72977,
  "ĠbytesRead": 87173,
  "ĠsetError": 52215,
  "Ġbenefit": 8760,
  "è®¤è¯ĨåĪ°": 106836,
  "ç´Ļ": 111906,
  "Depending": 79145,
  "ty": 1881,
  "ivers": 1945,
  "_Print": 45788,
  ")(__": 74699,
  "ĠGay": 20677,
  "lint": 14957,
  "ctrine": 13743,
  ".PropTypes": 53384,
  "ACHE": 17810,
  "responses": 71000,
  "Ġbank": 6073,
  "racial": 48925,
  ".variable": 45221,
  "å¥ĳæľº": 103467,
  "ishing": 10976,
  "Ġdebt": 11636,
  "Ġindefinitely": 55234,
  "_closed": 44697,
  "imshow": 65447,
  ".Face": 70797,
  ".Inst": 71207,
  "Ġ?>&": 66706,
  "-am": 32217,
  "Ġemerged": 21992,
  "Ġprojet": 45394,
  "\\Storage": 93167,
  "Ġshape": 6083,
  "JR": 84692,
  ".ArgumentParser": 37966,
  "Ġlogistics": 42157,
  "ä¸ªå¤ļå°ıæĹ¶": 114661,
  "ĠVictoria": 22417,
  "ĠAlonso": 74067,
  "æ¯ķ": 99764,
  "è¡Įåĭķ": 112029,
  ".setVisibility": 16542,
  "ONY": 52275,
  "_phase": 37593,
  "etus": 63376,
  "Ġtemps": 26046,
  "æľĿ": 99816,
  "Ġunderstandably": 86998,
  "ĠPlatt": 94678,
  "Alamat": 87400,
  "cription": 1453,
  "èĥļèĥİ": 115087,
  "umno": 48347,
  "[:": 3447,
  "ĠSi": 11832,
  "Sweet": 58422,
  ".getLast": 61049,
  "ãĽļ": 122730,
  "ä¹Łå°±": 104311,
  "()<": 59216,
  "older": 2018,
  "-duration": 64383,
  "_tD": 88741,
  "é¹Į": 121167,
  "?id": 20348,
  "ç»ıèĲ¥æ´»åĬ¨": 113417,
  "Ġhaz": 20144,
  "Ġ[+": 78801,
  "ĠBear": 23985,
  "ĠMediaPlayer": 71010,
  "æĿĤå¿Ĺç¤¾": 118949,
  "fitness": 73521,
  "ĠRams": 37503,
  "èĤĵ": 119741,
  "Ġpopulation": 7042,
  "Ġcells": 7761,
  "(email": 17928,
  "æĽ¾ç»ı": 103997,
  ".getMonth": 33803,
  "_positions": 37219,
  "ç«ĭæ³ķ": 106624,
  "vp": 15260,
  "ĠClash": 84570,
  "He": 1519,
  "Ġpremiered": 84070,
  "Ġå¦Ĥæŀľ": 81263,
  "_MM": 46957,
  "_node": 5084,
  "Ġshaped": 26271,
  "Ġsweetness": 63450,
  "ffect": 1705,
  "ĠGeme": 77775,
  "ĠWa": 28514,
  "åħīä¼ıåıĳçĶµ": 117086,
  "\\xe": 44298,
  "Ġammo": 37904,
  "=request": 25168,
  "usk": 32779,
  "ampie": 48298,
  "ations": 804,
  "è´£": 69516,
  "Ġthousand": 16183,
  "Ġput": 2182,
  "loyd": 25796,
  "ddie": 28454,
  ".voice": 84180,
  "Ġscal": 24004,
  "åıĻäºĭ": 115692,
  "ĠGPS": 23344,
  "-de": 6810,
  "neys": 35271,
  "Ġcriminal": 9158,
  "Ġnose": 19142,
  "WAY": 41803,
  "phil": 45085,
  "addTo": 50301,
  "ippines": 63906,
  "èµ°è¿ĳ": 114625,
  "ĠReactiveFormsModule": 52671,
  "Ġintegrated": 18250,
  "MAKE": 47082,
  "_SW": 22795,
  "Ġasymmetric": 96829,
  "ĠmM": 83217,
  "_MODULE": 13953,
  "é²¸": 111712,
  ".drawable": 15077,
  "ĠFortunately": 41436,
  "Ġgegen": 34699,
  "ĠCOMMON": 66677,
  "arella": 74931,
  "éĥ½ä¸įèĥ½": 109248,
  "Ġacces": 84095,
  "ContentAlignment": 75956,
  "_DEC": 23773,
  "ĠWol": 29543,
  "è±¨": 121398,
  "serve": 13267,
  "_palette": 66252,
  "iveau": 39219,
  ".patch": 26701,
  "getLocale": 88582,
  "åĦ¿ç«¥": 101939,
  "(wx": 30475,
  "Ġcuk": 92743,
  ".setImageResource": 41913,
  "æ±½è½¦": 100343,
  "=search": 96598,
  "Ġcolle": 14148,
  "+#": 16884,
  "Ġtv": 11086,
  ";?>": 24904,
  "Ġdebacle": 98912,
  "çıŃè½¦": 117069,
  "ä¸Ģå±Ĥ": 105466,
  "Ġdarling": 75645,
  "Ġcaratter": 90650,
  "ritten": 12153,
  "Ġrenewal": 42801,
  "ĠIPC": 45833,
  "Ġsuite": 16182,
  "Ġmeld": 70430,
  ".setOn": 10540,
  "æįĲ": 100586,
  "ĠMenschen": 42786,
  "-neutral": 91222,
  ",re": 38125,
  "ĠKW": 71915,
  "toDate": 79459,
  "Kids": 69433,
  "chaft": 20542,
  "ĠGerry": 90987,
  ".Tele": 86522,
  "æĹµ": 122217,
  "mith": 43674,
  ".githubusercontent": 50927,
  "é£İæİ§": 114248,
  "Ġembell": 71414,
  "\\\\": 3422,
  "shr": 66039,
  "ATIO": 54838,
  "_warnings": 87658,
  "-Le": 46168,
  "Ġerased": 63700,
  "Ġinse": 53582,
  "è¿ĺçľŁæĺ¯": 116172,
  "Ġcamps": 28035,
  "][:": 25091,
  "(scene": 39821,
  "anks": 4039,
  "èµ£": 103453,
  "Coeff": 46802,
  "IRM": 32432,
  "(buffer": 12584,
  "kits": 89417,
  "Ġscatter": 44477,
  ".Floor": 77649,
  "Ġcountry": 3146,
  "_^": 67280,
  "Ġieee": 60055,
  "Ġconvey": 20001,
  "Ġsquarely": 94463,
  "è¶º": 120653,
  "çı°": 120286,
  "wald": 52906,
  "ĠKn": 13620,
  "cats": 37452,
  "rl": 2381,
  "ĠElig": 68024,
  "Ġeveryone": 5019,
  "Aud": 52949,
  "å»¶ç»Ń": 105443,
  "èĦ±åıĳ": 114537,
  "åħ±åĲĮ": 100656,
  "arth": 46501,
  "ĠACTION": 16054,
  "}|": 52398,
  "alive": 50961,
  "å¢ģ": 121353,
  "ä¸ĭéĽ¨": 111926,
  "traditional": 86908,
  "èµĮåįļ": 109099,
  "åº¥": 120200,
  "ĠSteak": 84243,
  "éģĩä¸Ĭ": 110717,
  "hesion": 58638,
  "_copy": 16096,
  "ĠFunding": 63715,
  "Ġconsiders": 31138,
  "ithe": 82756,
  "BIT": 20917,
  "YE": 59644,
  "uglify": 86532,
  "ĠShare": 11775,
  "å¼Ģè½¦": 106308,
  "inherits": 77836,
  "edom": 8769,
  "ä¸ĢçĤ¹çĤ¹": 107342,
  "ĠUrg": 85486,
  "Ġjourneys": 63776,
  "ĠStefan": 48902,
  "izzato": 91838,
  "å½ĵåľ°æĶ¿åºľ": 117666,
  "ceiver": 12862,
  "è£ī": 120804,
  "_strerror": 81444,
  ".have": 33870,
  "Ġberth": 95447,
  "å¹»": 100320,
  "ĠConditions": 31834,
  "ĠPSI": 88178,
  "ĠPetra": 83937,
  "Ġbc": 17916,
  "ĠreloadData": 57847,
  "ĠaddObject": 28723,
  "probante": 87937,
  "Guid": 16686,
  "ä¹ĭåĬĽ": 107690,
  "_cat": 20825,
  "Ġnu": 10908,
  "(move": 34081,
  "çºłçº·": 105222,
  "Ġwomen": 3198,
  "æ§Ł": 118172,
  "ĠInbox": 95579,
  "Ġste": 4087,
  "Ġsmashed": 56420,
  "äºĭä¸ļ": 100701,
  "Ġdied": 8469,
  "_true": 16082,
  "ä¸Ģå¹´çº§": 116907,
  "ĠFloyd": 45799,
  "ĠDangerous": 73032,
  "Ġave": 41638,
  "éĹ®çŃĶ": 111436,
  "lamp": 94757,
  "Ġentered": 10636,
  ".multipart": 90607,
  "Ġkeep": 2506,
  "ĠWeekly": 33014,
  "ĠNSA": 30783,
  "aeper": 73665,
  "(\"//": 29076,
  "è¿ĶåĽŀ": 31526,
  "åĳ¼": 99592,
  "Ġmultiplying": 84192,
  "é»©": 122063,
  "éĩįæŀĦ": 118027,
  ".logo": 57521,
  "_dim": 10791,
  "æĪªåĽ¾": 112183,
  "ĠQUEST": 56728,
  "aton": 23535,
  "Ġpoker": 20814,
  "avor": 3292,
  "okin": 78017,
  "Ġchampions": 33738,
  "-domain": 72794,
  "åŁ¹è®ŃçıŃ": 109158,
  "ĠMarg": 23201,
  "Factors": 97769,
  "Ġrecruited": 44325,
  "_mini": 84821,
  "uiltin": 25628,
  "ĠASP": 48409,
  "Ġimprovements": 18142,
  "æľĪèĸª": 118678,
  "åıįèħĲåĢ¡å»ī": 111519,
  "Ġkings": 44519,
  "_PROPERTY": 26021,
  "_join": 31017,
  "supplier": 39830,
  "Jess": 60663,
  "/*----------------------------------------------------------------": 29865,
  "ossa": 43836,
  "ĠDar": 15017,
  "Ġnaz": 45802,
  "factor": 37591,
  "Ġese": 41818,
  "Ġtowering": 86694,
  "ĠNSStringFromClass": 86361,
  "/********************************************************": 66159,
  "Ġbik": 37545,
  "_CLOSE": 24323,
  "çĸĥ": 121883,
  "ĠSimpsons": 84633,
  "-nav": 16818,
  "éĽ·éĶĭ": 112165,
  "ĠNewport": 58800,
  "(transaction": 44004,
  "hound": 75096,
  "-cmpr": 97971,
  "strpos": 48808,
  "ĠKramer": 89477,
  "venida": 87195,
  "Ġglut": 34069,
  "èµĽåľº": 114630,
  "åħħåĪĨ": 100418,
  "èĮ¹": 113590,
  "Ġdatas": 16879,
  "Ġfed": 22313,
  "achi": 30364,
  "Object": 1190,
  "ĠValueType": 55545,
  "ĠLevels": 52693,
  "Ġinfringement": 53343,
  "(problem": 81281,
  "bcm": 91185,
  ".fixture": 50536,
  "Ġshack": 76290,
  "Ġ\"|": 25203,
  "ĠSchwartz": 64785,
  "_zone": 28692,
  "Ġconverged": 96775,
  "ĠBasel": 89458,
  "Tipo": 31994,
  "ĠapiUrl": 88231,
  "icipation": 76353,
  "èıī": 122777,
  "YLES": 85175,
  "_que": 47342,
  "é«½": 123599,
  "ape": 2027,
  "INGS": 11860,
  "æīĩ": 102741,
  "èĩ¨": 108878,
  "æ¶Īéĺ²": 102148,
  "èĴ´": 121138,
  "æĺ¯éŁ©åĽ½å¨±": 117963,
  "ãĢĹ": 146619,
  "pages": 10781,
  "adir": 41173,
  "]\")": 87282,
  ".RelativeLayout": 96658,
  "GetY": 88300,
  "=lambda": 27504,
  "ATCH": 8884,
  "omething": 11532,
  "run": 6108,
  "Ġusize": 22301,
  "Ġcollide": 66090,
  "ĠDevon": 59334,
  "aler": 13111,
  "Ġattent": 51209,
  "Ġletter": 6524,
  "ĠHIV": 22664,
  ".sa": 53662,
  "Ġconveyed": 72797,
  "Ġreliably": 56382,
  ".arm": 85762,
  "aurants": 33984,
  "ä»ĸä¹Ł": 106133,
  "ithub": 3827,
  "_platform": 34260,
  "perfil": 81071,
  ".CG": 91658,
  "Ġmarin": 89115,
  "therapy": 45655,
  "Ġsubmerged": 84077,
  ".rotation": 23255,
  "Ġunderway": 37099,
  "(MPI": 76840,
  "Ġgiorni": 85730,
  ".Student": 56876,
  "Ġcalculate": 11047,
  "æĿĳ": 99277,
  "ano": 5652,
  "Council": 87834,
  "éĴľ": 122480,
  "Ġonwards": 59425,
  "ĠMAIL": 75384,
  "ĠSecure": 34502,
  "Ġcara": 46934,
  "_portal": 97077,
  "æ°ĵ": 103854,
  "æł¸å¿ĥåĮº": 115312,
  "ĠVERY": 47074,
  "åĸĭ": 120910,
  "\"What": 30337,
  "ĠGlam": 86713,
  "æ³ķ": 24339,
  "Ġresolve": 8830,
  "today": 30113,
  "Ġwarming": 23867,
  "Ġincarceration": 69052,
  "Ġgiver": 94515,
  "Ġoc": 17796,
  "è§Ĩçº¿": 109612,
  "Ġhelper": 13137,
  "Ġfamilia": 50947,
  "ä¸Ģé¦ĸ": 108462,
  "Sh": 2016,
  "ĠDRIVE": 95787,
  "WriteBarrier": 38754,
  "ence": 763,
  "ĠStoke": 83597,
  "-frame": 46767,
  "straint": 4655,
  "Ġsetup": 6505,
  "riott": 66771,
  "Ġmigrated": 72591,
  "æ»«": 121305,
  "æķĳåĬ©": 106298,
  "ä½ĵç³»": 100365,
  "rovers": 12563,
  "NSUInteger": 57922,
  "Ġxpos": 74395,
  "/framework": 81724,
  "ç½ĳå°ıç¼ĸ": 110758,
  "Ġreveal": 16400,
  "Ġlegisl": 14963,
  "çİŀ": 122277,
  ".actor": 41368,
  "éļ°": 121842,
  "MetaData": 37307,
  "forg": 96844,
  "ĠAppeals": 47107,
  "åºĵ": 44956,
  "_Module": 63197,
  "ï¼ģï¼ģ": 31251,
  "Ġdapat": 44117,
  "æ£ĭ": 100530,
  "Ġbabe": 40246,
  "Ġgst": 43769,
  "_RAW": 39922,
  "Ġsell": 4559,
  "Ġinset": 54859,
  "Ġintersection": 19246,
  "_DOM": 30230,
  "_SYM": 82933,
  "BITS": 69542,
  "laughter": 51783,
  "]initWithFrame": 59595,
  "(pair": 39144,
  "translated": 53242,
  "ĠCed": 78513,
  "ĠSydney": 21273,
  "Ġjap": 85185,
  "ĠPointer": 21635,
  "åį±æľº": 102323,
  "ofire": 85482,
  "Ġlandlords": 63629,
  "éķ¿å¤§äºĨ": 115877,
  "åį°åıĳ": 106684,
  "nearest": 69511,
  "æłĩæ³¨": 111066,
  "UTE": 11447,
  "formatted": 49878,
  "ĠReco": 31462,
  "RSpec": 51843,
  "-be": 15150,
  "åħ¬ç½ĳ": 111338,
  ".Time": 16299,
  "Clients": 47174,
  "_Display": 80352,
  "gregation": 34442,
  "=?": 19884,
  "Ġdrip": 72499,
  "assoc": 46877,
  "Ġthrew": 22192,
  "Log": 2201,
  "remark": 37448,
  ".lucene": 76822,
  "éĶĢéĩı": 104598,
  "ĠGri": 62904,
  "pipe": 13768,
  "ierung": 36616,
  "allenge": 15832,
  "Ġsimpl": 15491,
  "å¯Ĳ": 121065,
  "ventus": 66460,
  "Ġbagi": 85650,
  "åľ¨æķ´ä¸ª": 111514,
  "é²ħ": 121258,
  "ç»ıéĶĢåķĨ": 105374,
  "å¹³æĸ¹ç±³": 102244,
  "iddle": 3310,
  "Ġcategorical": 69536,
  "Ġdise": 6621,
  "Ġumbrella": 47898,
  "iam": 4932,
  "URRED": 35260,
  "èĦ¾æ°Ķ": 107929,
  "_lifetime": 98827,
  "ĠCOLUMN": 39023,
  "Measure": 32236,
  "cripts": 24227,
  "åįģå¤ļ": 111125,
  "ehler": 57596,
  "è¿ĳè§Ĩ": 112233,
  "Ġ****************************************************************": 22292,
  "Ġconcert": 20830,
  "agan": 18345,
  "Ġauf": 7219,
  "ĠRiverside": 62841,
  "verbose": 14883,
  ",{": 27837,
  "oyer": 41119,
  "ĠMinerals": 83786,
  "è´«è¡Ģ": 115722,
  "ĠExecutionContext": 85451,
  "Coefficient": 66704,
  "plen": 86535,
  "ĠDial": 66155,
  "Ġ}>": 83287,
  "_FA": 19058,
  "éĽĻ": 106526,
  "Salir": 76634,
  "Ġvolunteering": 69338,
  "reuse": 53049,
  "Ġcurb": 43862,
  "Ġix": 26864,
  "oload": 28112,
  "Ġsoftware": 3162,
  "/sdk": 79760,
  "Ġ?>": 3370,
  "Corp": 94795,
  "Ġfolly": 80689,
  "èµ°è¿Ľ": 104400,
  "\"Some": 94875,
  "_DAY": 43566,
  "ä¸įçĶ¨": 102087,
  "ITY": 3333,
  "ITERAL": 59472,
  "lh": 63045,
  "Ġmetod": 94384,
  "rowCount": 48149,
  "æµ´å®¤": 113051,
  "ĠEstr": 81484,
  "Temporal": 92850,
  ".sql": 10045,
  "Ġsacrifices": 56923,
  "æľīçļĦçİ©å®¶": 116186,
  "Ġlinguistic": 64667,
  "-we": 61341,
  ".enable": 28697,
  "è¿Ļè¯Ŀ": 110346,
  "ivet": 98654,
  "Ġadept": 75488,
  "atas": 19346,
  "ĠRomney": 25318,
  "ĠLingu": 88233,
  "Ġurgency": 53817,
  "Ġett": 26724,
  "vable": 23760,
  ".ReadKey": 60965,
  "åĲ¦åĪĻ": 104420,
  "Ġcasos": 57533,
  "Ġviable": 30428,
  "Widget": 4548,
  "_team": 26532,
  "Ġasking": 10161,
  "_Open": 51747,
  "è¯ĩ": 122254,
  "{}_": 65797,
  "Ġaproxim": 94424,
  "();": 2129,
  "Ġwchar": 41049,
  "fiber": 82945,
  "Ġdisplacement": 43053,
  "Ġopc": 37027,
  "ĠTau": 80085,
  "Under": 16250,
  "åħ¬ç§¯éĩĳ": 112069,
  "_SCREEN": 42399,
  "ge": 709,
  "Ġlasting": 28769,
  "çļĦå°±æĺ¯": 105729,
  "ä¿Ĭ": 104357,
  "ĠDonate": 96202,
  "rece": 53387,
  "æ¨¡åħ·": 108517,
  "rising": 58923,
  "Ġwish": 6426,
  "ĠSpan": 11903,
  "ĠMyBase": 60133,
  "_pow": 56183,
  "Ġpaperwork": 44631,
  "Ġï¼ļ": 30372,
  ".querySelector": 8583,
  "Ġmeasuring": 28990,
  "minimum": 37988,
  "ĠSpec": 10956,
  "Ġedit": 4499,
  "-des": 24506,
  "ava": 2907,
  "(inputs": 33999,
  "_BROWSER": 72500,
  "achs": 86873,
  "ĠCi": 31644,
  "();//": 26074,
  "constructor": 21846,
  "Categoria": 58188,
  "å¶·": 121889,
  "ä¾Ĩ": 99498,
  "=session": 83400,
  "Ġparalyzed": 87868,
  "Ġtroops": 16886,
  "observations": 70384,
  "TexImage": 98602,
  "Locker": 87253,
  "èĪ¯": 122666,
  "Ġaspir": 24663,
  "Ġtapered": 94055,
  "Ġnella": 35922,
  "Ġauctions": 70132,
  ":user": 64280,
  "_delete": 11353,
  "Ġpulver": 70155,
  "æĪĲåĬŁçļĦ": 105651,
  "scribed": 49785,
  ":index": 46088,
  "LTRB": 75592,
  "Ġaprend": 67346,
  "å¾Ģä¸Ĭ": 113694,
  "Ġthumbnail": 28574,
  "manent": 32754,
  "(Bytes": 76423,
  "ney": 3437,
  "[/": 24157,
  "æŀģéĢŁ": 109688,
  "Art": 9286,
  "Ġchurch": 8817,
  "ĠFinding": 42797,
  "killer": 72078,
  "ĠMessageBoxButtons": 31407,
  "Ġifndef": 82290,
  "[M": 39379,
  "Ġcoded": 46673,
  "å¯»æ±Ĥ": 105789,
  "åĲ¸çĥŁ": 111847,
  ".reactivex": 40992,
  "_PEER": 92742,
  "Mary": 41484,
  "Ġchaining": 73662,
  "Ġwomb": 72837,
  "å¯¿": 100523,
  "ä¸Ģå¹´": 100695,
  ")-(": 51356,
  "[r": 16131,
  "æİŀ": 122759,
  "æĳĺè¦ģ": 106208,
  "_CO": 19628,
  "Ġ(('": 92833,
  "pad": 13242,
  "Ġfinalist": 97391,
  "æĩ·": 108429,
  "æĮĩç¤º": 102857,
  "ĠGrocery": 95581,
  "ĠKapoor": 81369,
  "ĠType": 3990,
  "åħ¬å¼Ģè¯¾": 117298,
  "ä»İæł¹æľ¬": 111753,
  "åĵ¥ä¼¦": 115019,
  "Ġit": 432,
  "Ġorn": 39445,
  "ĠPerkins": 64911,
  "ahaha": 73535,
  "ĠMICRO": 86165,
  "èķ²": 121571,
  "_velocity": 39666,
  "opleft": 76252,
  "Ġlexical": 77586,
  ".Infof": 70419,
  "Ġbreadth": 57221,
  "ĠprovidedIn": 44010,
  "TriState": 88195,
  "-less": 54909,
  "Ġoverrun": 84278,
  "menus": 57627,
  "Ġconsists": 17167,
  "ivirus": 57913,
  "ĠNeeds": 43140,
  "Blend": 45000,
  "æŃ¥ä¼Ĳ": 103067,
  ".getBytes": 42162,
  "/buttons": 72180,
  "ï¿¡": 146303,
  "plat": 42339,
  "Linear": 31898,
  "å¸½åŃĲ": 109183,
  "_ex": 2702,
  "èĴŁ": 121135,
  "ä»·åĢ¼éĵ¾": 118240,
  "ouston": 14415,
  "Chan": 46019,
  "Ġhired": 21446,
  "emin": 25684,
  "Ġnymph": 98301,
  "=\"\"\"": 64265,
  "åĵĨ": 119356,
  "åķĨæľº": 110826,
  "æĹıç¾¤": 117893,
  "outube": 10221,
  "ULATOR": 71680,
  "èĪªè¡Į": 114742,
  "Ġ#__": 96807,
  "_Date": 39564,
  "Ġhex": 12371,
  "ĠRoh": 40987,
  "Ġtouchscreen": 76757,
  "ĠprivateKey": 70565,
  "-columns": 73569,
  "%.": 14360,
  "Ġstunning": 19850,
  "ĠIns": 9726,
  "Ġsubsequ": 13085,
  "CodeAt": 53549,
  "Ġcapability": 22302,
  "Ġfavicon": 82804,
  "èį£èİ·": 105809,
  "Ġprobable": 34877,
  "Ġlots": 10077,
  "Ġfreed": 27534,
  "esi": 33083,
  "_gid": 72893,
  "ondo": 34971,
  "åħ¨æĹ¥åĪ¶": 113752,
  "Ġintimidate": 89688,
  "ĠEl": 3984,
  "zs": 40950,
  ";\">": 12350,
  "Ġ\\/": 36815,
  "åħ·": 76813,
  "-N": 11250,
  "ĠCN": 24872,
  "Ġsublime": 70146,
  "ĠBrilliant": 93274,
  "Ġterrific": 42560,
  "çĢµ": 123754,
  "eness": 23709,
  "Ġdiese": 26769,
  "æĺİç¡®": 100692,
  "Ġbooking": 21857,
  "æŃ£å½ĵ": 107331,
  "-multi": 95669,
  "ĠHK": 42217,
  "ariat": 40879,
  "Ġrac": 8971,
  "éĨ¢": 121865,
  "Ġcrumbs": 96577,
  "andatory": 62088,
  "ĠCalc": 34215,
  "(Mock": 66436,
  "arend": 52845,
  "BERT": 61437,
  "ĠDocument": 11789,
  "ATES": 30304,
  "ĠActress": 78439,
  "Ġmutual": 26750,
  "ä¿ĿéĻ©åħ¬åı¸": 107747,
  "ieres": 64488,
  "æŁ¥æī¾": 109547,
  ".iloc": 31968,
  "Ġtensions": 38410,
  "ĠExtend": 70083,
  "atabases": 23822,
  "Ġsidebar": 27226,
  "Ġmulti": 7299,
  "å¸ĤæĶ¿": 106790,
  "presso": 34460,
  "Ġjustices": 70612,
  "Ġupwards": 43954,
  "Ġbrainstorm": 86781,
  "æ¡Ĭ": 122688,
  "RenderTarget": 70747,
  "ordon": 21508,
  "ĠTit": 24016,
  "èĥ¸åı£": 115567,
  "[number": 72787,
  "WP": 25674,
  "æľŁæľ«": 111593,
  ".getActive": 83735,
  "Ġtutor": 25302,
  "ĠShow": 6928,
  "flag": 9903,
  ".grpc": 69612,
  "oth": 8767,
  "airport": 86615,
  "å¡«": 68756,
  "atory": 5269,
  "èĢĮåİ»": 109472,
  "ETY": 68384,
  "Ġpace": 17857,
  "Composite": 41685,
  "Ġtaxable": 58353,
  "Ġchorus": 55810,
  "pcodes": 71719,
  "Accepted": 65906,
  ",UnityEngine": 65432,
  "_any": 37248,
  "ĠDecode": 50194,
  "herits": 38693,
  "Ġthankfully": 75985,
  "Marketing": 67562,
  "æĸ¹æ³ķ": 39907,
  "_cate": 92049,
  "Controllers": 14353,
  "Ġbip": 28878,
  "ĠComputes": 64975,
  "forced": 24246,
  "Ġscipy": 28090,
  "Ġsolving": 21828,
  "ĠPill": 34136,
  "Ġrv": 17570,
  "_attention": 75825,
  "(object": 4397,
  "å¦Ĥæŀľä½łæĥ³": 117645,
  "Ġsubmissions": 36835,
  "ocrin": 90053,
  "ĠMikhail": 91451,
  "Ġcustomize": 31087,
  "å¤Ħç½®": 104776,
  "ç¬¬ä¸Ģä¸ª": 102344,
  "<pre": 10120,
  "ĠDiscover": 32939,
  "Ġhepat": 57159,
  "effect": 26061,
  "Ġirrig": 52005,
  "erequisite": 90375,
  "ĠSD": 8030,
  "Ġpagan": 83802,
  "é²ł": 121647,
  "_aes": 90958,
  "Ġhastily": 93432,
  "Exercise": 52709,
  "(status": 13838,
  "å¤§åĵ¥": 106420,
  "_Exception": 48247,
  "çªĺ": 119444,
  "productive": 33270,
  "Ġprest": 22298,
  "ä¸įäºĨè§£": 112332,
  "fila": 46136,
  ".grad": 41356,
  "ĠQuart": 69084,
  "buffer": 7573,
  "éĩĳéĵ¶": 111506,
  "åĩŃçĿĢ": 115804,
  "ĠGloss": 66042,
  "ä¼Ĭæĭī": 113789,
  "èķ¨": 121565,
  "Ġchildren": 2841,
  "åŃ¦éĻ¢": 101085,
  "å²£": 119881,
  "ç¿¯": 123593,
  "Ġcommencement": 68444,
  "ç¢§æ¡ĤåĽŃ": 113996,
  "è½¦åĨħ": 110101,
  "ĠcontentType": 32103,
  "ĠForced": 83313,
  "ĠBest": 7107,
  "å¯¹çŃĸ": 110634,
  "ĠUserService": 30119,
  "-complete": 74414,
  "$__": 99024,
  "/library": 45446,
  "Ġpitchers": 60550,
  "è¿Ļæĺ¯åĽłä¸º": 109989,
  "é£ı": 122236,
  "ĠKenya": 36666,
  "sep": 28036,
  "ĠPresbyterian": 85364,
  ";k": 34996,
  "ĠLecture": 66972,
  "_parm": 97705,
  "ĠSocialist": 56110,
  "Ġ<<": 1115,
  "Ġageing": 78943,
  "Ġtraffic": 9442,
  ".origin": 20248,
  "_CMP": 83256,
  ".Sync": 92183,
  "Ġauthenticate": 33189,
  "èĪĴå¿ĥ": 119013,
  "all": 541,
  "æĹ©é¤Ĳ": 102589,
  "Ġsincer": 43049,
  ",/": 87682,
  "æīĭæĮģ": 113116,
  "[]\"": 33325,
  "urrencies": 19607,
  "ĠJW": 95476,
  ".TabPage": 43142,
  "ĠMills": 33102,
  "-parse": 85382,
  "Sq": 81015,
  ">{": 7309,
  "incess": 19570,
  "äººä»¬çļĦ": 106818,
  "ĠLebanon": 39271,
  "Ġdoe": 98453,
  "å®ŀäºĭæ±Ĥæĺ¯": 117980,
  "è²ħ": 121248,
  "å±¹": 119306,
  "ĠDtype": 86627,
  "_METHOD": 14058,
  "Fight": 65654,
  ".span": 52869,
  "éŃĦ": 108059,
  "mos": 8631,
  "amber": 15221,
  "Statistic": 93014,
  "Ġsurvivor": 48648,
  "itlement": 45337,
  "-material": 67318,
  "geom": 41916,
  "è¢Ń": 100585,
  "achable": 77283,
  "_TEM": 90617,
  ".AreEqual": 14022,
  "Ġgentleman": 45129,
  "Ġthinner": 64255,
  "IAS": 31822,
  "è¡ĮæĶ¿å®¡æī¹": 115813,
  "ç»ıæµİ": 99346,
  "ĠMobil": 69830,
  "Normalization": 63070,
  "ï§´": 148028,
  "ĠTBD": 72264,
  ".Commit": 53036,
  "ĠhandleError": 68200,
  "Ġscriptures": 86633,
  ")|(": 55178,
  "ĠYoshi": 89642,
  "Ġeuros": 32488,
  "æļ´éľ²": 107047,
  "èĤ¿": 101561,
  "ĠFlower": 42686,
  ">>>>>>>>": 49413,
  "åŀ¯": 122401,
  "Par": 4272,
  "Ġmec": 74778,
  "éĢ²è¡Į": 104514,
  "åĬŀåħ¬å®¤": 104113,
  "Ġuncommon": 40196,
  "Holder": 8589,
  "Ġtw": 4384,
  "Ġmientras": 58594,
  "ĠChain": 28525,
  "_comb": 34454,
  ".He": 51325,
  "ContentPane": 30482,
  "loth": 69552,
  ".showToast": 53836,
  "é©¬æĿ¥": 109122,
  "ĠAK": 30572,
  "Ġable": 2952,
  "Ġentertainment": 16517,
  "Ġsizable": 78098,
  "æ´Ħ": 120225,
  "Ġeldre": 93360,
  "/$": 10749,
  "Ġdress": 8511,
  "ĠSAVE": 50622,
  "æĴħ": 121552,
  "TouchableOpacity": 27067,
  "(['/": 44147,
  "ĠPatriot": 66931,
  "ĠLEGO": 55801,
  "æĢĤ": 119162,
  "ĠCrit": 33207,
  "Ġcongressman": 73488,
  "(delete": 59712,
  "(driver": 24032,
  "AK": 11907,
  "rible": 12280,
  "Ġprobs": 69370,
  "fare": 23051,
  "consult": 48412,
  ".Sign": 41152,
  "consume": 84494,
  "[R": 44987,
  "Ġfetal": 62646,
  "é²Ĺ": 123373,
  "itizen": 93134,
  "mah": 74119,
  "ĠKumar": 40140,
  "ĠFury": 49379,
  "éĽ²": 107458,
  "äºĮä»£": 116479,
  "EOF": 23483,
  "Ġdysfunction": 31303,
  "Ġpitches": 48541,
  "Ġelles": 83468,
  "-static": 49730,
  "oris": 50280,
  "æĪĳè¿ĺæĺ¯": 109230,
  "Ġprerequisites": 85258,
  "ĠToilet": 81894,
  "ĠReading": 17769,
  "ĠThank": 9731,
  "æĢ§å¼º": 111177,
  "Ġimmediately": 7069,
  "æľĢåħĪè¿ĽçļĦ": 118803,
  "Ġcompleted": 8145,
  "èİ«è¿ĩäºİ": 118612,
  "ĠBattles": 70156,
  "ĠNeeded": 56561,
  "Ġstupid": 18253,
  "è´«ç©·": 113327,
  "-away": 89624,
  "ainty": 18271,
  "Ġguts": 64873,
  "Piece": 31209,
  "QRST": 70592,
  "Ġkeycode": 86991,
  ".Unicode": 90549,
  "ĠMelania": 82170,
  "ĠNegative": 50857,
  "åĽ¢éķ¿": 115484,
  "å®¶ä¸Ń": 105633,
  "Ġprospects": 26851,
  "å·§åĲĪ": 116910,
  "Ġharvest": 23429,
  "ç§¯æŀģæĢ§": 103391,
  "Ġtorino": 70443,
  "ĠCONSTRAINT": 93763,
  "è¼ª": 109769,
  "Ġvessels": 29980,
  "ĠAsh": 14595,
  "Ġnatives": 67373,
  "æĮ½æķĳ": 117857,
  "EDIT": 16949,
  "Ġan": 458,
  "èĲĬ": 117458,
  "ä¸Ģæµģ": 101563,
  "ä¿¡ä»»": 102497,
  "Spacing": 27026,
  ".product": 12105,
  "åıįçľģ": 115053,
  "ĠServ": 26224,
  "æŃ¦åĬŁ": 112467,
  "å®Ŀè´µçļĦ": 113013,
  "å¯Įè±ª": 111399,
  "å¾Īå°ĳ": 104599,
  "ĠSwords": 88351,
  "ĠNutrition": 38600,
  ")<=": 65612,
  "å°ĳ": 82647,
  "coma": 81845,
  "Buffers": 36219,
  "ĠBeet": 73949,
  "Stage": 19398,
  "_numeric": 29418,
  "Ġrf": 36026,
  "IRECT": 10206,
  "Ġtourism": 30983,
  "\">$": 59849,
  "ooky": 66724,
  "ĠVaughan": 95148,
  "æ£Ĥ": 120613,
  "Ġadmitting": 54589,
  "ESS": 9996,
  "Ġvolcano": 65206,
  "ç»ļ": 103814,
  "..\"": 37426,
  "cych": 73046,
  "/validation": 97800,
  "åħ¨ç¤¾ä¼ļ": 109638,
  "_occ": 57291,
  "Ġinsulation": 48017,
  "ĠOccasionally": 88326,
  "Ġamen": 29119,
  "(stdin": 69567,
  "_volume": 26941,
  "Ġscan": 8569,
  "antal": 59693,
  "Ġfriend": 4238,
  "Ġadditions": 37214,
  "Ġtransportation": 17903,
  "_PRODUCTS": 79881,
  "çĶ¨å¾®ä¿¡": 117169,
  "éĶĪ": 102825,
  "ĠNobody": 36458,
  "ROI": 71270,
  "IntervalSince": 88974,
  "Ġconsolidate": 73321,
  "edly": 52323,
  "äººæĢ§": 103374,
  ".package": 48628,
  "Ġcondolences": 79193,
  "ĠDispose": 16469,
  "chemes": 66346,
  "äººæ°ĳæĹ¥æĬ¥": 111019,
  "ä¿Ŀæ¹¿": 112724,
  "Ġdryer": 46622,
  "iston": 58819,
  "ĠAsyncTask": 65697,
  "xo": 40822,
  "Ġpeak": 16162,
  "Ġenthusiasm": 35132,
  "arence": 68677,
  "SENT": 30658,
  "Ġchooses": 39911,
  "_COMPLETED": 85674,
  "Ġmotivating": 88589,
  "ĠMarketable": 23058,
  "èĻķ": 101299,
  "ĠMoon": 17330,
  "EMAIL": 35904,
  "å¹¿å·ŀå¸Ĥ": 106805,
  "ĠpageIndex": 59246,
  "ĠPlug": 52809,
  "asant": 15596,
  "Ġrecovered": 25335,
  "éĻĪåĪĹ": 113166,
  "]])": 29616,
  ".preference": 76047,
  "ĠAXIS": 87226,
  "Ġknockout": 76073,
  "Ġgraphic": 20514,
  ".velocity": 25390,
  "æħ¢æħ¢çļĦ": 110596,
  "ĠCY": 29569,
  "Ġliters": 92866,
  "ä¸įæĥľ": 113022,
  "emarks": 36166,
  "ĠCases": 46024,
  "cm": 6226,
  "_CTL": 37537,
  "ĠLie": 21491,
  "ĠSOCKET": 68978,
  "[:,": 9624,
  "å®§": 122712,
  "sPid": 83815,
  "ĠAdministrative": 51841,
  "Ġmeter": 22962,
  "å¹³å®ī": 104576,
  "toLocale": 77385,
  "Ġgoodbye": 46455,
  "Creators": 54522,
  "Visualization": 69036,
  "æ¯ıä¸Ģä½į": 107820,
  "inherit": 12825,
  "åıĳåĩº": 104351,
  "ĠSunshine": 61294,
  "ĠLibyan": 78497,
  "æıĲåĢ¡": 110158,
  "Ġbent": 29180,
  "ĠRestoration": 66825,
  "Ġtheater": 26705,
  "å¤§å¤ļæķ°": 101289,
  "ĠCOURT": 95700,
  "Ġexternal": 9250,
  "ope": 2792,
  "å¢Ļä½ĵ": 113865,
  "ĠExample": 13383,
  "----</": 25457,
  "ĠEnsure": 29279,
  "($(\"#": 36484,
  "Ġbeurette": 81712,
  "phys": 41205,
  "ĠDecom": 96378,
  "-wage": 95876,
  "éĵľ": 102138,
  "ä¸īåįģå¹´": 114264,
  "ĠWifi": 59871,
  "_QUESTION": 93430,
  "Ġattempted": 17201,
  "Ġpoate": 78555,
  "Ġamended": 29911,
  "ĠHampton": 63674,
  "Ġcock": 11272,
  "(from": 17016,
  "Ġlaut": 93539,
  "æľ¬åħ¬åı¸": 104991,
  "ä»ĳ": 103697,
  "Ġdisasters": 50651,
  "ĠCSC": 79676,
  "æİĴéª¨": 118378,
  ".checkbox": 95435,
  "ĠGuests": 61582,
  "(client": 12805,
  "ĠTIFF": 74121,
  "readcr": 12370,
  "ĠPP": 29850,
  "Ġaccessing": 31788,
  "ĠBookmark": 55418,
  "ĠChoose": 22201,
  "çī§": 100534,
  "Ġtoddler": 51235,
  "German": 32079,
  "Ġpropos": 9844,
  "esModule": 30012,
  "igrate": 34479,
  "ifier": 3049,
  "aaaa": 28458,
  "åĩĮæĻ¨": 103200,
  "ï½¬": 144613,
  "ĠBath": 19161,
  "Ġbrings": 12434,
  "Ġsaga": 46303,
  ".assertNotNull": 38722,
  "_vol": 42784,
  "illed": 4374,
  "abra": 43932,
  "missible": 44064,
  "éĿ¢åĲĳ": 104548,
  "URY": 75629,
  "ĠReeves": 81752,
  "ĠPacers": 84537,
  "Ġmashed": 95134,
  "ginas": 78907,
  ".Direct": 89592,
  "_RE": 2192,
  "CDF": 70978,
  "ä¸īå¤§èģĮä¸ļ": 117077,
  "cj": 79446,
  "Ġcrashed": 33753,
  "Ġtimespec": 71156,
  "Retry": 51560,
  "TestMethod": 22928,
  "ĠReplies": 63339,
  "Honestly": 95414,
  "ĠBlade": 35980,
  "Ġservice": 2473,
  "UBY": 84270,
  "èĲ½å®ŀ": 100392,
  "å¯¹æľªæĿ¥": 113756,
  "_VALUE": 7476,
  "Ġkv": 16178,
  "Ġmulter": 80245,
  "-temp": 68190,
  "ĠalignItems": 21716,
  "=>'": 39526,
  "Remark": 48845,
  "ä¿¾": 120434,
  "Ġoffic": 2786,
  "actics": 67969,
  "åĨĴéĻ©": 107658,
  "Ġpacks": 30306,
  "vert": 1621,
  "BUY": 85973,
  "Ġhops": 58118,
  "ä¹°å®¶": 108840,
  "ayment": 6074,
  "çĽ´åįĩæľº": 111996,
  "Ġflying": 16307,
  "Ġhorny": 37207,
  "AllowAnonymous": 99109,
  ".Packet": 93971,
  "Depart": 48941,
  "Ġtokenize": 77651,
  "Business": 22727,
  "ioned": 96557,
  "åĲ«éĩı": 104982,
  ".animate": 37695,
  "++]": 15624,
  "Ġecology": 71446,
  "endar": 5153,
  "Ġnaam": 99105,
  "ĠDemon": 32305,
  "_ALIGNMENT": 78518,
  "instance": 4851,
  "iplinary": 43450,
  "\\\"]": 75104,
  "Ġunderneath": 29356,
  "ination": 2554,
  "Ġpredictions": 19898,
  "ĠremoveFromSuperview": 77180,
  "CESS": 5246,
  "äº²åıĭ": 118146,
  "Presence": 89169,
  "èħ¹": 101317,
  "ï¦ĵ": 148424,
  "è¿Ļå¯¹": 107609,
  ".CV": 98219,
  "Ġamassed": 92150,
  "è¯·éĹ®": 109194,
  "ãĢĲ": 10904,
  "-per": 17018,
  "awns": 39996,
  "@Slf": 73120,
  "Ġfestive": 58837,
  "ĠJObject": 65369,
  ".dev": 21523,
  "å¤§åĬĽ": 100828,
  "ï¦Ħ": 149814,
  ">Welcome": 84668,
  "ĠManit": 53235,
  "ĠKraft": 64560,
  "æµģè¡ĮçļĦ": 111654,
  "ç½ķè§ģ": 109343,
  "Several": 34762,
  "Ġsolves": 67477,
  "-A": 6691,
  "åĨľä¸ļçĶŁäº§": 112949,
  "xaf": 54795,
  "Ġapt": 20095,
  "_coordinate": 68649,
  "è¡¨æ¼Ķ": 104319,
  "Ġmouth": 10780,
  "crop": 34147,
  "ilities": 4298,
  "ĠPik": 61162,
  ")^": 29776,
  "é»ĺ": 99987,
  "è¿İæİ¥": 106748,
  "Ġhonda": 84376,
  "Ġstraw": 30007,
  "expected": 7325,
  "Ġbiome": 83610,
  "ĠBat": 16098,
  "Ġforgotten": 24547,
  "ä½Ĩ": 77288,
  "Ġprematurely": 87919,
  "å¹¶æľª": 105624,
  "ĠWert": 78445,
  "published": 32866,
  "èĲ©": 122963,
  "Ġphoton": 67910,
  "å¥īçĮ®": 105927,
  "undy": 59185,
  "æ¹ĺ": 101351,
  "ToUpdate": 93919,
  "Ġcid": 32141,
  "çľ·": 110846,
  "forces": 48796,
  "Ġvolunteer": 25144,
  "criteria": 20519,
  "éº»æľ¨": 117949,
  "{},": 22655,
  ".textColor": 29960,
  "asc": 5061,
  "ç§£": 120417,
  "gte": 55067,
  "unsubscribe": 90423,
  "ucci": 52369,
  "çķĻè¨ĢæĿ¿": 117612,
  "Panel": 4381,
  "Ġsav": 11179,
  "æĸ°å¨ĺ": 111274,
  "ĠLer": 79840,
  "Ġguitars": 59494,
  "ĠinputFile": 76208,
  "usize": 51878,
  "ĠDipl": 45462,
  "_minute": 76944,
  ".median": 81796,
  "ĠViking": 64350,
  "_letter": 46117,
  "ĠisChecked": 69960,
  ".format": 8021,
  ".sprites": 89351,
  "å°½": 99739,
  "Ġmembers": 3613,
  "çºµåĲĳ": 116348,
  "\"><": 3088,
  "çļĦç¤¾ä¼ļ": 106780,
  "å¤Ķ": 122087,
  "ĠdoPost": 65156,
  "ĠSophia": 70371,
  "é²Į": 123225,
  "ĠVed": 74787,
  "hots": 34413,
  "Ġ\"/\",": 64657,
  "_FORWARD": 64005,
  "ĠMaxim": 55525,
  "éĨĴäºĨ": 115836,
  "Ġsees": 15634,
  "izando": 91858,
  "ä½Ļäºº": 107324,
  ".endTime": 81009,
  ".subject": 33243,
  ".OnItemClickListener": 79827,
  "Ġidentifiers": 47216,
  "Ġpid": 14814,
  "ĠDateFormat": 67857,
  "Ġdemonstrates": 31116,
  "åľ°æłĩ": 112765,
  "Ġprompted": 28646,
  "Ġnervous": 22596,
  "Bu": 59808,
  "ĠVARCHAR": 37589,
  "hoot": 90321,
  "å¨Ľ": 118722,
  "_LEG": 72303,
  "BLOCK": 39964,
  "ĠGenerator": 28358,
  "æĢģåº¦": 102316,
  "ç³¯ç±³": 116878,
  "åķĸ": 120672,
  "Ġearn": 7232,
  "Since": 12549,
  "å¥½äºĭ": 107841,
  ".power": 39545,
  "Ġlords": 89113,
  "_acc": 17737,
  "paging": 72746,
  ".pushButton": 87848,
  "å¦ĩèģĶ": 113181,
  "Ġjacket": 26208,
  "_STOP": 31568,
  "Ġmeanings": 49700,
  "ä¸įåĲĮç¨ĭåº¦": 111379,
  "åī¯ä¸»ä»»": 105260,
  "Ġ-----------": 92586,
  "Ġbins": 28518,
  "ĠvalueType": 96438,
  "ĠlocalStorage": 15566,
  "åĸµ": 116198,
  ";j": 13061,
  "Ġclan": 38462,
  "ĠGavin": 63395,
  "Ġthey": 807,
  "esson": 71405,
  "Ġpe": 1051,
  "ĠSum": 8116,
  "ĠMaj": 30679,
  "ĠJah": 34624,
  "popover": 68842,
  "Ġpurchasing": 22577,
  "éĴ©": 103316,
  "Ġchi": 25798,
  "Ġmindfulness": 70605,
  "ĠChurchill": 57174,
  "istrib": 4789,
  ".mas": 35098,
  "èµĦäº§ç®¡çĲĨ": 109173,
  "ĠReception": 75951,
  "_PUSH": 58811,
  "ĠLak": 47662,
  "Ġgathers": 85681,
  "Ass": 5615,
  "ĠSolar": 24446,
  "theid": 68355,
  "ĠLesser": 13907,
  "çİ°åĩº": 100604,
  "Ġbit": 2699,
  "èį¸": 120307,
  "ĠUng": 91717,
  "jon": 34165,
  "(getApplicationContext": 31567,
  "äºķ": 104097,
  "ç»ıåħ¸çļĦ": 110536,
  "æ´»åĬ¨": 99600,
  ":`": 18736,
  "ĠSME": 78767,
  "Ġrumours": 64925,
  "nette": 78728,
  "Ġæķ°": 47685,
  "sumer": 11761,
  "ackages": 22211,
  "Ġpens": 22601,
  "-datepicker": 58564,
  "Ġshards": 74110,
  "å¤ı": 100039,
  "Ġhvordan": 62159,
  "ĠBal": 19420,
  "WO": 22681,
  "Ġsliding": 33832,
  "AttributedString": 41805,
  "Ġksi": 87527,
  "Ġenn": 60524,
  "ç¨³åĽº": 113433,
  "ĠQuarterly": 74383,
  "pon": 618,
  "_outputs": 35189,
  "argv": 6508,
  "oins": 68798,
  "Ġldap": 67759,
  "(big": 75616,
  "ĠGameController": 96896,
  "åħ¬ç§¯": 103534,
  "Ġdecks": 29781,
  "Ġcampaigners": 93293,
  "(lr": 81599,
  "æĮª": 103477,
  "ĠPartialEq": 55039,
  "ĠMarino": 88266,
  "Ġterug": 89501,
  "stable": 27992,
  "-track": 53466,
  "enic": 55889,
  ".MOUSE": 83507,
  "ĠEle": 25949,
  "ä¹ī": 64559,
  "Ġber": 10207,
  ".getTotal": 63571,
  "ĠSwiss": 29691,
  "ĠqDebug": 34853,
  "Solo": 89299,
  ".defaultValue": 98865,
  "/cs": 91635,
  "æŃ¦åĻ¨": 104729,
  "ĠEspecially": 35525,
  "eler": 7865,
  "éĹ¶": 122238,
  "(point": 20235,
  "Ġbasement": 30641,
  "åĸ·æ¶Ĥ": 118064,
  "Roman": 60980,
  "(en": 45608,
  "Ġdepend": 6761,
  "Ġslug": 24470,
  ".moves": 84516,
  "ĠNug": 58245,
  "Ġvd": 61527,
  "åİ¨": 101434,
  "æĤłéĹ²": 118862,
  "ĠSuche": 79041,
  ".fft": 79899,
  "aa": 5305,
  "ĠDhabi": 72779,
  "ByteArray": 18394,
  "çļĦç¬¬ä¸Ģä¸ª": 111597,
  "æįĥ": 120305,
  "ĠSTA": 88672,
  ".visual": 52597,
  "ĠEstate": 24443,
  "å®¡è®¡": 104537,
  "sim": 14781,
  "Ġgaps": 32151,
  "Ġsilky": 86318,
  "éĩįåº¦": 117364,
  "Gun": 63907,
  "Ġimpressed": 24404,
  "Ġoverview": 23251,
  "é«ĺæ¡£": 108491,
  "çļĦçľ¼çĿĽ": 106975,
  "etto": 52879,
  "éļıå¤Ħ": 115927,
  "volution": 64172,
  "venue": 7140,
  "Multiplier": 66873,
  "_put": 15557,
  "Ġopposition": 13758,
  ".Font": 4356,
  "CppTypeDefinitionSizes": 66344,
  "_utf": 39453,
  "fidf": 80954,
  "bytes": 9651,
  "èĢĥèĻĳ": 101118,
  "ĠPfizer": 96854,
  ".realpath": 76448,
  "èīĺ": 102984,
  "('>": 86558,
  "Ġrevoke": 72038,
  "æľīä¸Ģä¸ª": 104133,
  "å¥¢åįİ": 112714,
  "èįĨ": 103171,
  "ecd": 37206,
  "ssc": 89091,
  "æĬ¥éħ¬": 111633,
  "bout": 72901,
  "#line": 18460,
  "lbl": 31998,
  "+\\": 41715,
  "Ġgratuitement": 91934,
  "Ġprevailed": 84714,
  "dbo": 20852,
  "åĲĪèĤ¥": 102614,
  "_STRUCTURE": 69906,
  ".IndexOf": 32770,
  "ĠPercent": 55348,
  "çŁ¥éģĵèĩªå·±": 109339,
  "Ġairports": 45063,
  "éłħçĽ®": 108117,
  ".Sin": 66055,
  "rop": 887,
  "Ġunveiling": 91488,
  "ĠSR": 20880,
  "ĠRosa": 46830,
  "(el": 18584,
  "ĠKear": 99038,
  "Load": 5879,
  "inar": 13762,
  "Quote": 19466,
  "itta": 45024,
  "Ġdra": 44096,
  "ĠRedirectTo": 26641,
  "Ops": 38904,
  "Encoding": 14690,
  "ĠHector": 88040,
  "KH": 75729,
  "Ġaged": 19749,
  "ĠCyprus": 56684,
  "_Pl": 41609,
  "Ġelm": 42205,
  "ĠCover": 17757,
  "_charge": 46008,
  "publisher": 51191,
  "()<<": 51076,
  "åįĬå°ıæĹ¶": 110070,
  "Ġwalnut": 92629,
  ".hex": 45639,
  "tx": 3998,
  "_BY": 13696,
  "Ġjclass": 76296,
  "lys": 60392,
  "Ġpencil": 46118,
  "éĤĹ": 119554,
  "izoph": 45178,
  "åĬŀçĲĨ": 103990,
  "ĠNapoleon": 69427,
  ".container": 18357,
  "raits": 26287,
  "Ġro": 926,
  "ĠWel": 25006,
  "ĠHDF": 80240,
  "redentials": 15735,
  ".sequence": 46286,
  ".magnitude": 82791,
  "Ġeverytime": 89356,
  "çĶµåĬĽ": 104244,
  "ï¤Į": 148668,
  "Ġowe": 41110,
  "ĠArrest": 71317,
  "estival": 10863,
  "æ°Ķè¡Ģ": 114192,
  "Ġgenerator": 13823,
  "Ġunidades": 94431,
  "opoulos": 56895,
  "çł¹": 120347,
  ":f": 55477,
  "BH": 97151,
  "çŁ©": 100984,
  "UDIO": 21332,
  "ersistent": 13931,
  "Ġoverseas": 24357,
  "CriticalSection": 85687,
  "-me": 33973,
  "eton": 34694,
  "lings": 18812,
  "ĠDETAILS": 76996,
  "ĠDuc": 79773,
  "ave": 523,
  "Ġequivalent": 13578,
  "å¾Ĺå¾Īå¥½": 115816,
  "Ġoperated": 23151,
  "åħ¼ä»»": 115144,
  "'Neill": 87705,
  "æĸĿ": 123012,
  ".DeserializeObject": 50553,
  "Ġnails": 39843,
  "ĠQuar": 92745,
  "æĬĺç£¨": 110844,
  "Ġseals": 56777,
  "ĠExperimental": 56608,
  ".elapsed": 77482,
  "-effective": 52321,
  "Close": 7925,
  "Ġenterprises": 39819,
  "çļĦåıĳå±ķ": 103949,
  "(pass": 39790,
  "Ġmens": 16049,
  "(arc": 91958,
  "ĠHelp": 11479,
  "å®¹": 36629,
  "Ġeing": 48376,
  "ç»ĻäºĨ": 102558,
  "vertical": 15292,
  "ĠARM": 30486,
  "ĠSeeder": 70738,
  "åĽ½éĺ²": 103140,
  "ĠAdjustable": 66728,
  "(re": 5801,
  "mainwindow": 41580,
  ".timing": 98668,
  "ĠXY": 57319,
  "å½±è§Ĩ": 102436,
  "Residents": 93609,
  "çŃĽéĢī": 108732,
  "_MORE": 75131,
  "ĠDzi": 134288,
  "ĠmAdapter": 62876,
  "asking": 70705,
  "_sms": 58567,
  "æłĩå¿Ĺ": 101486,
  "RAND": 79046,
  "Ġsystemctl": 89421,
  ".volume": 40484,
  "DialogTitle": 96453,
  ".sheet": 73897,
  "rawer": 95112,
  "Ġrsp": 42160,
  "ĠAnyway": 41569,
  "Ġclearer": 48379,
  "æī©å»º": 112998,
  "(${": 34812,
  "/grpc": 96047,
  "ĠInsights": 72037,
  "éħįå¤ĩäºĨ": 115736,
  "getRequest": 39397,
  "Ġapologized": 56977,
  "_ISS": 92687,
  "Ġsmall": 2613,
  "Encrypt": 61520,
  "ĠJes": 9066,
  "Ball": 35907,
  ".admin": 18203,
  "Ġcrying": 30199,
  "_RGCTX": 60863,
  "getText": 31298,
  "çĪ±å¥ĩ": 116548,
  "Ġrooting": 86338,
  "Ġassessment": 15449,
  "iverse": 8034,
  "è¼©": 116599,
  "å¡±": 123266,
  "Imagen": 64578,
  "Commission": 73750,
  "Ġdiy": 51338,
  "ĠCharter": 48605,
  "Anne": 77939,
  "å²ģ": 92015,
  "Foot": 41820,
  "Ġproprietor": 91923,
  "_oc": 49648,
  ".jet": 30264,
  "èĭıå·ŀ": 104730,
  "éģİç¨ĭ": 103680,
  "declspec": 56318,
  "pherd": 42531,
  "-round": 21015,
  "Ġure": 52460,
  ".ask": 67705,
  "Ġgentle": 21700,
  "åĮķ": 119298,
  "_neg": 28209,
  "apyrus": 89194,
  ".Messaging": 88969,
  "Ġperseverance": 98741,
  "èģ¯åĲĪ": 117850,
  "ĠBatter": 72918,
  "Functional": 71271,
  "åºĦæĿĳ": 115640,
  "RATION": 54771,
  "ĠINTERNATIONAL": 91411,
  "ĠCertified": 35442,
  "ĠBirth": 35027,
  "Ġheadphones": 43001,
  "çļĦéļ±ç§ģæ¬Ĭ": 111577,
  ".TestCheck": 98549,
  "å·¥ä½ľä¼ļè®®": 110185,
  "FL": 6126,
  "Ġsemble": 96387,
  "æ³ķåĽ½": 104328,
  "æ½¢": 121501,
  "ĠJump": 28788,
  "æł¼æŀĹ": 113244,
  "ĠgetRequest": 78731,
  "ĠWebcam": 46573,
  "(currency": 90475,
  "ees": 5516,
  "åģľè½¦": 101531,
  "æ¶ĪåĮĸ": 105251,
  "ĠButter": 30357,
  "idad": 5845,
  ">Contact": 85380,
  "èī¦": 119233,
  "Caught": 90754,
  "æİ§åĪ¶ç³»ç»Ł": 111825,
  "ä¸»è§Ĥ": 109516,
  "åĪĴç®Ĺ": 114543,
  "ĠonChanged": 55360,
  "äıĿ": 119923,
  "Ġvers": 5436,
  "Ġile": 30805,
  "Ġinfix": 88157,
  "(loop": 64884,
  "cessive": 86628,
  "Ġelem": 11750,
  "Ġlarg": 4053,
  "_Act": 46672,
  "éĵ¶è¡Įä¸ļ": 114493,
  "Ġhalk": 142183,
  "å¼ĵ": 107955,
  "Ġjudiciary": 71875,
  ".printf": 32879,
  "uers": 83425,
  "link": 2080,
  ".linalg": 37732,
  "ĠBreath": 57192,
  "_MAIN": 32276,
  "json": 2236,
  "æ£Ģæµĭ": 101978,
  "äº¿": 53356,
  "Ġfreezes": 93377,
  "è¿ŀçº¿": 116539,
  "å¦¹åŃĲ": 109455,
  "èĲĨ": 122771,
  "IS": 1637,
  "Ġsj": 37436,
  "Ġjel": 84988,
  "çĩĥ": 99986,
  "ĠDistrict": 10942,
  "Ġgamers": 34743,
  "è¿ĺéľĢ": 113290,
  "ĠBLOCK": 28677,
  "enment": 51961,
  "ĠimgUrl": 76083,
  "ĠDEL": 23777,
  "dra": 22248,
  "nahme": 72164,
  "ä¸Ģå°ı": 108223,
  "-before": 69447,
  "ĠListing": 38764,
  "Ġdisrupted": 68527,
  "WS": 7433,
  "Ġpersonal": 4345,
  "æĶ¾ç¼ĵ": 111863,
  "ĠTrail": 18660,
  "çĲĨè´¢": 102447,
  "Classic": 63331,
  "ĠWHERE": 5288,
  "ĠNorwegian": 44621,
  "Mari": 96867,
  "è¯±æĥĳ": 109263,
  "ĠInfragistics": 54902,
  "è½¦ç¥¸": 114785,
  "ĠCody": 57282,
  "åħ¨ä½ĵåĳĺå·¥": 112859,
  "Ġnationwide": 27954,
  "Ġshaded": 91766,
  "Classes": 20077,
  "actice": 33001,
  "éĹľä¿Ĥ": 107287,
  "Ġnp": 2595,
  ".displayName": 44031,
  "-generator": 78002,
  "ç«¥å¹´": 108104,
  "Forgot": 70372,
  "SystemService": 40744,
  "_Att": 81797,
  "Ġfiltered": 18293,
  "Ġcoined": 77618,
  "ĠRMS": 77178,
  "ä¸įå¿ħ": 105622,
  "ĠWebView": 69551,
  "Ġseiz": 33113,
  "ereg": 52633,
  "Ġcryptoc": 20220,
  ".randn": 63006,
  "Ġspeeches": 43340,
  ".Unsupported": 65017,
  "Ġtribes": 38403,
  "(styles": 61772,
  "é¹ł": 123479,
  "Ġ$.": 8672,
  "File": 1703,
  "-oriented": 35085,
  "_SHARE": 68923,
  "Ġsibling": 44223,
  "Ġaggression": 39207,
  "GRAPH": 39984,
  "-custom": 36898,
  ".getB": 72590,
  "_vars": 11168,
  "-distance": 73808,
  "Ġwhisk": 40659,
  "ĠTher": 22450,
  "ĠTORT": 17791,
  "ĠWitness": 48899,
  "ophone": 77203,
  "Ġlifelong": 50163,
  "Selected": 6316,
  "æĭ£": 119099,
  "æŀĺ": 122297,
  "ĠBED": 82264,
  "Ġsistem": 68886,
  "(enable": 93509,
  "æľīåħ³": 101063,
  "Meteor": 96679,
  "strup": 89399,
  "Ġgeographical": 52901,
  "-disabled": 68067,
  "mult": 25875,
  "Ret": 12020,
  "_BUCKET": 74444,
  "Ġfired": 13895,
  "RELATED": 34320,
  "ĠVoices": 82326,
  "Ġintersect": 31796,
  "åıĳçİ°äºĨ": 106546,
  "Ġgeh": 29695,
  "enth": 20684,
  "IODevice": 72425,
  "ĠVARIABLE": 54293,
  "çŀĮ": 121591,
  "ENDED": 44162,
  "}/#{": 95016,
  ".firestore": 50999,
  "ĠLesbian": 52543,
  "Ġadmins": 57095,
  "ĠPlato": 68061,
  "è¿Ļå®¶åħ¬åı¸": 116531,
  "æĻĭçº§": 108760,
  "Ġbusiest": 83508,
  "ation": 367,
  ".INSTANCE": 49473,
  "ĠHaven": 41614,
  "<object": 32264,
  "Angles": 46454,
  "Ġpainstaking": 97613,
  "itto": 86187,
  "asily": 37267,
  "minute": 42557,
  "ĠAntarctic": 79741,
  "çĢ¼": 123753,
  "é¥¿": 103048,
  "Ġrecher": 87717,
  ".partial": 82899,
  "çļĦæĶ¯æĮģ": 106100,
  "unittest": 91005,
  "ä¹¦éĻ¢": 113270,
  "Ġstrained": 72679,
  "ĠHwy": 78977,
  "åħ¬åŃĲ": 106292,
  "Ġworthless": 65021,
  "_AB": 32643,
  "-vesm": 93973,
  "Ġtrunc": 62850,
  "AGR": 81156,
  "çļĦå®īåħ¨": 106552,
  ".session": 10177,
  "å¤§çģ«": 112668,
  "ĠInterested": 76262,
  "æī«": 99864,
  "æĳĨ": 100805,
  "åĩ¡": 100216,
  "æĭħå¿ĥ": 102142,
  "ĠTrump": 3339,
  "åĪ»": 99483,
  "ixel": 5941,
  "_integral": 64076,
  "uje": 33867,
  "classnames": 55113,
  "_readable": 91232,
  "ĠShips": 73532,
  "Georgia": 60953,
  "(#": 32735,
  "_First": 79790,
  "èĤ¤èī²": 115010,
  "Ġderp": 66391,
  "Ġslavery": 32692,
  ".vertices": 22470,
  "ĠTensor": 26036,
  "Ġconfronted": 40682,
  "Ġsanctions": 23746,
  ".Meta": 58806,
  "enerative": 74889,
  "ĠTheft": 60999,
  "vak": 53621,
  "æ¾Ī": 103617,
  "_gem": 87135,
  "Ġversatile": 31945,
  "çļĦå®ŀéĻħ": 108081,
  "äº§": 51232,
  "Ġsai": 71632,
  "ç»ıçºª": 103234,
  "trinsic": 45002,
  "Ġyouthful": 64555,
  "Ġinnate": 63970,
  "æĥ³æī¾": 116405,
  "ĠLiving": 18539,
  "Ġserialization": 47443,
  "åı¦è¡Į": 113547,
  "ĠforKey": 18091,
  "ä¿Ŀé²ľ": 115951,
  "_E": 2089,
  "(center": 41516,
  "çŃĢ": 123042,
  "å¹´åĲİ": 106649,
  "ĠLot": 21755,
  "NavigationItemSelectedListener": 98767,
  "been": 81750,
  "__[": 66190,
  "æĹİ": 120760,
  "_WATCH": 96009,
  "ASON": 35304,
  "(predictions": 90177,
  "ã«°": 122803,
  "åĩºè¡Į": 104434,
  "ĠPoster": 62386,
  "çĶŁåĬ¨": 106267,
  "æĶ¿çŃĸ": 100138,
  "Ġpigment": 76578,
  "Hands": 95439,
  "Ġvile": 80214,
  "çī¹æľīçļĦ": 109169,
  "ĠRJ": 76304,
  "Ġhoje": 73158,
  "_ylim": 67646,
  "_property": 16638,
  "fleet": 72698,
  "ĠEen": 56418,
  ".Vertex": 72594,
  "Cl": 5066,
  "ifty": 38624,
  "çĢıè¦½": 103257,
  "Ġkwargs": 16494,
  "ĠArgumentNullException": 29335,
  "Clientes": 81872,
  "æ°¸éģł": 118880,
  "çŃ¢": 121237,
  "åħīä¼ı": 102755,
  "ä¼ĹçĶŁ": 107901,
  "Ġimagine": 12793,
  "å¤§è¿ŀ": 105229,
  "Ġ//.": 63029,
  "Ġkako": 90517,
  "ĠToast": 9609,
  ".controllers": 51142,
  "ounced": 19453,
  "éļ¾å¿ĺ": 110586,
  "ESP": 56229,
  "Subtitle": 73622,
  "ĠPOLITICO": 98439,
  "çºªå¿µç¢ĳ": 118929,
  "stack": 7693,
  "(\"--": 21549,
  "Ġsneak": 44164,
  "Hist": 63057,
  "Ġbubbles": 43683,
  "Ġdelighted": 33972,
  "Ġply": 38573,
  "clerosis": 90611,
  "ï¾ĥ": 144463,
  "Ġdou": 24576,
  "èģĮåľº": 107546,
  "Evaluation": 82363,
  "èĬ¬åħ°": 118846,
  "duto": 27943,
  "_ATTRIB": 99043,
  "/z": 31082,
  "ĠdestinationViewController": 91471,
  "ĠCum": 31578,
  "åĩºèµĦ": 105973,
  "Ġtob": 24406,
  "checkbox": 10263,
  "Ġtransplant": 42829,
  "Ġ${(": 62067,
  "è°¥": 121073,
  "_RSP": 85642,
  "æ½Ń": 102740,
  "(chart": 62480,
  "Ġdating": 4924,
  "RAP": 59446,
  "Ġscand": 54292,
  "Ġ........": 45096,
  "subscriptions": 72560,
  "ĠdictionaryWith": 84748,
  "Ġgenomic": 79964,
  "Selective": 64392,
  "Ġvr": 36100,
  "_INTERFACE": 31561,
  "<GameObject": 53164,
  "ĠBrexit": 23907,
  "bild": 60365,
  "Ġ'../": 4927,
  "Ġoasis": 85710,
  "éĹ®": 56007,
  "locator": 68033,
  "Alive": 32637,
  ";]/": 90838,
  "<": 27,
  "å°ª": 122210,
  "_smooth": 71655,
  "ĠAllison": 62408,
  "Ġgratis": 7126,
  "eneric": 3469,
  "æĳ©": 100487,
  "Ġharms": 83396,
  "/desktop": 97579,
  "results": 8074,
  "Ġmerch": 21733,
  "(Call": 55224,
  "ĠGujarat": 61853,
  "Ġkafka": 67852,
  "igid": 20926,
  "æĸ°çīĪ": 112979,
  "esses": 64870,
  "latin": 60085,
  "ĠRitch": 96882,
  "Ġponds": 88355,
  "ampil": 51628,
  "ĠLeon": 20932,
  ".mov": 78485,
  "ĠSpar": 69806,
  "éĩįéĩı": 106102,
  "Ġbasketball": 19240,
  "Ġfaut": 45990,
  "coration": 26452,
  "åı¦ä¸Ģè¾¹": 118617,
  "ĠAugustine": 73465,
  "Ġfilament": 90780,
  "ĠTillerson": 74180,
  "çĽ¸ä¼ł": 113135,
  "æĩĴå¾Ĺ": 117198,
  "ĠEmily": 34166,
  "ĠRTC": 35047,
  "ĠOral": 53401,
  "ä¼ļè®©ä½ł": 109057,
  "ĠEstimate": 72715,
  "Ġsampled": 48876,
  "outes": 5495,
  "prenom": 66348,
  "Ġmuscle": 15747,
  "æ·±åĪ»": 101295,
  ".removeFrom": 84204,
  "ä¸¾è¡ĮäºĨ": 112294,
  "é¥·": 120195,
  "_value": 3142,
  ".rating": 48659,
  "å¤ªå¤ļçļĦ": 108821,
  "è¯ĪéªĹ": 106037,
  "Ġnossa": 76739,
  "åīįå¾Ģ": 104374,
  "ä»Ĥ": 119545,
  "RCT": 74836,
  "çĥŁèįī": 114549,
  "ĠPuerto": 30219,
  "essen": 38809,
  "iber": 8629,
  ".FIELD": 62180,
  "arsers": 40488,
  "-tank": 95028,
  "ORG": 44927,
  "éĢĤçĶ¨": 105255,
  "Ġmorning": 6556,
  "cio": 60830,
  "æ¯ģ": 100882,
  "xef": 47510,
  "zure": 50203,
  "rightness": 36630,
  "çĶ¨å¾®ä¿¡æī«": 117170,
  "åĶĲå®ĩ": 118431,
  "æľ«": 100072,
  "(&_": 49038,
  "æľ¦": 103805,
  "langs": 63917,
  "Welcome": 13936,
  "åĽ½åº¦": 111707,
  "Ġ{": 314,
  "Ġinteg": 5388,
  "Ġfrivol": 95424,
  "åĲĦ": 99200,
  "etri": 93123,
  "InProgress": 88711,
  "Sphere": 42959,
  "_assets": 53299,
  "ĠStunden": 80544,
  "_signals": 76698,
  "ä¼łç»Łäº§ä¸ļ": 117477,
  "CENTER": 78450,
  "Ġdestined": 50587,
  "(fetch": 53372,
  "Ġvez": 20563,
  "Ġinh": 59437,
  "column": 6229,
  "Ġbal": 9642,
  "Ġitching": 84975,
  "æķ°éĩı": 81800,
  "éĥ¨éķ¿": 101662,
  "\\modules": 50152,
  ".Light": 50791,
  "desired": 82782,
  "grand": 52666,
  "èķ´åĲ«": 113250,
  "_writer": 28908,
  "ect": 439,
  "éĺ¿å¯Įæ±Ĺ": 116662,
  "ĠGree": 20422,
  "ĠDESIGN": 67243,
  "Dropdown": 24975,
  "(resultado": 95843,
  "Ġjdbc": 85902,
  "Regional": 89807,
  "Ġgiorn": 59010,
  "Ġrepmat": 79339,
  "trys": 39607,
  "ĠHag": 66539,
  "ĠNetflix": 22642,
  "ĠWealth": 59741,
  "ordan": 13396,
  "Ġamalg": 89765,
  "Ġpaciente": 72412,
  "Ġflags": 8042,
  "-bars": 82827,
  "ĠFantastic": 56938,
  "TP": 4239,
  "-License": 36479,
  "ĠPlaza": 40307,
  "Ġtentang": 92064,
  "Ġclearance": 35554,
  "hon": 81549,
  "Ġmocking": 66483,
  "Free": 10940,
  "æ£Ģä¿®": 112438,
  "ä¸ºèĩªå·±": 107138,
  "ç¾§": 121284,
  "curl": 19925,
  "ĠReferentialAction": 58770,
  "ĠHyde": 64339,
  "Ġhockey": 26953,
  "æģ¶åĮĸ": 112115,
  "_profile": 13789,
  ".Equal": 12808,
  "è¯´æĺİä¹¦": 112645,
  ">O": 78844,
  "ĠECC": 77316,
  "CancelButton": 81921,
  "èĤļ": 102766,
  "olph": 42970,
  "Ġmodelling": 60866,
  "ĠAv": 7519,
  "èĹĲ": 119510,
  "(canvas": 36206,
  "Ġpepp": 82704,
  "ĠMODIFY": 69665,
  "robat": 75101,
  "route": 8966,
  ".Fragment": 18825,
  "ĠSP": 9256,
  "ĠEFI": 39082,
  "GRE": 57063,
  "å«Ħ": 123277,
  "ĠVer": 6250,
  "abee": 79112,
  "åĨľçĶ°": 110377,
  "Ġwards": 77151,
  "Ġminim": 21187,
  "ä¸įæĽ¾": 113412,
  "Ġdischarged": 56091,
  "ĠAssuming": 63964,
  "ĠAve": 21294,
  "Ġfestivals": 44417,
  "Ġaccused": 13185,
  ".attributes": 26140,
  "aset": 5028,
  "lications": 10709,
  "è³º": 117201,
  "<Color": 88827,
  "Ġpaused": 34495,
  "Ġdishwasher": 60333,
  "åıĳè¡Įäºº": 109681,
  "ĠLima": 61953,
  "DataBase": 82787,
  "åĬłä»¥": 105922,
  "Ġwilderness": 48262,
  ".JLabel": 17187,
  "Cases": 37302,
  "Ġweakest": 80763,
  "ç¬ŀ": 120723,
  "å±ĢéĿ¢": 101689,
  "blink": 54316,
  "Ġdurable": 26128,
  "ĠuseDispatch": 39894,
  "æŁĿ": 120065,
  "DNS": 61088,
  "ĠActionController": 73452,
  ":\")": 90220,
  "Ġsynchronized": 21466,
  "etary": 15859,
  "\\L": 75138,
  "ll": 654,
  "jerne": 75347,
  "ĠGermany": 9856,
  ".students": 91435,
  "Sanders": 82780,
  "Ġreceptions": 80193,
  "Ġ)[": 74029,
  "èĪ¾": 123052,
  "BBC": 66755,
  "Ġmythology": 58392,
  "cores": 7701,
  "ç®¡çĲĨå±Ĥ": 110552,
  "ĠFRE": 62606,
  "Ġdisciple": 83695,
  "}s": 60618,
  "åĪĺæµ·": 115810,
  "Ġdynamic": 8741,
  "ĠScene": 17494,
  "sink": 66738,
  "å¦Ń": 122373,
  "ĠLionel": 83124,
  "Ġindustry": 4958,
  "Suit": 62898,
  "éľĢ": 58362,
  "ä»ĺæ¬¾": 106554,
  "Ġç¤ºä¾ĭ": 80426,
  "éķ¿åº¦": 98402,
  "count": 1830,
  "ir": 404,
  "pics": 73457,
  "çħ§æĺİ": 105865,
  "Ġfactory": 8633,
  "å¹£": 115136,
  "éĻĲæĹ¶": 118167,
  "Ġcreativity": 27597,
  "Ġskeptical": 43829,
  "Ġcorrosion": 55388,
  "ĠBulk": 60920,
  "cheiden": 98975,
  "Ġcoder": 83542,
  "ä½ĻåĲį": 108613,
  "ĠRaj": 25225,
  "ç§»åĪ°": 98279,
  "Ġhave": 614,
  "ĠHispanic": 40885,
  "çģµéŃĤ": 102978,
  "rv": 10553,
  "cos": 9407,
  "Ġgrues": 75057,
  "avicon": 27921,
  "alg": 23881,
  "æ¨¨": 121733,
  "è¿«ä¸įåıĬå¾ħ": 117767,
  "Destroyed": 85742,
  "Ġtown": 6290,
  "STRUCTION": 57455,
  "ĠWorse": 86804,
  "Ġperpetrated": 92330,
  "_pre": 10442,
  "_CH": 6466,
  "_losses": 66162,
  "Ġorganisers": 90460,
  "åģļä¸ª": 111115,
  "WRITE": 32781,
  "åįģåĩłä¸ª": 117982,
  "(next": 16913,
  "Ġresponsive": 25988,
  "Ġstaying": 19429,
  "é¼İ": 104737,
  "Ġfiles": 3542,
  "ĠSchwar": 65764,
  "è¡Įé©¶": 106019,
  "HeaderView": 79894,
  ".feed": 44583,
  "äĥİ": 123329,
  "DSL": 82853,
  "Ġsparking": 98982,
  "Ġdetects": 66478,
  "é£İæľº": 110279,
  "=key": 86582,
  "Ġtack": 13870,
  "ĠApprox": 43819,
  "Ġwhatever": 8820,
  "Ġdps": 94029,
  "ĠPlate": 30303,
  "Ġcorrelations": 68816,
  "ellipsis": 71922,
  "æĮģæľīäºº": 116663,
  "ĠDestiny": 50397,
  "-sale": 57537,
  "ffield": 53239,
  "Ġgloves": 35416,
  "ĠAllocator": 80332,
  "ĠYamaha": 58435,
  "AndWait": 92812,
  "Ġrake": 75418,
  "ĠSms": 95389,
  "Ġend": 835,
  "Ġbroken": 10865,
  "æ¡Į": 100299,
  "è´¢æĬ¥": 111772,
  "Ġunconscious": 39611,
  "Ġsegue": 36770,
  "_ALARM": 87735,
  "Ġobjeto": 35543,
  "TouchListener": 79848,
  "Selectors": 96995,
  "_tot": 36138,
  "èıħ": 120602,
  "Ġscreamed": 60366,
  "Ġairborne": 69763,
  "Persistence": 71562,
  "_ROUND": 78519,
  "æ¼¤": 123396,
  "ercicio": 47000,
  "Diese": 80515,
  "éĤ¿": 122281,
  "çĬ¨": 123745,
  "=?\",": 87873,
  "æ¶Īè´¹åįĩçº§": 116444,
  "_STRING": 12283,
  "ĠInjection": 53811,
  "ĠstartY": 61702,
  "(xpath": 60672,
  "ĠLSB": 93310,
  "Stretch": 53898,
  "plorer": 79825,
  "Ġquando": 29705,
  "addWidget": 36805,
  "åĺŀ": 121407,
  "çķľçī§": 103671,
  "ĠKong": 18211,
  "uten": 13160,
  "merc": 64422,
  "ĠstatusBar": 90120,
  "uciones": 66247,
  "ä¸ĩåįĥçĵ¦": 115317,
  "Courtesy": 77039,
  "ĠVAT": 47592,
  "Ġpres": 1652,
  "Ġjoys": 93798,
  "ä¸įä¼ļåĨį": 114534,
  "/import": 87284,
  "ĠIncome": 32520,
  "çº§": 52334,
  "Ġwholesome": 87218,
  "å©¶": 118504,
  "ç£²": 121741,
  "ĠMim": 91846,
  "-content": 6808,
  "CartItem": 97975,
  "è¿ŀè½½": 114366,
  "pel": 47524,
  "Impossible": 89655,
  "_aligned": 66385,
  "Obama": 44337,
  "Ġbron": 29971,
  "Ġrighteousness": 70229,
  "åĻ«": 121768,
  "iare": 95186,
  "Ġfires": 26084,
  "èıĢ": 120603,
  "automation": 67080,
  "Db": 7994,
  "çŃīå¤ļä¸ª": 108211,
  "ĠapiKey": 44924,
  "ã³¬": 151430,
  "Ġsustaining": 79084,
  "quote": 2949,
  "_Comm": 59452,
  "*q": 60564,
  "ĠBoyd": 62621,
  "Ġgears": 53160,
  "è´Ńç½®": 109664,
  "(tid": 83519,
  "(startTime": 88090,
  "ĠPhpStorm": 43881,
  ",SIGNAL": 86796,
  "ĠWhile": 5976,
  "Ġroutinely": 38976,
  "ĠFriedrich": 79374,
  "ĠApartments": 66551,
  "_Api": 91128,
  "åĶ®ä»·": 107249,
  "(\"================": 90204,
  "ĠScrew": 72175,
  "_gt": 37479,
  "Clean": 27529,
  "ĠTech": 17374,
  "Ġnewcomer": 87305,
  "è½µ": 122450,
  "ĠSOLD": 83151,
  "éĵº": 100816,
  "Ġping": 29998,
  ".Qu": 33907,
  "_APPLICATION": 54206,
  "å·¯": 121080,
  "æĶ¿åįıå§Ķåĳĺ": 110933,
  "è´£ä»»å¿ĥ": 116763,
  "Ġpossono": 81018,
  "Ġpupil": 59972,
  "åıĥèĪĩ": 110368,
  "Ġkun": 23330,
  ".cast": 35091,
  "LOCATION": 34224,
  "Ġcontiene": 80433,
  "é½Ĳåħ¨": 106978,
  "ĠChatt": 78213,
  "oolStrip": 10094,
  "(customer": 39321,
  "ĠDas": 19000,
  "Detection": 54817,
  ".byId": 93781,
  "Ġemulate": 65485,
  "ilar": 3569,
  "ĠSHA": 21721,
  "(_)": 48139,
  "çİĭåħĪçĶŁ": 116741,
  "çł«": 122608,
  "ĠBrid": 31337,
  "SION": 12202,
  "Peter": 36559,
  "(integer": 87414,
  "Ġanimals": 9898,
  "essages": 3737,
  ".Interfaces": 28159,
  "ĠDecrypt": 89146,
  "CLEAR": 90349,
  "Ġascend": 75312,
  "Flying": 93800,
  "ndef": 5037,
  "è½¬ç§»åĪ°": 114278,
  "-chart": 44627,
  "Ġnou": 19547,
  "å¹´ä¸ĬåįĬå¹´": 109087,
  "ĠTransmission": 47025,
  "Ġexecut": 23494,
  "ĠPhilippe": 66854,
  "Ġsaves": 25935,
  "_digits": 41432,
  "Ġempire": 31347,
  "æī¾ä¸įåĪ°": 106486,
  "=\"_": 13010,
  "Ġ(*)(": 74794,
  "useRalative": 88372,
  "cmc": 94866,
  "std": 1834,
  "Ġinterpret": 14198,
  "Ġconcentrate": 36355,
  "å¾Īå¥½çļĦ": 104528,
  "ĠCyr": 47315,
  "Studio": 31377,
  "Ġ************************": 54176,
  "Ġexposure": 14338,
  "Ġpopul": 31749,
  "Ġweekly": 17059,
  "_Data": 17817,
  "ĠSteelers": 50455,
  "è´¨éĩıåĴĮ": 111323,
  "æľ¬æĿ¥å°±": 112706,
  "ĠBengal": 49020,
  "Ser": 31745,
  ".']": 98758,
  "Ġlady": 16820,
  "oque": 60552,
  "GreaterThan": 85720,
  "æī§ä¸ļ": 110809,
  "Football": 86323,
  "_axis": 23567,
  "!\")": 88783,
  "æ²¹èĢĹ": 113255,
  "è§Ħæ¨¡": 100176,
  "ĠINFORMATION": 44513,
  ",H": 43539,
  "çĭ¯": 120188,
  "è±¬": 117119,
  "å¯Ĵ": 100718,
  "ĠRTAL": 76160,
  ".ico": 39186,
  "_intf": 91290,
  "ĠGram": 28837,
  "å¤ļå¹´æĿ¥": 105991,
  "Ġcharms": 80650,
  "å½©ç¥ŀ": 118647,
  "ĠBannon": 54165,
  "ĠPhilippine": 56181,
  "Ġgsi": 96970,
  "ject": 583,
  "Ġprogram": 2025,
  "ĠPract": 17891,
  "é«ĺæ½®": 109904,
  "ided": 4490,
  "Consult": 59755,
  ".methods": 42913,
  "Expired": 54349,
  "èĻ¾": 102775,
  "èĬ±èįī": 116148,
  "_go": 25515,
  "terminated": 68659,
  ".getNext": 54352,
  ".Command": 12714,
  "Segment": 21086,
  "Ġremorse": 78057,
  "_NEXT": 39987,
  "æĻ«": 123004,
  "paired": 76167,
  "åĲ¯": 68396,
  "(pop": 40148,
  "/reg": 86858,
  "Ġtrembling": 91988,
  "))/": 30085,
  "imson": 45445,
  "Ġlng": 24820,
  "Ġlovely": 16690,
  "assist": 50966,
  "Ġaftermarket": 89892,
  "ISIBLE": 16569,
  "thest": 60843,
  "Ġcustody": 24492,
  "æ¬§": 99831,
  "çİ¯å¢ĥåį«çĶŁ": 114741,
  "idth": 1104,
  "ï¤ĵ": 149119,
  "Redux": 76364,
  "Ġsurveillance": 21440,
  "enzyme": 64628,
  "è·¯åĨµ": 118624,
  "Ġts": 10591,
  "ï¼Ŀ": 133972,
  "ĠRandy": 45215,
  "Ġpowers": 13430,
  "can": 4814,
  "_redis": 87542,
  "_SUB": 17282,
  "ä¸ºä¸»é¢ĺçļĦ": 111997,
  "Pawn": 85313,
  "Ġvan": 5242,
  "å¥³çĶŁ": 104535,
  "Ġdiffer": 1745,
  "Ġyouths": 63962,
  "çļĦéĥ¨åĪĨ": 107625,
  "Eff": 46588,
  "levation": 43757,
  "LINE": 8265,
  "èĲ¥ä¸ļæĶ¶åħ¥": 107807,
  "éľĩèį¡": 107141,
  "æĦŁåıĹåĪ°": 105322,
  "#create": 78037,
  "Ġquilt": 60736,
  "-mounted": 77730,
  "izont": 6186,
  "æ®¿åłĤ": 118916,
  "ĠShade": 79818,
  "/is": 46427,
  "elog": 50571,
  "ĠRemove": 10783,
  "ctal": 93981,
  "Ġnailed": 74874,
  "Ġprocurement": 52578,
  ".match": 11072,
  "(make": 36944,
  "Ġnuts": 29949,
  "SQ": 64308,
  "è³¼è²·": 115090,
  "Ġfilename": 3899,
  "ĠXV": 52594,
  "æ¯ĶåĪĨ": 107906,
  "ĠISA": 84290,
  "todos": 49188,
  "ä»Ģä¹Īæł·çļĦ": 104889,
  "(DATA": 59093,
  "Ġoutline": 21101,
  "ĠAxes": 89704,
  "mium": 50218,
  ",target": 68522,
  "Recorder": 47023,
  "åĩĺ": 123384,
  "ĠAerospace": 80865,
  "è´©åįĸ": 116141,
  "ij": 3172,
  "Ġscroll": 9059,
  "Ġreflected": 25911,
  "Ġimposes": 87281,
  "Ġmodne": 80271,
  "è¿ĺæĺ¯è¦ģ": 106720,
  "æĭ¿ä¸ĭ": 106563,
  "å·²è¾¾": 112296,
  "-ticket": 93222,
  "_transactions": 68182,
  "Ġvmax": 77015,
  "_buff": 29328,
  "cccc": 55597,
  "setting": 15320,
  "ubit": 59220,
  "loading": 10628,
  "Ġbd": 21486,
  "åĪ³": 119847,
  "lena": 48021,
  "extracomment": 75513,
  "xAE": 89728,
  "Ġerotiske": 65653,
  "=\"<<": 80476,
  "Ġunders": 25373,
  "Glass": 84003,
  "Ġfurnace": 54464,
  "Ġtoughest": 59306,
  "ĠAuthentic": 46367,
  "ĠBarclays": 88745,
  "Ġphi": 22693,
  "åºķéĥ¨": 108304,
  "ĠYuk": 57663,
  ">)": 9231,
  "èİľ": 120312,
  "ĠZoo": 40860,
  "(':',": 96580,
  "air": 1310,
  "è¿ŀè¿ŀ": 113093,
  "-camera": 71944,
  "ĠCAN": 19508,
  "ĠSubset": 73223,
  ".unshift": 51161,
  "draul": 30338,
  "chair": 34196,
  "ä¸»ä½ĵ": 101273,
  "ĠMorse": 86239,
  "ĠHelping": 90701,
  "Ġcounseling": 41216,
  "å·¥ä½ľä½ľé£İ": 115959,
  "patches": 96878,
  "ĠIv": 33483,
  "Dou": 91641,
  "ĠMerge": 40085,
  "Ġgov": 47625,
  "åħ³èģĶäº¤æĺĵ": 111918,
  "Ġgaming": 15833,
  "ĠHu": 21793,
  "when": 9309,
  "è®¿è°Ī": 108180,
  "èĥĸ": 101484,
  "Ġalignments": 92816,
  "(article": 50948,
  "keypress": 60406,
  "ordion": 25711,
  "åĹĦ": 121188,
  "isti": 61517,
  "otify": 37253,
  "ĠKo": 29317,
  "ĠMilf": 51558,
  "æ²Ĳ": 103303,
  "Variant": 20746,
  "Ġcrc": 37180,
  "idia": 86700,
  "ĠDominic": 67034,
  "GREE": 98562,
  "é²¿": 123643,
  "FUNC": 41792,
  "Ġcuck": 62179,
  "ĠBigDecimal": 20618,
  "å½ĵæĻļ": 112351,
  "ULATE": 79223,
  "_finder": 87402,
  "Ġdenote": 78064,
  "æļĩ": 116435,
  "Lake": 81289,
  ".managed": 99052,
  "Ġausp": 89096,
  "å±ĬæĹ¶": 109104,
  "sb": 16892,
  "$MESS": 39869,
  "Ġchemotherapy": 61630,
  "(strlen": 45638,
  "PRESENT": 74799,
  "éĿ¬": 122956,
  "Ġdelight": 17970,
  ".booking": 91313,
  "Ġeventos": 72394,
  "Ġcar": 1803,
  "oby": 27015,
  "è´´è¿ĳ": 111892,
  "Notification": 11196,
  "Putin": 67686,
  ".DELETE": 58931,
  "Ġdoctoral": 73557,
  "å¯¹åºĶçļĦ": 110019,
  "PackageName": 65655,
  "Ġleast": 3245,
  "ĠsetDefaultCloseOperation": 89017,
  "æ¯ıä¸Ģä¸ªäºº": 111280,
  "Ġdisappearing": 66403,
  ".currentTime": 21184,
  "æĶ¹ç¼ĸ": 109755,
  "ĠConnecting": 83938,
  "_VOLUME": 60371,
  "ĠFinish": 35533,
  ".concat": 15256,
  "ä¸įå¾Ĺè¶ħè¿ĩ": 118432,
  "æĺ¯ä¸ĢåĲį": 110124,
  "ĠIrish": 17623,
  "Align": 10069,
  "ucket": 11152,
  "pizza": 92438,
  ",left": 83925,
  "ografia": 49801,
  "ug": 768,
  "IZE": 3282,
  "æŃī": 101698,
  ".commit": 15728,
  "ĠShirley": 75237,
  "Zero": 17999,
  "-building": 51399,
  "è·ª": 107296,
  "Ġpoisonous": 73408,
  "Ġsignage": 79080,
  "å¿«éĢŁ": 101098,
  "çĶ¨åĬĽ": 108312,
  "Ġvenue": 21434,
  "å®īå®ģ": 114219,
  "Ġatheists": 78525,
  "åį¯": 115501,
  "linux": 14210,
  "Ġsnakes": 56096,
  "çºªå§Ķ": 102973,
  "Ġseeds": 19056,
  "_FRE": 73183,
  "Ġimpe": 35026,
  "carbon": 73341,
  "ivas": 38824,
  "ĠTrek": 30471,
  "åĿĭ": 122191,
  "Ġhn": 95238,
  "Ġeducators": 49694,
  "æ¯ıå¹´éĥ½": 114153,
  "åįıè°ĥ": 102020,
  "Ġstandards": 10659,
  "Ġforwarded": 52246,
  "cpu": 16475,
  "************************": 13439,
  "vfs": 82586,
  "Ġpremium": 14848,
  "EXPORT": 30406,
  "Ġindexes": 24953,
  "ĠUh": 68049,
  "Ġabsorb": 34306,
  "Ġamateurs": 75550,
  "é£ķ": 121266,
  ".getKey": 22400,
  "çĲĨæĥ³": 100870,
  "ç¿ł": 102722,
  "æĢİä¹Ī": 99494,
  "Orden": 74682,
  "\\Tests": 48123,
  "Ġintoler": 71629,
  "Ġeiusmod": 79122,
  "ĠPlayStation": 31265,
  "ĠLiberia": 83525,
  "Ġlayui": 67885,
  "æľīä¿¡å¿ĥ": 112162,
  "Events": 7900,
  "Ġcomposing": 75878,
  "ï¨Ŀ": 149346,
  "Ġwishes": 24240,
  "èĲ¥ä¸ļæī§çħ§": 110579,
  "Ġsporting": 34927,
  "ĠSETUP": 90857,
  "_popup": 44984,
  "_memory": 19195,
  "Ġejaculation": 98202,
  "å©ī": 106783,
  "acterial": 69934,
  "ĠCave": 49392,
  "bm": 29307,
  "_OTHER": 56038,
  "ĠDamage": 20765,
  ".apps": 39713,
  "åŃ¦ä¹łæĪĲç»©": 118566,
  "ĠEND": 11176,
  "ĠNam": 29974,
  "(number": 17918,
  "-det": 90904,
  "ĠSevent": 77218,
  "éĽĴ": 121480,
  "æ±Łæ¹ĸ": 106026,
  "ĠSatellite": 60557,
  "LAST": 53678,
  "Ġveteran": 20820,
  "=test": 53538,
  "_bits": 20034,
  "ä¸ĵäºº": 110736,
  "Connecting": 62924,
  "onen": 41928,
  "className": 13871,
  "ä¸ĭå±ŀ": 108160,
  "exam": 41616,
  "ĠVuex": 88339,
  "niej": 59904,
  "Ġrejected": 17551,
  "åĦ¿ç§ĳ": 117449,
  ".deploy": 67121,
  "å´ĥ": 120388,
  "å«īå¦Ĵ": 114616,
  ".getBounds": 97862,
  "ĠCollege": 9126,
  "(enum": 64545,
  "subnet": 88636,
  "Ġrewriting": 94445,
  ".hasNext": 22807,
  "/',": 14351,
  "Disabled": 25907,
  "wt": 9306,
  "ALSE": 5720,
  "ync": 1721,
  "ĠCoverage": 55669,
  "inside": 41350,
  "UNK": 31883,
  "_RESULT": 21181,
  "uned": 48883,
  "Ġsurrounding": 14590,
  "ĠEarth": 9237,
  "IFF": 29035,
  "è®®åĳĺ": 112307,
  ".prompt": 65399,
  "ĠBound": 37176,
  "WINDOW": 40156,
  "Ġrequ": 5892,
  "çºŃ": 119786,
  "Animate": 82225,
  "ĠINC": 18118,
  "Ġconcentrated": 37526,
  "ĠOsaka": 86985,
  "_closure": 72823,
  "Ġpotential": 4650,
  "Ġcruising": 72227,
  "ĠCatalan": 80844,
  "Ġconditional": 34687,
  "TeX": 54963,
  "/************************************************************************": 11370,
  "_pll": 98812,
  "-n": 5279,
  "Ġemail": 2551,
  "Ġproposes": 54625,
  "ä»¥åıĬåħ¶ä»ĸ": 113494,
  "aimassage": 55950,
  "æĺ¯ä¸Ģéĥ¨": 114292,
  "ĠAdopt": 85280,
  ">Data": 90121,
  "Ġrecharge": 46823,
  "Ġrename": 29074,
  "ĠSal": 8211,
  "é«ĺæ¶¨": 114528,
  "Argentina": 95417,
  "grown": 61276,
  "unting": 26324,
  "/Add": 98619,
  "ĠImprove": 64084,
  "çī¹æ®Ĭ": 101167,
  "Ġphone": 4540,
  "Ġrichest": 56371,
  "Ġprojectiles": 79037,
  "Ġwaitress": 95207,
  "ä»ĸåĢĳ": 102091,
  "Ġnicely": 28821,
  "=headers": 54085,
  "ĠQGraphics": 78303,
  "Ġgoose": 62137,
  "Ġabolished": 79981,
  "Ġnoticeable": 42326,
  "ItemClick": 51369,
  "Ġanc": 45745,
  "/env": 14358,
  "å¹²éĥ¨èģĮå·¥": 109710,
  "çĺ°": 121813,
  "éĿ¥": 121581,
  "Ġresembl": 66320,
  "Ġports": 20325,
  "outedEventArgs": 29072,
  ":Get": 21083,
  "Ġrst": 55515,
  "/respond": 66463,
  "Ġreform": 14836,
  "æ£ļ": 103031,
  "ITION": 7092,
  "Ġtener": 33430,
  "nqu": 139033,
  "CAM": 48313,
  "/post": 29996,
  "æĿĢäºº": 107642,
  "_ag": 20587,
  "Ġsuitable": 14452,
  "ĠINPUT": 26149,
  "Ġevaluate": 15442,
  "Ġwanted": 4829,
  "ospels": 97998,
  "ĠroleId": 69645,
  "Ġbreaking": 14719,
  "ç¢Ł": 110031,
  "remain": 47584,
  "altern": 40412,
  "Ġ*@": 45637,
  "'r": 96570,
  "Delayed": 57361,
  "urnal": 62450,
  "çĽĹçªĥ": 114400,
  "reservation": 47684,
  "åįģè¶³": 106324,
  "conversion": 73725,
  "izada": 51211,
  "Ġslam": 44892,
  "ĠBenchmark": 61622,
  "Ġintroduces": 38919,
  "Ġgrabbing": 48930,
  "é»ĳå®¢": 116564,
  "JOR": 77080,
  "ĠgetIntent": 48811,
  "Ġothers": 3800,
  "æ¯Į": 122132,
  "sharp": 52917,
  "(EXPR": 92893,
  "scores": 46695,
  "Ġpose": 17040,
  "hints": 95348,
  "definitions": 48563,
  "/io": 41390,
  "æļķ": 123180,
  "è®²åº§": 107483,
  "èĭĺ": 119821,
  "/result": 82907,
  "LOCITY": 88217,
  "person": 8987,
  "-president": 65988,
  ".persistent": 96045,
  "åĪĨè¾¨çİĩ": 115801,
  ".drawText": 88565,
  "Ġviewers": 21762,
  "éħ¤": 120896,
  "(total": 22842,
  "Un": 1806,
  "è¯Ħè®®": 113002,
  "An": 2082,
  "ĠOversight": 89851,
  "ĠBroadcasting": 63460,
  "ĠStyles": 37370,
  "_RATE": 29108,
  "ĠwithObject": 75298,
  "-L": 8125,
  "æºĲå¤´": 107712,
  "å¿³": 122250,
  "kaza": 133821,
  "éĢĢç¨İ": 117102,
  "rans": 33389,
  "'O": 87666,
  "_adj": 42559,
  "problems": 95340,
  "ubo": 96119,
  "Ġrivalry": 59922,
  "Ġstrlen": 12420,
  "ĠCBC": 45512,
  "æľīä»Ģä¹Ī": 104139,
  "Ġdrone": 26713,
  "Ġministry": 24846,
  "_right": 10539,
  "Ġtrimming": 81887,
  "europ": 143830,
  "splice": 94960,
  "odem": 91461,
  "$rows": 87889,
  "+]": 55905,
  "ĠRiders": 86070,
  "Ġberg": 45885,
  "Ġmediation": 76573,
  "(JNIEnv": 64888,
  "Ġpantalla": 70024,
  "//------------------------------------------------------------------------------------------------": 56342,
  "ĠJulien": 87642,
  "Ġcanned": 63014,
  "åĪĩ": 99322,
  ".Typed": 98152,
  "Ġfading": 58517,
  "Ġoffseason": 39872,
  "WhiteSpace": 32683,
  "utzt": 89002,
  "ordo": 51272,
  "çļĦæĻĤåĢĻ": 106129,
  "æĦ¤": 103188,
  ".distance": 31974,
  "åĨ¬å¥¥ä¼ļ": 112759,
  "Ġterms": 3793,
  "UInteger": 35164,
  "Ġcathedral": 79150,
  "_Action": 59899,
  "Ġstrikeouts": 88926,
  "Ġsho": 71519,
  "çĽĳ": 48828,
  "burse": 37982,
  "ĠTel": 22836,
  "Ġthreatening": 26805,
  "(sl": 55691,
  "Ġinfield": 99006,
  "Ġadministered": 36918,
  "ĠGLsizei": 79703,
  "xFC": 53473,
  "Ġbrakes": 44564,
  "orado": 96755,
  "<IEnumerable": 48401,
  "ä¸Ĭæ±½": 113191,
  "Elect": 29331,
  "Ġnegatives": 74085,
  "ä¸ºäºĨ": 100012,
  "çĺ«": 113098,
  "ĠKun": 42783,
  "ĠappendString": 96340,
  "Ġdeny": 23101,
  "ĠCommun": 56198,
  "?\\": 32620,
  "_mB": 94665,
  "ĠLSU": 64412,
  "arkan": 61886,
  "è¯ķçĤ¹": 102329,
  "Ġespect": 94270,
  "è§Ĩè§ī": 104916,
  "ĠDecre": 64101,
  "åŁ«": 122754,
  "çľĭè¦ĭ": 115633,
  "å¹¶ä¸įæĺ¯å¾Ī": 117587,
  "ĠEuras": 87077,
  "Ġcomprend": 59846,
  "Choose": 24051,
  "_tF": 79798,
  "çģ°èī²": 109288,
  "ĠBradford": 59829,
  ".b": 948,
  ".Kind": 54199,
  "ĠGiving": 57851,
  "orny": 79577,
  "ĠRape": 52605,
  "Ġfee": 11060,
  "empre": 36839,
  ".userId": 24721,
  "iner": 10453,
  "çŁŃè§Ĩé¢ĳ": 109829,
  "Sources": 32200,
  "Orange": 41969,
  "Collections": 52730,
  "kek": 85207,
  "override": 9199,
  "postcode": 72438,
  "Ġministers": 33950,
  ".removeAttribute": 78620,
  "Ġunrealistic": 70885,
  "portfolio": 27159,
  "_oid": 59633,
  "(decoded": 88529,
  "License": 9827,
  "çħº": 121293,
  "ĠBarrett": 55759,
  "ä¿¡æģ¯æĬĢæľ¯": 106381,
  "-directed": 85755,
  "amedi": 91906,
  "atre": 15715,
  ".getImage": 48318,
  "æ´¼": 114913,
  "ĠQuantity": 33523,
  "ä¸»æķĻç»ĥ": 114052,
  "velopment": 75831,
  "ĠQB": 36570,
  "$input": 77228,
  "Ġcw": 53091,
  "è°Ľ": 116109,
  "åħ³æ³¨": 100020,
  "(PyObject": 69943,
  "åĩºåı°": 102331,
  "å§Ĵ": 119781,
  "ogenous": 52495,
  "UIS": 28521,
  "Ġsouls": 34726,
  "ä¸Ģå¤Ħ": 106739,
  "Ġ$('[": 65678,
  "ĠAtari": 83876,
  "itre": 48734,
  "_Version": 85217,
  "sin": 15940,
  "ä½Ĩæĺ¯ä»ĸ": 110108,
  "_cc": 28955,
  "é«ģ": 121892,
  "_abort": 70907,
  "Ġunb": 41544,
  "åıªå¥½": 106170,
  "Ġcsv": 13147,
  "ĠApplicationDbContext": 73224,
  "ĠDumbledore": 80983,
  "where": 2870,
  ".EditValue": 76812,
  "_OT": 51147,
  "Blocks": 29804,
  "å¼Ģè¾Ł": 107900,
  "Ġenumerate": 13252,
  ".Logic": 90347,
  "åŀŁ": 122410,
  "åĨħéĻĨ": 117021,
  "SPAN": 67023,
  "èııæ³½": 112493,
  ")['": 50510,
  "åĿĩçº¿": 112456,
  "ĠWhitney": 66097,
  "ada": 2584,
  "ource": 919,
  ":def": 22582,
  "(ap": 34420,
  "å¹¿éĺĶ": 103362,
  "ĠAi": 55986,
  "å¥ĭè¿Ľ": 111219,
  "Ġcuc": 74291,
  "ĠAirport": 20691,
  "éĤĳ": 109015,
  "Ġcoal": 11497,
  ".InnerException": 84146,
  "çļĦè¯Ŀ": 100363,
  "çļĦéģĵè·¯": 108978,
  "ĠLarry": 29290,
  "ĠALTER": 75397,
  "otted": 15521,
  "osing": 14421,
  "Ġskate": 42778,
  "å¼ĢæľĹ": 116095,
  "ĠQuality": 17927,
  "ĠDialog": 13393,
  "æ²Ĩ": 119755,
  "methodVisitor": 24962,
  "roles": 14643,
  ".ActionBar": 91219,
  "æ®Ħ": 120087,
  "judul": 67612,
  "Ġoccured": 34942,
  "('(": 69963,
  "è¿Ļè¾ĪåŃĲ": 117002,
  "po": 5368,
  "ĠVac": 30526,
  "ĠFaculty": 41804,
  "çŃ¹å»º": 116777,
  "ĠFriday": 6602,
  "è§Ĥ": 99237,
  "Ġmigrating": 84526,
  "ä¸Ģç¬Ķ": 106623,
  "icro": 2754,
  "ansen": 60865,
  "ĠJD": 43937,
  "Weather": 28981,
  "åİ»äºĨ": 102149,
  "-cluster": 93208,
  "ĠLansing": 96484,
  "\\Session": 69608,
  "Ġsus": 4481,
  "éĽĮ": 113724,
  "iculos": 67277,
  "Dialog": 4468,
  "ä¸ºçĽ®æłĩ": 110060,
  "æķĪæŀľ": 101062,
  "_glyph": 88703,
  "ĠRational": 54525,
  "omas": 22267,
  "å·¾": 103203,
  "Agregar": 68513,
  "çĤ¹èµŀ": 107377,
  "REL": 49051,
  "ity": 487,
  "Ġcharacter": 3668,
  "Ġpalindrome": 73097,
  "Ġhotels": 24332,
  "æ¨£": 100582,
  "Ġ#%": 50594,
  "Ġreflects": 25963,
  "Ġsculpt": 26765,
  "/dom": 71344,
  "antro": 86190,
  "Ping": 69883,
  "æĥĽ": 122892,
  "antics": 36233,
  ".getParent": 41619,
  "Ġdct": 90164,
  "(Byte": 55823,
  "è¯ķé¢ĺ": 113280,
  "è²Ŀ": 115622,
  "_PLAN": 83648,
  "è½´": 102390,
  "Ġbegr": 87541,
  "Ġchilling": 61624,
  "asthan": 71549,
  "çļĦå¸®åĬ©ä¸ĭ": 116212,
  "å»¶æľŁ": 112553,
  "Ġmemcmp": 98718,
  "_seed": 33809,
  "Ġspecialist": 23753,
  "Numeric": 36296,
  "ĠFar": 13452,
  "jid": 72876,
  "Ġpap": 25298,
  "mighty": 67305,
  "ĠNina": 63888,
  "eto": 11023,
  "Ġotros": 38405,
  "Rotation": 18440,
  "inement": 37184,
  "Ġnop": 65026,
  "ĠOverride": 38258,
  ",column": 51169,
  "[string": 14032,
  "ĠInventory": 28126,
  "ĠNorth": 4787,
  "Ġportfolio": 19565,
  "ç»¾": 120837,
  "_corpus": 94226,
  "éħ¸å¥¶": 113760,
  "åĪĽéĢłæĢ§": 110438,
  "çī¢è®°ä½¿åĳ½": 114103,
  "_ATOMIC": 87843,
  "ades": 3452,
  "ĠmaxY": 64618,
  "ĠMadd": 43537,
  "Ġbasic": 6770,
  "æ³ķå®ĺ": 107683,
  "Ġslee": 21661,
  "utow": 9616,
  "/xhtml": 34132,
  "ĠBeard": 87430,
  "redit": 10827,
  "ĠMiss": 8906,
  "Ġencontrar": 45623,
  "Ġclientes": 44645,
  "ĠaccessToken": 37725,
  "Ġcreatures": 19970,
  "_WINDOWS": 71425,
  "æĭĵå±ķ": 104206,
  "Ġblackout": 96404,
  "_DELETED": 85921,
  "(array": 6110,
  "anas": 25908,
  ".lastName": 38461,
  "ASET": 61273,
  ".down": 18148,
  "èį¥": 120046,
  "ĠKop": 58009,
  "zik": 75474,
  "è¿Ľåıĸ": 109255,
  "Ġpunched": 60918,
  "å¸Ĥå§Ķ": 102490,
  "ĠShowing": 70930,
  "Ġclean": 4240,
  "çľŁçļĦæĺ¯": 105093,
  "éĿ¢ä¸´": 101310,
  "åĽĽä¸ªæĸ¹éĿ¢": 118241,
  "Ġoak": 37871,
  "Ġnegotiations": 23449,
  "è·¯æ¡¥": 117824,
  "warn": 33481,
  "ĠFiji": 85096,
  ".version": 19484,
  "å®īåºĨ": 118442,
  "Ġoutfield": 66337,
  "ĠVPN": 30747,
  "Ġnovelty": 66309,
  "ç³ķ": 101638,
  "è·ŁçĿĢ": 104578,
  "ä¾Ĩèªª": 109431,
  "May": 11109,
  ")||": 43946,
  "Ġcerto": 87915,
  "otes": 6295,
  "ĠBloody": 93572,
  "Ġrencont": 8875,
  "ä¼łåªĴ": 102655,
  "ĠAbr": 36401,
  "èĬ±çĵ£": 117049,
  "/***": 69939,
  "asset": 9852,
  "åįļå£«åŃ¦ä½į": 118399,
  "Ġjusqu": 54298,
  "Ġadicion": 80367,
  "æķ´é½Ĳ": 109489,
  "Ġadmitted": 16188,
  "Ġhopes": 16005,
  "ucid": 72687,
  "ĠFacing": 95318,
  "verity": 26472,
  "æĶ¾å®½": 115344,
  "exit": 13652,
  "Wie": 65835,
  ".getChildren": 40303,
  "Combo": 56893,
  "_route": 28109,
  "ĠSalah": 87385,
  "æĢ©": 119966,
  "useRalativeImagePath": 88373,
  "ffset": 55340,
  "sti": 83419,
  "åŁ¹è®Ń": 100368,
  "Ġresumes": 65213,
  "Ġcapitalist": 39967,
  "(sk": 68907,
  "Ġtal": 8210,
  "Ġalt": 4797,
  "Ġcomplaining": 41026,
  "ĠPorno": 20687,
  "Ġ____": 30743,
  "dire": 63584,
  "è¡Įæĥħ": 104454,
  ".notice": 97816,
  "logg": 93369,
  "-On": 66354,
  "-Headers": 76006,
  "Ġtravellers": 58968,
  "ĠLoginPage": 63411,
  ">';": 36709,
  ".um": 77251,
  "obile": 3372,
  "Ġheats": 76562,
  "çĶŁèĤ²": 103042,
  "ĠAlice": 29405,
  "Interest": 34556,
  "mg": 12311,
  "---": 4421,
  "ĠFire": 6647,
  "Ġmagical": 23702,
  "itar": 12355,
  "Ġweapons": 9893,
  "ĠPointF": 71174,
  "-bold": 27639,
  "ĠAnita": 75626,
  "Outlet": 10643,
  "Ġpromotional": 34282,
  "Obviously": 48214,
  "(dispatch": 39226,
  "çŃ·": 103731,
  "Ġthirty": 26127,
  "ĠIdentifier": 34621,
  "Ġcherished": 80071,
  "(global": 31951,
  "Ġmeaningless": 55926,
  "consider": 24712,
  "æľ¬èĥ½": 112929,
  "script": 2282,
  "Ġconco": 75539,
  "RICT": 39477,
  "orra": 83038,
  "åĥ§": 105967,
  "-current": 44175,
  "Ġmaximum": 7192,
  "uden": 60127,
  "ADO": 28814,
  "_to": 2346,
  "psz": 44688,
  "Ġevacuated": 62258,
  "Ġpay": 2291,
  "Ġanarch": 43465,
  "UT": 1381,
  "Ġcrystals": 47373,
  "Ġnoreferrer": 71604,
  "included": 82622,
  "éŀ¨": 121960,
  "Productos": 87016,
  "_iter": 11723,
  "ĠFloating": 47512,
  ":invoke": 94584,
  "Ġhire": 17983,
  "(tt": 47152,
  "æĪĸåħ¶ä»ĸ": 105994,
  "Ġrealistic": 25489,
  "æĪĲåĳĺ": 100450,
  "Ġunrestricted": 77839,
  "ĠEgyptian": 32489,
  ".same": 97503,
  "çļĩåĨł": 111368,
  "Ġdisgusted": 90074,
  "ĠBruce": 23845,
  "æķ°çłģ": 107326,
  "checking": 57854,
  "ĠLoved": 84027,
  "Ġfasta": 85249,
  "Weapons": 79628,
  "ĠMultimedia": 82222,
  "Ġnoqa": 45621,
  "æ»¨æ±Ł": 115081,
  "åįģä¸īå±Ĭ": 115034,
  ".Args": 51015,
  "åıĭå¥½": 106098,
  "ibrate": 43092,
  "(url": 6522,
  "Ġedged": 89563,
  "éĤ£ä½į": 108437,
  "/the": 51257,
  "åĮ»çĶŁ": 103998,
  "Directories": 56397,
  "æĽ´å¤ļ": 99573,
  "-fe": 33203,
  "ĠBio": 23525,
  "ĠSemantic": 74333,
  "STALL": 31037,
  "Ġtet": 27853,
  "ĠVocabulary": 98172,
  "Ġopts": 12185,
  "æķ´é¡¿": 109485,
  "æº²": 121049,
  "Ġ'\".$_": 88181,
  ".setName": 27637,
  "lya": 96099,
  "ĠAppModule": 48537,
  "èĢĥçłĶ": 108168,
  "Ġsqueezing": 87707,
  "è·±": 123186,
  "-routing": 52156,
  "_accessor": 33901,
  "Ġfreezer": 49585,
  ".Track": 89090,
  "={`${": 37312,
  "ĠEdgar": 58991,
  ".awt": 6700,
  "Ġ)\"": 90798,
  "å¼ĢäºĨ": 101467,
  "ikh": 30503,
  "warnings": 60447,
  "Ġaccents": 58470,
  ".Free": 52229,
  "äººæĢ§åĮĸ": 112143,
  "åĨħå®¹ç®Ģä»ĭ": 114004,
  "Json": 5014,
  "ĠConcord": 63093,
  "Ġenvironment": 4573,
  "åĲĪåĩ»": 109820,
  "ĠHOME": 40567,
  "éĻĭ": 119182,
  ".getElementsByTagName": 29715,
  "Ġ--------------------": 90781,
  "Ġdowntime": 74854,
  ".gnu": 12178,
  "_imp": 36788,
  ">Edit": 75177,
  ".xpath": 22645,
  "Ġgenerously": 79120,
  ".gdx": 42716,
  "Ġsupernatural": 48958,
  "ĠBraun": 69603,
  "Ġmotor": 8872,
  "Ġdamned": 67365,
  "ublished": 11669,
  "sequences": 61708,
  "ĠAlso": 7281,
  "fast": 9349,
  "åĪĽå»º": 50377,
  "ĠPen": 13294,
  "Ġfeliz": 94495,
  "ĠPl": 1818,
  "ĠIDisposable": 53889,
  "FAULT": 5291,
  "çĺ¦": 102372,
  "[Boolean": 74928,
  "roman": 62014,
  "ĠPact": 98373,
  "_pp": 31600,
  "æĸ¹åĲĳçĽĺ": 115157,
  "å°¼äºļ": 107773,
  "åħļæĶ¯éĥ¨": 102419,
  "Ġ__________________________________": 81008,
  "unifu": 22241,
  "åıªè¦ģä½ł": 107780,
  "æ¬£åĸľ": 114434,
  "Ġhogy": 32406,
  "ĠLeah": 66861,
  "Ġcontroversial": 20129,
  "_AES": 69381,
  "ĠDIRECTORY": 54140,
  "æ·±äº¤æīĢ": 116896,
  "ä¹Ĳè§Ĥ": 106612,
  "ç¦»åŃĲ": 108510,
  "forge": 24112,
  "æ²¡æľīä»Ģä¹Ī": 105745,
  "ĠCharacter": 15633,
  "Ġrn": 55839,
  "ascal": 35840,
  "files": 7198,
  "_TEMP": 41244,
  ".Classes": 66324,
  "Limits": 94588,
  "Hay": 56464,
  "åĲĮæĹ¶è¿ĺ": 109771,
  "ĠAgainst": 29141,
  "Ġstartling": 67734,
  "Ġelectrons": 56578,
  "packet": 24829,
  "ĠofType": 71754,
  "ĠRout": 92022,
  "Ġglyph": 32150,
  "é£Ķ": 123232,
  "Ġboiling": 49837,
  "åŃĹ": 18600,
  "pe": 375,
  "ĠOptions": 14566,
  "ANTA": 88066,
  "Ġfinish": 6248,
  "_HIDE": 72014,
  ".Transform": 45165,
  "è°¿": 123638,
  "waters": 98659,
  "Ġcontractors": 32740,
  "Ġgruesome": 85928,
  "Ġcertifications": 81471,
  "(hex": 44660,
  "Ġlifecycle": 47508,
  "_vertex": 26611,
  ",Z": 50832,
  "$search": 77977,
  "Ġmour": 66583,
  "rice": 23120,
  "_Impl": 60532,
  "Invite": 93540,
  "Ġvaluable": 15172,
  "æİ¥å¾ħ": 105594,
  "Ġuomo": 35126,
  "Ġpsychosis": 97047,
  "Ġtowels": 52884,
  "<string": 4947,
  "ç¯ª": 121788,
  "Ġinstruction": 7600,
  "èĦ±è´«": 101471,
  "tk": 6242,
  "BC": 4897,
  "è¯¢éĹ®": 105396,
  "Modifiers": 66937,
  "anken": 89289,
  "\",{": 74448,
  "parcel": 95920,
  "odash": 25601,
  ".readFileSync": 45346,
  "ĠBott": 36230,
  "ĠDucks": 67782,
  "ĠCreat": 17667,
  "Ġpassion": 11677,
  "umping": 54332,
  "egment": 71080,
  "airro": 37658,
  "å»ºæĪĲ": 101282,
  "ĠMadagascar": 94628,
  ".rl": 95196,
  "urchased": 72250,
  "é³ł": 123768,
  "Ġsurv": 7398,
  "ĠFrequency": 42380,
  "Ġattracted": 28023,
  "ĠDOJ": 60810,
  "'))->": 56962,
  "ï¼ļ<": 90737,
  "Ġodom": 87106,
  "æ¡´": 120609,
  "Ġhorrible": 27102,
  "ĠOMX": 59830,
  "åĮłå¿ĥ": 113640,
  "<vector": 24280,
  "filer": 72555,
  "uite": 9302,
  "Ġlegislation": 13240,
  "Ġprisoners": 27141,
  "\\xa": 46396,
  "éķ¿çº¦": 116850,
  ".sha": 64370,
  "blood": 50005,
  "akis": 75777,
  "Ġconstrained": 53752,
  "_tel": 67180,
  "someone": 89479,
  "Ġchosen": 11882,
  "ĠJaune": 86125,
  "åº§è°Ī": 101745,
  "æĥİ": 122953,
  "Ġwannonce": 83576,
  "èķĸ": 121375,
  "terrain": 46782,
  "********************": 31947,
  "Ġprotection": 9135,
  "Ġsimp": 12432,
  "_soft": 38326,
  "Ġreduce": 7949,
  ".''": 42484,
  "onces": 42798,
  "slots": 49767,
  "Ġbruk": 80771,
  "ĠCame": 75178,
  "ĠPdf": 28150,
  "ĠCRUD": 64133,
  "Ast": 61052,
  "ĠCentury": 27101,
  "ĠGender": 28217,
  "æ³ķåĪ¶": 108237,
  ".setVisible": 22456,
  "Ġunequal": 77195,
  "Ġinsignificant": 72421,
  "sequelize": 57856,
  "Ġxi": 37590,
  ".Service": 13860,
  "Ġinequalities": 92234,
  "Ġgrace": 20839,
  ".svg": 15228,
  "Ġproces": 28294,
  "ĠDOE": 92057,
  "_FILENO": 75538,
  "ariate": 49659,
  "_sound": 37676,
  "åĤ¨èĵĦ": 114206,
  "éħ¿éĢł": 118629,
  "Ġenam": 81852,
  "ĠPour": 25968,
  "ight": 491,
  "hosts": 44692,
  "Separ": 14492,
  "INCLUDED": 90747,
  ".coordinates": 64569,
  "ĠXunit": 59361,
  "'u": 91604,
  "æį£": 111686,
  "èĥ«": 120184,
  "Ġexpr": 15169,
  "Ġtraf": 98888,
  "Ġexamine": 20961,
  "Ġclaims": 8186,
  "Ġeuler": 90970,
  "_proxy": 29712,
  "æ¯Ķè¾ĥå¤ļ": 109867,
  ".ParseException": 71258,
  "yz": 18348,
  "ç²¾åĵģ": 104850,
  "ETH": 7625,
  ">Last": 95376,
  "agment": 15601,
  "æ½ľæ°´": 113257,
  "ĠBle": 38185,
  "Ġathe": 37814,
  "-ui": 8723,
  "ĠClone": 27913,
  "(best": 59423,
  "ĠFus": 93300,
  "=random": 79817,
  "gado": 77640,
  "èĩªåıĳ": 112019,
  "å§Ķæīĺ": 104742,
  "åłĩ": 120588,
  "(prompt": 72253,
  "å«Įçĸĳäºº": 111769,
  "ĠArgument": 13818,
  "ĠWashing": 81138,
  "orage": 2680,
  "Ġpercent": 3266,
  "èªĵ": 103421,
  "_project": 16352,
  "Ġlatency": 39270,
  "ervices": 2161,
  "Ġrus": 52454,
  "<Address": 92642,
  "ç¦ıçĶ°": 112136,
  "ç§ģèĲ¥": 117559,
  "ĠIntPtr": 23936,
  "Ġmultiply": 30270,
  ".componentInstance": 38276,
  "Ġincorporated": 31662,
  "Pure": 57613,
  "(theta": 27978,
  "Ġfamiliar": 11285,
  "æŀ¢": 100980,
  "orgeous": 20708,
  "Ġevt": 12358,
  "Ġlocker": 34679,
  "/pr": 44672,
  "Ġreps": 40411,
  "subscribe": 9384,
  "NSURLSession": 80538,
  "ĠPARTICULAR": 7652,
  "quence": 4375,
  "WL": 61139,
  "æ¬¢è¿İæĤ¨": 116693,
  "-offs": 63939,
  ".TestTools": 63177,
  "iphery": 93548,
  "Ġjlong": 74254,
  "å¹²çĩ¥": 106203,
  "unless": 38770,
  "Ġbonding": 63086,
  "_Application": 96579,
  "èĭĳ": 106270,
  "è²´": 108871,
  "ixture": 12735,
  "Looper": 85333,
  "_should": 43378,
  ",cljs": 95645,
  "ĠCHAR": 23997,
  "çµĲ": 100331,
  "(filter": 19704,
  ",DB": 49565,
  "[MAXN": 78508,
  ".ld": 92457,
  "Ġjournalist": 22825,
  "Ġattrib": 17329,
  "(\"~/": 50919,
  "ATORY": 87258,
  ".TextInput": 74758,
  "Ġconnections": 13234,
  "ĠTown": 13971,
  "part": 4480,
  "Ġavril": 99036,
  ".PackageManager": 84816,
  "rimp": 43894,
  "plain": 20772,
  "Ġmdi": 68944,
  "ä¸İæŃ¤": 105531,
  "Ġcurated": 57632,
  "omes": 20347,
  "å¹´ä¹ĭä¹ħ": 117429,
  "Ġforth": 13241,
  "Ġdownhill": 72381,
  "iva": 9924,
  "orWhere": 83328,
  "çŃīçĿĢ": 107478,
  "ĠEngl": 98630,
  "umph": 30661,
  "ByteBuffer": 79229,
  "ĠSeks": 76394,
  ".ba": 44069,
  "æįĲåĬ©": 118152,
  "Ġbend": 36820,
  "ç¬ķ": 120421,
  "CONTACT": 73371,
  "ĠHydra": 86861,
  "Shift": 24841,
  "DU": 21547,
  "_launcher": 79277,
  "-Americ": 50683,
  "æľ¬çĿĢ": 108612,
  ".big": 57678,
  "Ġbrawl": 99067,
  "æĿ¿æĿĲ": 113092,
  "Ġcommunicating": 41147,
  "éģĹè¿¹": 116985,
  "åľ¨ç¶²è·¯ä¸Ĭ": 111090,
  "ĠDomin": 22474,
  "Ġretour": 53506,
  "_dirs": 44869,
  "ĠVous": 40521,
  "ĠSenators": 53718,
  "quot": 13492,
  "Ġsabe": 75294,
  "ienes": 56862,
  "å·¥åĮł": 113779,
  "Ġserde": 61570,
  "Ġprotesters": 25743,
  "åĴ´": 120108,
  "Impact": 71503,
  "Ġforces": 8437,
  "disconnect": 51992,
  ".ADD": 54921,
  "_failure": 43618,
  "ç¢§æ¡Ĥ": 113995,
  "/cart": 56677,
  "atal": 4212,
  "enson": 33137,
  "ĠFlavor": 64999,
  "æĩĭ": 121864,
  "Ġdirig": 63856,
  "('{": 33440,
  "Ġmillones": 63024,
  "åĲ²": 119705,
  "åĲ¬çĿĢ": 110311,
  "azed": 27011,
  "Ġverify": 10146,
  "Ġcriticizing": 67988,
  "lasses": 33868,
  "ounces": 29944,
  "eyond": 22650,
  "Ġnest": 22791,
  "Ġchoc": 141608,
  "_initializer": 36462,
  "-eyed": 52513,
  "åŃ¸": 99763,
  "Ġshop": 8061,
  ".generic": 42267,
  "Ġshrugged": 69656,
  "_lastname": 93212,
  "åĲĮæł·æĺ¯": 111530,
  "Ġinfection": 18873,
  "phetamine": 65604,
  "Ġhide": 10265,
  "athing": 43561,
  "(contents": 46964,
  "_event": 6748,
  "_face": 30985,
  "ĠSwarm": 96470,
  "ä¼ļä¼ļéķ¿": 116100,
  "chool": 2135,
  "roscope": 89779,
  "UAGE": 23590,
  "ĠTin": 56255,
  "dragon": 55419,
  "ĠBoost": 33407,
  "_prim": 87419,
  "æ²¹èħ»": 116791,
  "Ġceremonies": 59183,
  "Ġpaternal": 92267,
  "Ġheadset": 49579,
  "Ġ---------": 80822,
  "Ġ=================================================================": 16168,
  "Ġlandfill": 84534,
  "stroke": 28241,
  "çĤŃ": 101520,
  "brid": 16223,
  "[H": 80385,
  "Ġcata": 30079,
  "tes": 2338,
  "BeenCalled": 30823,
  "éĵ·": 120708,
  "ä¸¤ä¸ªç»´æĬ¤": 118908,
  "Alpha": 19384,
  "CCCCCC": 91443,
  "éĤ£äºº": 110583,
  "é¹ĭ": 121126,
  "(Server": 54489,
  "cod": 20116,
  "Ġbacteria": 23157,
  "mercial": 18839,
  "/utils": 21902,
  "ĠJudges": 85855,
  "Disclosure": 91065,
  "_BUSY": 67283,
  "æĵįä½ľç³»ç»Ł": 112670,
  "ĠHighlander": 48630,
  "Ġfingers": 19225,
  "Ġkernel": 10001,
  "ĠSamples": 58350,
  "Ġlam": 31603,
  "Anc": 88067,
  "/select": 37346,
  "getClass": 42660,
  "å¸¦åĽŀ": 114001,
  "Mike": 34441,
  "Ġrtrim": 84465,
  "è¡¥åĬ©": 106512,
  "'#": 71848,
  "ragon": 55150,
  "Ġstacking": 74072,
  "Ġattempt": 4774,
  "ĠHOT": 53373,
  "ĠSusan": 29933,
  "AAD": 81380,
  "Ġdign": 27577,
  ".\",": 10465,
  "_queues": 82413,
  "Ġtbody": 45420,
  ".gstatic": 69260,
  "AGER": 27650,
  "ENGINE": 66652,
  "åģ¶åĥı": 108001,
  "_NS": 33777,
  "infos": 55965,
  "feature": 12753,
  "getDoctrine": 50018,
  "ĠHurricane": 37101,
  "King": 33555,
  "gratis": 94746,
  "(pad": 94128,
  "Ġbrokerage": 74855,
  "/release": 88648,
  "ĠMethods": 18801,
  "ĠPropertyInfo": 94423,
  "æ±ļ": 141606,
  "/rest": 45265,
  ".writeFileSync": 76867,
  "gravity": 70791,
  "_pts": 41878,
  "================================": 3058,
  "æĿĨ": 100880,
  "è§ģè¯Ĩ": 112518,
  "ĠPetro": 61479,
  "äº§çī©": 107795,
  "ĠclearColor": 57978,
  "Ġmag": 4878,
  "éĤĦæľī": 106580,
  "-bs": 56430,
  "ative": 1388,
  "-slider": 37733,
  "(LL": 89329,
  "Ġvera": 91244,
  "ĠHE": 11685,
  "=explode": 91470,
  "Ġbootloader": 88164,
  "çľĭçĿĢ": 101952,
  "psilon": 59892,
  "çĶŁäº§åĬĽ": 109650,
  "æī®æ¼Ķ": 102889,
  "ĠStreets": 65518,
  "ç´¯äºĨ": 112428,
  "Ġheaps": 92640,
  "ĠPiano": 55391,
  "Ġdecline": 17704,
  ".listen": 22628,
  "Ġsant": 51508,
  "essian": 74329,
  "Ġcoeffs": 79172,
  "REQUIRED": 89815,
  "_lt": 39164,
  "Ġripped": 42992,
  "Environment": 12723,
  "Forget": 87283,
  "omet": 4413,
  "ç¢ºä¿Ŀ": 118006,
  ".Router": 31413,
  "Ġimplic": 91095,
  "ĠMovement": 27998,
  "å´ĸ": 103224,
  "éĥ½å¾Ī": 105037,
  "uster": 4993,
  "Ġtablesp": 37090,
  "ĠFucking": 65860,
  "GetValue": 23213,
  "åªĦ": 123114,
  "Ġqb": 75807,
  "ç¥ŀä»Ļ": 113666,
  "=\"{!!": 84375,
  "ĠTaken": 55974,
  "åĪ¸åķĨ": 108020,
  "çłº": 119177,
  ".urlencoded": 52697,
  "USERNAME": 63516,
  "Ġqreal": 75574,
  "'].\"": 16258,
  "ienza": 65502,
  "ĠPlumbing": 92600,
  "ĠOwn": 20547,
  "ematic": 12240,
  "ĠObtain": 63424,
  ".open": 5826,
  "(jq": 96887,
  "ĠEbola": 46982,
  "å¤±æľĽ": 106586,
  "andre": 79181,
  "æ±ł": 100230,
  "ied": 1122,
  "Ġanywhere": 12379,
  "ĠDEVICE": 44632,
  "ĠMichele": 73306,
  "soles": 40400,
  "alk": 1692,
  "member": 9597,
  "abling": 18768,
  "ĠRenewable": 92338,
  "IU": 80000,
  "Ġdevast": 22440,
  "æĸĩç«łæĿ¥æºĲ": 115112,
  ":uint": 62921,
  "Ġmisconception": 97331,
  "å¹¿ä¸ľçľģ": 104922,
  "(chat": 45438,
  "åĨľæĿĳ": 101089,
  "ĠDDS": 64972,
  "Ġbleeding": 34663,
  "Ġsaints": 67120,
  "Ġheading": 14496,
  "ombie": 23342,
  "uno": 16311,
  "getTime": 25278,
  "æĹ¶ä¸į": 114500,
  ".Marshal": 37271,
  "çĺģ": 121277,
  "è¯Ħå®¡": 106237,
  "strcpy": 89729,
  "createCommand": 97380,
  "ĠGuinness": 88459,
  "Ġdigestion": 73402,
  "ç»ıçºªäºº": 110410,
  "ĠKou": 75865,
  "Ġfossils": 80373,
  "Ġproviding": 8241,
  "ums": 6237,
  "ï½Ĩ": 144862,
  "ĠLex": 26819,
  ".req": 48369,
  "Ġoverarching": 97436,
  "è¯¸ä¾¯": 116451,
  "ridged": 79128,
  "ĠDamien": 88912,
  "ĠJNI": 70829,
  "Destroy": 14245,
  "ĠWC": 36646,
  "åĶĳ": 120386,
  "éĻĦåĬłåĢ¼": 114318,
  "RK": 77020,
  "Hub": 19316,
  "çŁ¥éģĵäºĨ": 108607,
  "-solving": 98146,
  "ä¸°åİļ": 112557,
  "EXAMPLE": 95875,
  "_INSTALL": 58486,
  "åĳĶ": 119698,
  "æħ¢æħ¢": 101283,
  "ĠExplore": 44052,
  "èĬ¥": 118441,
  "åľ¨å¤ĸ": 107435,
  "ï½į": 138125,
  "unci": 18424,
  "ĠKauf": 58154,
  "ä¸ºä¸»ä½ĵ": 112461,
  ".GetOrdinal": 91348,
  "éĽ¹": 119453,
  "åĬį": 116029,
  "ĠCGSize": 31815,
  "(prog": 80078,
  "Ġdetailing": 44193,
  "itical": 31260,
  "è°¡": 121072,
  "Ġexperience": 3139,
  "ĠWANT": 71206,
  "ä¸įçŁ¥éģĵ": 103950,
  "å¿ĺè®°": 102827,
  "Ġgroupe": 56851,
  "*)": 3764,
  "Ġconspic": 74215,
  "UNUSED": 94045,
  "äºĮçĻ¾": 115883,
  "å¤©æ²³": 114557,
  "/community": 92477,
  "@example": 35487,
  "Ġfoyer": 98916,
  "ĠDBG": 37392,
  "Ġspecifier": 97616,
  "@hotmail": 58031,
  "æĵº": 114514,
  "è´¯": 100116,
  "ç¢º": 100336,
  "-plan": 72981,
  "Ġgovern": 2569,
  ".addCell": 90338,
  "åĽŀæĬ¥": 105457,
  "ergy": 41943,
  "strate": 69915,
  "capt": 43203,
  "(':')[": 91528,
  "Ġones": 6174,
  "Ġaffect": 7802,
  "Ġleaps": 83458,
  "å¸¼": 120682,
  "Ġtaxpayer": 38173,
  "é³Ĺ": 122040,
  "èĢģå¤§": 108207,
  "Returning": 84814,
  "çĶ²éĨĽ": 110099,
  ".bumptech": 62830,
  "åŁºåĽł": 102477,
  "çĲĥéĺŁ": 102151,
  "Why": 10234,
  "åľºåľ°": 105844,
  "tournament": 88079,
  "è¢«è¿«": 109319,
  "flex": 12018,
  "è´·æ¬¾": 101983,
  "ĠCanvas": 25698,
  "elloworld": 95292,
  "Ġrepresented": 15251,
  "bose": 8297,
  "ĠClo": 18679,
  "linger": 71560,
  ".setContentType": 64609,
  "ĠKeith": 31502,
  "æĬ¢": 100076,
  "çĶŁæĢģç³»ç»Ł": 113855,
  "Ġpud": 84295,
  "Ġalmost": 4558,
  "both": 21028,
  "ĠPOINTER": 78031,
  "Ġmettre": 46921,
  "geber": 95905,
  "-decoration": 30266,
  "illery": 35369,
  "ä¸Ĭä¼ł": 52526,
  "ĠOrchestra": 53517,
  "æİ¥æĶ¶": 106585,
  "panels": 82698,
  "å¼±çĤ¹": 118507,
  "è®¥": 119300,
  "ata": 459,
  "Produces": 49112,
  "Ġdegrade": 95530,
  "Ġscrutiny": 35652,
  "ĠLuis": 33197,
  "ä¸¦å°ĩ": 117679,
  "(X": 7644,
  "é¾ħ": 121170,
  "é¥®çĶ¨æ°´": 113318,
  "_Command": 66751,
  "ĠINTER": 29342,
  "Invoker": 47668,
  "Ġecs": 78422,
  "classic": 79709,
  ".BindingSource": 82167,
  "_exception": 17499,
  "Ġclos": 4496,
  "æĬ¨": 119798,
  "ĠReactDOM": 39117,
  "Ġperso": 76972,
  "Ġrelaciones": 96573,
  "è°´è´£": 117681,
  "åı¯ä¸įæĺ¯": 112404,
  "Ġinstituted": 79999,
  "_HEADER": 20330,
  "çĶ¸": 103604,
  "opc": 67858,
  "ĠDIG": 55296,
  "ĠCrush": 12048,
  "åı¨": 115282,
  "è½©": 102697,
  "Ġtapping": 52628,
  "\\Routing": 63999,
  "Ġfundraising": 36319,
  "ç¬¬äºĶå±Ĭ": 115182,
  ".UInt": 70462,
  "ROLLER": 43186,
  "å¥¹åľ¨": 108333,
  "\\Application": 62949,
  "Ġcaus": 24524,
  "Ġjeopardy": 89604,
  "urbation": 64816,
  "James": 28084,
  "incy": 75586,
  "Utf": 38980,
  "ĠDani": 29539,
  "åº§": 99579,
  "Ġwait": 3783,
  "é¢Īæ¤İ": 116385,
  "HashTable": 81519,
  "é¦ĸåħĪè¦ģ": 108443,
  "Ġmandated": 64409,
  "onclick": 39799,
  "break": 8960,
  ".res": 4705,
  "aised": 23964,
  "_EMAIL": 29548,
  "INVALID": 46859,
  "(Symbol": 99095,
  ".UTF": 29585,
  "ç»ĳ": 101004,
  "Ġjunction": 48241,
  "heroes": 53476,
  "è¿ĳçĻ¾": 112675,
  "issued": 58226,
  "orer": 14827,
  "ĠBAM": 92127,
  "ĠInterface": 20019,
  "isplay": 2316,
  "åİ»éĻ¤": 108569,
  ">?": 47585,
  "çļĦçľĭæ³ķ": 107893,
  "è·¯å¾Ħ": 76837,
  "-response": 58469,
  "?(\"": 90759,
  "ani": 5559,
  ".ToBoolean": 89784,
  "_remain": 86607,
  "ä¹Łæĺ¯": 100000,
  "Ġdesc": 6560,
  "/dist": 19537,
  "Ġfeudal": 94350,
  "Ġconnexion": 72776,
  "ä¸įåħ·å¤ĩ": 112958,
  "å³¶": 109676,
  "opro": 45926,
  ".LoadScene": 59799,
  "(expr": 34322,
  "quat": 72983,
  "Ġtout": 16559,
  "/site": 47881,
  "ĠgroupId": 41797,
  "åĤ²": 102744,
  "subseteq": 52396,
  "-J": 12009,
  "ĠCarousel": 66202,
  "-built": 51614,
  "Ġelemental": 61135,
  "eyes": 57231,
  "ĠTactical": 70558,
  "-catching": 83324,
  "åºĶåľ¨": 110391,
  "/web": 21808,
  "iggers": 21385,
  "æ¬Ħ": 118438,
  "ĠDruid": 72635,
  "ĠPurdue": 72234,
  "ĠPresence": 78623,
  "Ġradi": 11900,
  "UX": 13401,
  "Ġcade": 77318,
  "emb": 8858,
  "ä¸»åĬ¨æĢ§": 117072,
  "éĶĥ": 120958,
  "å¹¶éĢļè¿ĩ": 109772,
  "fte": 63319,
  "_lost": 88661,
  "ĠWare": 68734,
  "ĠSmash": 47294,
  "Ġmounts": 56222,
  "Ġ'\".": 64050,
  "ĠRoutine": 71062,
  "Ġtimber": 44788,
  "ĠTess": 91045,
  "Ġsext": 37003,
  "ĠChristmas": 10074,
  "å¤§åĨĽ": 110968,
  "Ġsost": 77948,
  "emonic": 38801,
  "äº²äºº": 108927,
  "'],$_": 97189,
  "ATTER": 49683,
  "ĠContrib": 23177,
  "æłĩå¿ĹæĢ§": 114737,
  "Next": 5847,
  "Ġoperands": 54510,
  "clr": 60947,
  "Disposable": 57612,
  "Ġabout": 911,
  "ĠnameLabel": 96108,
  "äİĥ": 122814,
  "Lot": 54666,
  "Ġdhcp": 85787,
  "(MainActivity": 43471,
  "ĠformData": 27977,
  "owski": 28284,
  "åıĤèĢĥ": 101275,
  "ä¸įå¤ª": 102342,
  "Ġpants": 24549,
  "REDENTIAL": 81509,
  ")row": 90387,
  "AppName": 87994,
  "(setq": 57036,
  "ĠEfficiency": 66567,
  "ĠPrel": 40088,
  "Ġwelt": 77748,
  "law": 19915,
  "Ġtech": 13014,
  "Ġerreur": 90920,
  "Ġplist": 68635,
  "ä¹ĺçĶ¨è½¦": 116235,
  "è°ħ": 101815,
  "ä»ĵ": 100488,
  ".Marker": 61131,
  "encies": 5946,
  "/********": 66721,
  "restrial": 52586,
  "_polygon": 73542,
  "wcs": 34943,
  "Ġdemolished": 75893,
  "éĵª": 120701,
  "Debug": 7939,
  "ami": 10606,
  "èĩªåĬ¨": 100756,
  "Ġbutton": 3137,
  "ĠFifty": 74920,
  "ĠLyrics": 56243,
  "(sprintf": 40654,
  "ilmington": 74534,
  "æľªæĽ¾": 114858,
  "Attempt": 47052,
  "æ¢¯éĺŁ": 118559,
  "TextColor": 35529,
  "DNA": 55320,
  "Ġdust": 15797,
  "è¾ĳ": 46939,
  "çĲĨå·¥": 103538,
  "Ġflushed": 73720,
  "Ġignore": 10034,
  "ĠGOOGLE": 90216,
  "Ġescaped": 27783,
  ".Left": 17978,
  "ĠDSM": 79167,
  "hall": 42241,
  "Ġeh": 35246,
  "ĠSpacer": 70173,
  "ĠIterable": 38016,
  "ĠPyErr": 75667,
  "_inds": 56634,
  "Ġ\").": 27510,
  "flash": 19268,
  "Ġtodas": 30101,
  "Crit": 64258,
  "Writable": 39623,
  "ĠBose": 93458,
  "Ġ'?": 31067,
  "-col": 19459,
  "Ġfloats": 47902,
  "Style": 2323,
  "(reader": 21987,
  "éª¥": 122050,
  "çĦĹ": 120773,
  "ĠEyes": 41996,
  "Ġaccru": 82732,
  "æĶ¿åºľ": 99563,
  "Composer": 90067,
  "åı¯ä»¥çĶ¨": 106782,
  "çļĦæīĢæľī": 105679,
  "Peripheral": 87404,
  "è¿Ľç¨ĭ": 101556,
  ".Temp": 65009,
  "pray": 90604,
  "Ġsection": 3772,
  ".enabled": 22141,
  "ĠSpirit": 16899,
  "Ġfrowned": 76359,
  "iguiente": 89776,
  "Ġrosa": 95244,
  "çį²å¾Ĺ": 109616,
  "æīĵåħ¥": 115495,
  "ĠTownsend": 95682,
  "èı¡": 120605,
  "Ġstump": 88612,
  "éĽ¶ç¢İ": 118717,
  "åħ³èĬĤ": 107914,
  "ĠAri": 41526,
  "åıĪç§°": 109972,
  "ĠArmy": 13011,
  "ĠSpeakers": 80096,
  "çŃ¼": 123209,
  "ĠparamMap": 87056,
  "åıĳ": 28291,
  "Ġallerdings": 85725,
  "èĩªç§ģ": 115516,
  "åħĪå¤©": 109907,
  "éľ²åĩº": 105722,
  "_content": 7495,
  "å»£åĳĬ": 111799,
  ".S": 808,
  "'er": 93578,
  "ĠLowe": 64587,
  "Ġisso": 40805,
  "Ġasia": 83499,
  "ç¥ŀç»ı": 102398,
  "è®¨è®º": 104075,
  ".usermodel": 74711,
  "ĠSlovakia": 80685,
  "_SUPER": 86846,
  "abei": 38972,
  "Ġeviction": 78236,
  "æ¸Ķæ°ĳ": 116613,
  "produto": 66195,
  "Ġhenne": 91617,
  "Ġcosplay": 88684,
  "åļĨ": 121753,
  "ĠBatt": 32167,
  "-clean": 91800,
  "Ġsubur": 29322,
  "ĠExpected": 31021,
  "ĠUITableViewCell": 27330,
  "Item": 1234,
  "_depth": 19061,
  "è¦ļ": 136216,
  "ĠPoss": 41045,
  "ï©¡": 148826,
  "och": 4953,
  "Ġua": 45559,
  "ä¸Ĭå¸Ŀ": 106020,
  "(desc": 37673,
  "èĭĽ": 119328,
  "çĽ¸çķ¶": 112245,
  "ported": 35526,
  "Ġarrang": 16700,
  "ĠCHANGE": 43039,
  "éķµ": 122100,
  "Padding": 21616,
  "Ġcareers": 30033,
  "æĵĶ": 103808,
  ".jsdelivr": 62884,
  "Ġnrw": 76506,
  "(always": 38577,
  "èĥĮéĥ¨": 115839,
  "(artist": 92880,
  "Ġihre": 34749,
  "åĻ¼": 121770,
  "_MACHINE": 66702,
  "XD": 67677,
  "Ġsir": 27048,
  "()\">": 69782,
  "èĵ°": 123311,
  "ç»ļä¸½": 116943,
  ".recipe": 61406,
  "Ġproposed": 10981,
  "_DIGEST": 94901,
  ".instrument": 93370,
  "Ġkontakt": 40746,
  "Ġjasmine": 65809,
  "printed": 52213,
  "prefix": 11849,
  "terms": 18347,
  "batim": 54748,
  "pragma": 6015,
  "ĠbeforeSend": 91512,
  "åĲ¸æĶ¶": 104460,
  "Ġauthorities": 11276,
  "Ġaides": 52889,
  "ç¿ģ": 108017,
  "ä¼ļéĢłæĪĲ": 110524,
  "ä½ķå¿ħ": 114482,
  "_tile": 29844,
  "_bug": 73232,
  "ĠTHERE": 61107,
  "åŁİå¸Ĥåıĳå±ķ": 115106,
  "Ġstalled": 67841,
  "éĮ¾": 121745,
  "storeId": 84397,
  "PIN": 56061,
  "Lists": 37848,
  "ĠBonds": 84026,
  "Ġran": 10613,
  "ĠDbContext": 60194,
  "Ġstd": 1460,
  "å±ĢåĬ¿": 108322,
  "[N": 22223,
  "ĠTerritory": 48087,
  "æ¹Ħ": 119218,
  "Ġwin": 3164,
  ".ColumnHeader": 44831,
  "allocator": 57631,
  "Ġtextbooks": 64203,
  "Ġmelodies": 89013,
  "ä½Ĩä¸įéĻĲäºİ": 116509,
  "CSS": 33658,
  "INSTALL": 61848,
  "mond": 12388,
  "tons": 34411,
  "Ġtracks": 13918,
  "Ġgrup": 33570,
  "ĠUserDao": 97104,
  "Ġwelcoming": 35287,
  ".Callback": 48787,
  "ĠEj": 52758,
  "()',": 61413,
  "Mt": 71172,
  "_EXT": 16066,
  "Ġ'\\''": 34109,
  "Ġgenom": 98198,
  "Ġlif": 10136,
  "Ġscouts": 69871,
  "living": 63175,
  "è¶ĬæĿ¥è¶Ĭå¤§": 111217,
  "vc": 7362,
  "ĠGoodman": 70392,
  "_snd": 88518,
  "Tre": 65775,
  "ĠFore": 8207,
  "èĭıèģĶ": 108245,
  "å¥İ": 109367,
  "ĠGhost": 25044,
  "CRYPT": 42917,
  "ENCY": 42458,
  "Ġpractice": 6588,
  "(old": 21972,
  "Ġyoga": 26011,
  "Interfaces": 41066,
  "å¨Į": 120532,
  "ç¾İå¥½": 101483,
  "ĠHercules": 93534,
  "Ġplusieurs": 50754,
  "ĠManafort": 57813,
  "æŃ£ç¡®": 88991,
  "(store": 31200,
  "Ġefficiency": 15024,
  "Ġliable": 34373,
  "Ġgays": 56477,
  "åįķè°ĥ": 118682,
  "è§ĤéŁ³": 110877,
  "Ġnarrowed": 72935,
  "-history": 61374,
  "ĠCourtesy": 53097,
  "'\\": 15777,
  "åħ¶ä»ĸäºº": 106857,
  "-version": 45367,
  "nn": 7370,
  "é©´": 109296,
  "ĠCalculation": 74216,
  "ĠSwedish": 30109,
  "/entity": 66908,
  "Ġspecific": 3151,
  "fuscated": 80247,
  "Ġstamina": 60684,
  "(objects": 73699,
  "ä¹¦é¦Ļ": 118022,
  "odzi": 75311,
  "Ġheal": 26563,
  "ĠForget": 60228,
  "ManagedObjectContext": 68501,
  "_Select": 58073,
  "ä¸įæĸŃæī©å¤§": 115485,
  "Ġverdad": 81171,
  ":Any": 97192,
  "åĪ¹è½¦": 110501,
  "_HDR": 55765,
  "ĠAdult": 22133,
  "sheets": 91437,
  "Ġtremendous": 26942,
  ".getLatitude": 95961,
  "(My": 37485,
  "Look": 10380,
  "ĠSubmit": 29170,
  "Ġrehearsal": 88855,
  "ain": 466,
  "å°Ĭæķ¬": 109723,
  ".[": 7873,
  "ĠLOS": 52687,
  "ĠDrawable": 58016,
  "ĠCheat": 98023,
  "Trade": 39173,
  "igrant": 56019,
  "çĥ¹é¥ª": 111611,
  "å»Ĵ": 123237,
  "Store": 6093,
  "ĠVW": 52185,
  "Ġethanol": 61672,
  "Ġlett": 50581,
  "Ġad": 993,
  "Ġpractical": 14976,
  "Bindable": 70397,
  "Array": 1857,
  "Ġcuanto": 86487,
  "ĠSpotlight": 80299,
  "Ġnuovo": 72729,
  "IGIN": 55529,
  "å¹¿æĴŃ": 102846,
  "-single": 56687,
  "Ġwoods": 32533,
  "æľīä¸Ģå®ļ": 108342,
  "umar": 30867,
  "*z": 56413,
  "Ġferr": 57039,
  "_nav": 28233,
  "ç»Łè®¡": 100787,
  "ĠSummers": 79648,
  "Ġwarmly": 96370,
  "ĠNoon": 82856,
  "æ¸Ŀ": 106391,
  "ĠObesity": 94071,
  "DEC": 30726,
  "æĶ¶èĹı": 104519,
  "<Input": 80451,
  "ĠSantos": 47623,
  "Root": 8439,
  ".Distance": 52208,
  "_stylesheet": 84724,
  "ĠHinderedRotor": 95065,
  "shots": 27634,
  "UPPORT": 16504,
  "Ġace": 26747,
  "Ġpros": 8709,
  "ĠDiamonds": 90110,
  "çĨŁ": 100089,
  "ObjectName": 37748,
  "\"context": 51517,
  "Ġrebel": 35317,
  "ordinates": 8742,
  "Ġexample": 3110,
  "ĠInstallation": 39145,
  "Ġharm": 11428,
  "bundles": 86660,
  "Ġalte": 43908,
  "(saved": 14217,
  "Ġrele": 13733,
  "essay": 79977,
  "ĠSpi": 19751,
  "viso": 72449,
  "ĠLakers": 46496,
  "Ġcann": 13750,
  "_id": 842,
  "aporan": 71739,
  ".photos": 64348,
  "Ġsegregation": 63144,
  "opencv": 43195,
  "ï¼¯": 136540,
  "ĠCOOKIE": 41565,
  ":H": 94192,
  "Ġpri": 12493,
  ".DataFrame": 21077,
  "Em": 2269,
  "Ġcognitive": 24675,
  "ĠkeyPressed": 96104,
  "Ġabbrev": 39515,
  ".Cl": 21610,
  "Ġaccepted": 11666,
  "å¥³åıĭ": 107543,
  ".readAs": 81371,
  "Ġpumpkin": 49525,
  "il": 321,
  "Attend": 98268,
  "',": 516,
  "Jesus": 53965,
  "Ġcomed": 62013,
  "urent": 75965,
  "æ¹ĵ": 123090,
  "ĠDevelopers": 46617,
  "Ġdegli": 46569,
  "çĲĨåıĳ": 117516,
  "osti": 70679,
  "']?></": 48145,
  "åĲĮçŃī": 110601,
  "Cel": 87616,
  "ĠNEVER": 55025,
  "(EC": 86062,
  "ateful": 20840,
  "ĠCarroll": 46109,
  "ĠDale": 36728,
  "_forms": 64282,
  "ĠBryant": 39592,
  ".tasks": 31232,
  "ĠSte": 3360,
  "Ġsurprisingly": 28292,
  "Ġnig": 82770,
  "ĠAssemblyTitle": 89590,
  "éģĹ": 99712,
  "åħ¶å®ŀå°±æĺ¯": 112568,
  "\\application": 55829,
  "Ġair": 3720,
  "LAND": 39815,
  "toArray": 27774,
  "naire": 28483,
  "ä¹ĲæĦı": 115590,
  "Dash": 42263,
  "Ġnok": 79733,
  "ĠIssue": 25226,
  "Ġalgebra": 46876,
  "Ġfeast": 52168,
  "ĠGPIO": 10703,
  "ĠStrawberry": 87977,
  "Confirmed": 47948,
  "æĸĩç«ł": 82025,
  "Ġgetopt": 66902,
  "Ġinterns": 98834,
  "å¥¢": 101015,
  "Ġ'\".$": 26954,
  "Ġconverse": 94240,
  ".Office": 68104,
  "éģ¹": 123505,
  "ĠKv": 88321,
  "Ġprix": 37747,
  "ARY": 8642,
  "(call": 32691,
  "è¡¥è´´": 104541,
  "ĠObservation": 86429,
  "ĠBon": 13481,
  "ĠCLI": 39277,
  "_Status": 36449,
  "Ġalgun": 36471,
  "_date": 4164,
  "prompt": 40581,
  ".setToolTip": 73616,
  "ĠFuk": 62659,
  ".substr": 18011,
  "Ġlying": 20446,
  "_ht": 49086,
  "Ġhasattr": 31056,
  "è¿Ļä¹Łæĺ¯": 104624,
  "ä½Ĩå®ŀéĻħä¸Ĭ": 117076,
  "å¸ĮæľĽèĥ½": 107452,
  "(active": 45929,
  "Ġofficial": 3946,
  "çĦ¦çĤ¹": 106089,
  ".gridx": 71429,
  "ç²¾å½©": 100848,
  "ĠRESPONSE": 76173,
  "_credentials": 47396,
  "ĠFrost": 41220,
  "éħĥ": 122012,
  "_dept": 93868,
  "Ġmobility": 30039,
  "_total": 10784,
  "eco": 54297,
  "ADOS": 89942,
  "Ġdare": 32204,
  "ä¸įå¿ĺåĪĿå¿ĥ": 109393,
  "Membership": 80904,
  "Ġlivest": 41812,
  "Co": 7339,
  "èĽı": 120664,
  "è¾ĵåįµ": 118308,
  "rire": 95413,
  "Ġexposes": 58281,
  ".ToolStrip": 13407,
  "ularity": 28979,
  "exels": 94727,
  "è¿·äºº": 110356,
  "Ġdusk": 92885,
  "notice": 23556,
  "åĵĪå°Ķæ»¨": 106427,
  "`": 63,
  ".equalTo": 26593,
  "Ġ{{$": 30108,
  "ĠRetrie": 19470,
  "Ġchall": 4799,
  "~": 93,
  "å¼ķåĬĽ": 117794,
  "PROP": 75594,
  "('.'": 87433,
  "åı°å·ŀ": 111875,
  "-fiction": 73431,
  "ĠSERVER": 39664,
  "_Group": 52619,
  "Ġlicensee": 85634,
  "åı¤éķĩ": 110161,
  "ĠMonoBehaviour": 15714,
  "Ġmaken": 54056,
  ".decor": 37412,
  "Ġ********************************************************************************": 76550,
  "_planes": 75340,
  "ĠPatterson": 57634,
  "Ġdonde": 29040,
  "Occup": 63968,
  "Los": 29596,
  "kal": 35541,
  "\\Doctrine": 90090,
  "ĠHSV": 80311,
  "Ġattract": 9320,
  "Ġbenign": 64209,
  "\"They": 31308,
  "ĠBlond": 91998,
  "/Index": 88151,
  "Ġoffen": 87533,
  ".Compute": 89237,
  "ĠHalf": 25839,
  "ĠMIC": 44741,
  "ettle": 47626,
  "Ġdeal": 3484,
  "(square": 86344,
  "Quiz": 53886,
  "åĪ«çļĦ": 102657,
  "èĢ½": 103550,
  "Ġparach": 73945,
  "æĸ¯çī¹": 105829,
  "å¹¶ä¸įä»£è¡¨": 111706,
  "ĠCommander": 34138,
  "è½¨": 100319,
  "Ġconv": 5686,
  "Ġsusp": 9298,
  "Ġnoises": 57348,
  "Ġtodav": 140022,
  "veau": 33467,
  "Nodes": 12288,
  "lm": 17771,
  ".erb": 73766,
  "Ġcoupling": 57986,
  "asurer": 56294,
  "ĠMalone": 83071,
  "æĦķ": 119037,
  "éĶĢåĶ®æ¸łéģĵ": 116824,
  "ĠWidgets": 77176,
  "gow": 36186,
  ".osgi": 97176,
  "Ġsicher": 54548,
  "nesty": 47285,
  "ç¡«éħ¸": 117003,
  ".nextSibling": 94815,
  "ASS": 4939,
  "ĠPlugin": 21245,
  "Contracts": 36352,
  "ĠViet": 17731,
  "Ġdive": 29863,
  "çº¢èĮ¶": 117653,
  "ĠMyst": 29627,
  "è§ĭ": 120608,
  "dance": 98875,
  "åħĭèİ±": 118625,
  "Ġhaus": 70272,
  "OAuth": 57850,
  "ä¼Ĺäºº": 105407,
  "Ġamendments": 40593,
  "ĠBapt": 34876,
  "çĽ®åīįå·²ç»ı": 114403,
  "orative": 62365,
  "Ġprofile": 5526,
  "å¤ĸåĮħ": 110187,
  "ä¼´éļıçĿĢ": 107689,
  "Minimum": 28695,
  "=_(\"": 91347,
  "Ġ[('": 51128,
  "Ġ(($": 26856,
  "æĲľéĽĨ": 111783,
  "ï¦Ĳ": 149256,
  "uegos": 86206,
  "HandlerContext": 75226,
  "agit": 73872,
  "ĠEllison": 81647,
  "(TokenType": 91211,
  "leftrightarrow": 81819,
  "æķıæĦŁ": 105521,
  "inesis": 82789,
  "åıĮåįģä¸Ģ": 111666,
  "ĠSaturn": 49153,
  "ĠDisplays": 49606,
  "Dir": 6184,
  "é»¼": 122016,
  "Ġyuk": 142725,
  "å¤©çĦ¶": 102306,
  ".Context": 9328,
  "Ġbasil": 67086,
  "èµ°åľ¨": 106932,
  "SHOW": 50317,
  "æıĲåıĬ": 109361,
  "Records": 25876,
  "Ġstepper": 95932,
  "Ġterrorism": 23145,
  "Ġvinc": 81710,
  "_audio": 29688,
  "Ġlocus": 78157,
  "Ġelegant": 25777,
  "roat": 17804,
  "Ġjudgment": 19407,
  "Ġlaughing": 31581,
  "-ST": 92577,
  "çİĻ": 119655,
  "ĠFight": 18629,
  ".setter": 46594,
  "ĠFR": 16654,
  "rag": 4101,
  "zeigen": 44919,
  "ToObject": 81541,
  "JA": 44180,
  "_most": 81416,
  "Ġloneliness": 73940,
  "åĬłæĭ¿å¤§": 105274,
  "ĠStorm": 21862,
  "Ġfie": 62305,
  "Ġrisking": 84922,
  "Scaled": 94201,
  "ĠNUIT": 73976,
  "Ġiid": 91343,
  "enumerate": 76569,
  "publish": 27502,
  "Ġ################################################": 67161,
  "udios": 88785,
  "quivo": 28944,
  "isempty": 46064,
  "çĸ£": 120202,
  "æĿ¥åĽŀ": 110490,
  "ĠReset": 16932,
  "å¸Ĥåľºç»ıæµİ": 107338,
  "æł¡éķ¿": 102545,
  "éĢļè¡Įè¯ģ": 113638,
  "ANTE": 93318,
  "Expl": 43953,
  "chemical": 30956,
  "Little": 38103,
  "Ġanyone": 5489,
  "Ġimpactful": 97890,
  "Ġadvertiser": 86286,
  "åı£ç½©": 105886,
  "é»§": 122068,
  "ĠTimeInterval": 98548,
  "ĠNPC": 29717,
  ".evaluate": 36036,
  "ĠaddObserver": 76939,
  "ĠHed": 74163,
  "ï¦Ī": 149815,
  "ved": 2066,
  "è¿Ļä¸ªèģĮä¸ļ": 109252,
  "æľ¬ç«Ļ": 104707,
  "éĤ£éº¼": 108414,
  "éĢĤå®ľ": 107406,
  "ĠGenerates": 52492,
  "ĠPul": 34862,
  "Ġautofocus": 53032,
  "PTH": 25075,
  "ä¸¨": 106847,
  "è¥¿å®īå¸Ĥ": 112584,
  "åħ·ä½ĵ": 100398,
  "Ġ//</": 67300,
  "ĠFocus": 25806,
  "ĠBarcl": 67912,
  "Ctx": 23684,
  "paragraph": 27727,
  "Ġpetals": 95640,
  "igrants": 70236,
  "ĠKendall": 73076,
  "UNC": 12633,
  "conditional": 45368,
  "Ġattempts": 13553,
  "Ġinjection": 25071,
  "Ġwil": 30231,
  "Plugins": 45378,
  "Scale": 6947,
  "ĠKrist": 26875,
  "Ġpeaked": 77192,
  "ĠmediaPlayer": 90141,
  "äºĭçī©": 105001,
  "Ġconfused": 21815,
  "èĽ©": 120866,
  ".offsetWidth": 77807,
  "Trying": 55862,
  "Ġerst": 34368,
  "LocalizedMessage": 98375,
  "atak": 68728,
  "Ign": 43337,
  "çĻ¾è´§": 107774,
  "å¸¦ç»Ļ": 107248,
  "Ġtranscription": 45840,
  "Ġrookie": 30525,
  "Ġunavoidable": 83016,
  "(port": 21230,
  "Ġtaxis": 89503,
  "ĠAppet": 92279,
  "Ġgigantic": 57873,
  "çķ¶æĻĤ": 109336,
  "ĠCharlie": 24927,
  "ailable": 2094,
  "Ġeerste": 67570,
  "Ġstoryt": 40006,
  "Ġarise": 30789,
  "suit": 72040,
  "_im": 17895,
  "[\"": 1183,
  "_SUCCESS": 8827,
  "iking": 19233,
  "ĠTf": 91456,
  "ĠMash": 68179,
  "Ġperson": 1697,
  "controllers": 21611,
  ")=(": 73173,
  "Ġshock": 10755,
  "want": 52657,
  "Ġsucking": 43525,
  "ĠDenise": 80249,
  "Ġthreatens": 47826,
  "éĶĽ": 121219,
  "ç§Łéĩĳ": 107293,
  "Ġansch": 93644,
  "Ġswings": 56790,
  "ĠPerf": 71448,
  "IENT": 10757,
  "ĠDST": 77100,
  "til": 1646,
  "ĠGoods": 41595,
  "è¾Ģ": 122616,
  "Ġesac": 81844,
  "ĠNUITKA": 74420,
  "éĴĴ": 119894,
  "ĠDynamic": 21886,
  "Ġdepressing": 70710,
  "hone": 25256,
  "Ġ/><": 23976,
  "Ġsubtitle": 31735,
  "typed": 44181,
  "è¦ģçľĭ": 109528,
  "Ġmaks": 89144,
  ".SaveChangesAsync": 47907,
  "éĢĿä¸ĸ": 115918,
  "esso": 9823,
  "xxx": 24048,
  "verages": 42868,
  "_comm": 25149,
  "_tracking": 66105,
  "åħ¬åħĥ": 103449,
  "Henry": 63363,
  "Ġenhancement": 26788,
  "éķ¿èĢģ": 112889,
  "not": 1921,
  "strip": 13105,
  "jq": 43915,
  "pthread": 36283,
  "_web": 25960,
  ".Nodes": 52184,
  "æĥ³äºĨæĥ³": 117341,
  "Ġprofes": 34708,
  "abilia": 93350,
  "tright": 68976,
  "_groups": 21148,
  "Ġcandies": 97397,
  "ä¸Ĭå²Ĺ": 113242,
  "erne": 67395,
  "tek": 42713,
  "itution": 33690,
  "å®Ŀé©¬": 107383,
  "Ġprevail": 65728,
  "-W": 13002,
  "bv": 54929,
  "çī¹": 65278,
  "ĠRotterdam": 97777,
  ".t": 734,
  "æ¸¸æĪıçİ©å®¶": 105368,
  "Ġmust": 1969,
  "Ġmirac": 64966,
  "Ġpickle": 22186,
  ")?": 11843,
  "ĠRoutedEventArgs": 31066,
  "ĠxAxis": 61185,
  "Ġec": 11942,
  "'h": 38882,
  "-world": 30084,
  ".Cast": 65239,
  ".entrySet": 44396,
  "Exact": 57954,
  "Ġpure": 10526,
  "_UNIT": 31718,
  "Ġenthusi": 21142,
  "Rejected": 77693,
  "çļĦåŁºç¡Ģ": 105549,
  "lead": 26060,
  "Ġmetabolism": 37997,
  "ETERS": 38255,
  "<Real": 64829,
  "lw": 57053,
  "Ġhomeless": 22994,
  "Ġdripping": 76215,
  "ĠLaser": 39608,
  "Ġcarriage": 51447,
  "oun": 1624,
  "æ·±åĮĸæĶ¹éĿ©": 112680,
  "çļĦç¬ĳå®¹": 110247,
  "èĥ¡èĲĿåįľ": 111761,
  "ĠNashville": 36540,
  "å·²å®ĮæĪĲ": 110045,
  "Ġrevise": 64736,
  "ulty": 14728,
  "Ġstrife": 96612,
  "Ah": 24765,
  "LN": 50216,
  "æ¸Ľ": 103431,
  "cs": 4837,
  "ĠSpa": 34814,
  "Ġnpm": 46422,
  "ĠSmy": 93402,
  "ih": 6996,
  "éĺ¶å±Ĥ": 110870,
  "Ġwars": 24936,
  "Ġallocate": 22089,
  "ulous": 13540,
  "Expr": 16041,
  "Ġschemas": 61800,
  "å¥ĩèĳ©": 113660,
  "ĠFileInputStream": 40185,
  "/>\\": 98408,
  "_entries": 26092,
  "çı²": 120292,
  "eventType": 94066,
  "ĠHog": 49769,
  "å·¥ç¨ĭå¸Ī": 105503,
  "REG": 12173,
  "ĠShot": 32347,
  "ToF": 69152,
  ".=\"<": 89628,
  ".SystemColors": 24091,
  "Ġdirt": 25284,
  "_numero": 96728,
  "éŃģ": 111984,
  "Ġmod": 1463,
  "Ġoutcome": 15274,
  "/**<": 69019,
  "Ġstrive": 36006,
  "Ġ}}\"></": 39920,
  "Hosting": 84921,
  "<UFunction": 91239,
  "ifu": 20850,
  "å¤§çĽĺ": 107224,
  ".offsetTop": 95298,
  "_REPLACE": 97720,
  "ä¸Ĳ": 119299,
  "ERRQ": 61076,
  "ĠHart": 22900,
  "ĠArcade": 64207,
  "ActionCode": 88941,
  "èıľåįķ": 112166,
  "ffffff": 26886,
  "Ġhands": 6078,
  "\"></": 2000,
  "ints": 21042,
  "éºĳ": 123729,
  "çīĮçħ§": 111614,
  "è¿Ļåº§": 103092,
  "FLOAT": 50915,
  "Ġ'.',": 45669,
  "&&(": 59024,
  "èħĵ": 120999,
  "ĠClayton": 63444,
  "ĠPikachu": 96919,
  "uchs": 53152,
  "çĮ®": 100060,
  "éĢĲ": 100062,
  "Ġkommt": 51528,
  "Ġnaked": 19020,
  "regulated": 80622,
  "æĸĩæľ¬": 108704,
  "liv": 33567,
  ".waitKey": 58936,
  "ĠCONTRIBUT": 21076,
  "è£¼": 123268,
  "Ġpublication": 16599,
  "Ġsweaty": 97421,
  "ĠTITLE": 48573,
  "-general": 67997,
  "æĻºèĥ½å®¶å±ħ": 112146,
  "Ġulcer": 95871,
  "digits": 60770,
  "ĠU": 547,
  "Ġfa": 2218,
  "ĠEssays": 55614,
  "Interested": 83052,
  "æĥħæĬ¥": 108442,
  "elay": 6895,
  "Ġvente": 73090,
  "/drivers": 86647,
  "\"C": 46316,
  "ono": 10148,
  "CRC": 83339,
  "ĠDispatchQueue": 47851,
  "Considering": 82796,
  "Ġfois": 36191,
  "å°¥": 119604,
  "_fwd": 81083,
  ":'#": 54602,
  "ĠAdds": 24475,
  "ĠTanzania": 68794,
  "_NAMES": 24833,
  "ç²ķ": 119248,
  "uing": 7471,
  "Effect": 7738,
  "ç²ī": 99742,
  "-layout": 37803,
  "Ġrms": 79994,
  "Ġcomando": 49868,
  "conomics": 80092,
  ".Default": 13275,
  "/controllers": 51646,
  "æİ¢ç©¶": 110558,
  ".Th": 5111,
  "ItemImage": 70636,
  ".tableView": 29722,
  "ĠArrow": 33712,
  "ĠHomeController": 60878,
  "æģª": 120243,
  "Ġchalleng": 7301,
  "åħķ": 119709,
  "Ġpeanuts": 89077,
  "ilion": 48912,
  "asure": 3970,
  "Reach": 48368,
  "Robin": 76671,
  "Ġreligious": 10381,
  "oused": 36488,
  "Ġrepercussions": 80809,
  "èģĬèģĬ": 115604,
  "ĠSOM": 73290,
  "dated": 3577,
  "_variation": 95409,
  "Ġacross": 3941,
  "/devices": 80397,
  ".SimpleDateFormat": 45919,
  "'acc": 68437,
  ".Services": 20089,
  "ĠDx": 88797,
  ")data": 64434,
  "edException": 18826,
  "Ġscore": 5456,
  "_append": 26041,
  "ĠoffsetY": 68038,
  "Ġincorrect": 15114,
  "Johnson": 62660,
  "Ġsubmitted": 14634,
  "Ġkeyed": 90529,
  "ĠtotalCount": 59713,
  "ĠGiants": 29735,
  "ĠLiberty": 31392,
  ".djangoproject": 63521,
  "_real": 15266,
  "_rg": 86566,
  "expert": 73887,
  "åķŁ": 103564,
  "åĽ½å®¶çº§": 105197,
  "averse": 22439,
  "Ġcrop": 19097,
  "Ġregress": 69780,
  "protect": 45979,
  "section": 2809,
  "IGO": 60489,
  ".IO": 8393,
  "ĠZy": 86554,
  "_CREATED": 57784,
  "æµį": 120230,
  "é³ī": 123647,
  "æ¯ıæ¬¡": 102173,
  "çľŁå®ŀ": 100267,
  ":variables": 56205,
  "ĠMcCoy": 70632,
  "lam": 23771,
  "IGHL": 84659,
  "+'": 6829,
  "å°ıåºĹ": 114933,
  "é¹¬": 121953,
  "ĠHeadquarters": 69636,
  "ĠThrough": 16904,
  "Ġextrad": 66802,
  "PCR": 73156,
  "ç§ģèĩª": 116788,
  "getOrElse": 91702,
  "Ġswelling": 54207,
  "<V": 21420,
  "_models": 30792,
  "èİ²èĬ±": 110914,
  "itage": 18443,
  "åİ»æī¾": 107328,
  "Ġstake": 18279,
  "ï½´": 144863,
  "InitStruct": 63013,
  "invoices": 88596,
  "_PAY": 36417,
  "Ġappreciated": 25808,
  ")/(": 24254,
  "Ġsurreal": 64523,
  "ĠMun": 27882,
  "Very": 25756,
  "Ġautomatic": 16962,
  "ViewChild": 53976,
  "éļ¾é¢ĺ": 104768,
  "tener": 73500,
  "ĠCivic": 54829,
  "Ġsemua": 77497,
  "è¯¦æĥħ": 89656,
  "_you": 70456,
  "Ġwatermark": 88006,
  "çįĹ": 121654,
  "ublish": 2538,
  "åĽ½å®¶å®īåħ¨": 111414,
  "ĠLiberation": 71884,
  "rais": 39998,
  "av": 402,
  "èĦ±è´«èĩ´å¯Į": 116792,
  "(Dense": 68241,
  "_record": 14192,
  "Ġquel": 25025,
  "trusted": 83837,
  "æķĻèĤ²éĥ¨": 106001,
  "çľ©": 119190,
  "ĠDecomp": 62378,
  "ĠElectrical": 43934,
  "RIPTION": 30598,
  "Ġgra": 27599,
  "åĲ¯åĬ¨": 101159,
[...]
